{
  "version": "1.0",
  "truncation": null,
  "padding": null,
  "added_tokens": [
    {
      "id": 0,
      "content": "[UNK]",
      "single_word": false,
      "lstrip": false,
      "rstrip": false,
      "normalized": false,
      "special": true
    },
    {
      "id": 1,
      "content": "[PAD]",
      "single_word": false,
      "lstrip": false,
      "rstrip": false,
      "normalized": false,
      "special": true
    },
    {
      "id": 2,
      "content": "[EOS]",
      "single_word": false,
      "lstrip": false,
      "rstrip": false,
      "normalized": false,
      "special": true
    },
    {
      "id": 3,
      "content": "<|SYSTEM|>",
      "single_word": false,
      "lstrip": false,
      "rstrip": false,
      "normalized": false,
      "special": true
    },
    {
      "id": 4,
      "content": "<|USER|>",
      "single_word": false,
      "lstrip": false,
      "rstrip": false,
      "normalized": false,
      "special": true
    },
    {
      "id": 5,
      "content": "<|ASSISTANT|>",
      "single_word": false,
      "lstrip": false,
      "rstrip": false,
      "normalized": false,
      "special": true
    },
    {
      "id": 6,
      "content": "<|END|>",
      "single_word": false,
      "lstrip": false,
      "rstrip": false,
      "normalized": false,
      "special": true
    },
    {
      "id": 7,
      "content": "<|SEP|>",
      "single_word": false,
      "lstrip": false,
      "rstrip": false,
      "normalized": false,
      "special": true
    },
    {
      "id": 8,
      "content": "<|EOT|>",
      "single_word": false,
      "lstrip": false,
      "rstrip": false,
      "normalized": false,
      "special": true
    }
  ],
  "normalizer": null,
  "pre_tokenizer": {
    "type": "WhitespaceSplit"
  },
  "post_processor": {
    "type": "TemplateProcessing",
    "single": [
      {
        "Sequence": {
          "id": "A",
          "type_id": 0
        }
      },
      {
        "SpecialToken": {
          "id": "[EOS]",
          "type_id": 0
        }
      }
    ],
    "pair": [
      {
        "Sequence": {
          "id": "A",
          "type_id": 0
        }
      },
      {
        "Sequence": {
          "id": "B",
          "type_id": 1
        }
      }
    ],
    "special_tokens": {
      "[EOS]": {
        "id": "[EOS]",
        "ids": [
          2
        ],
        "tokens": [
          "[EOS]"
        ]
      }
    }
  },
  "decoder": {
    "type": "BPEDecoder",
    "suffix": "</w>"
  },
  "model": {
    "type": "BPE",
    "dropout": null,
    "unk_token": "[UNK]",
    "continuing_subword_prefix": "",
    "end_of_word_suffix": "</w>",
    "fuse_unk": false,
    "byte_fallback": false,
    "ignore_merges": false,
    "vocab": {
      "[UNK]": 0,
      "[PAD]": 1,
      "[EOS]": 2,
      "<|SYSTEM|>": 3,
      "<|USER|>": 4,
      "<|ASSISTANT|>": 5,
      "<|END|>": 6,
      "<|SEP|>": 7,
      "<|EOT|>": 8,
      "\u0014": 9,
      "!": 10,
      "\"": 11,
      "#": 12,
      "$": 13,
      "%": 14,
      "&": 15,
      "'": 16,
      "(": 17,
      ")": 18,
      "*": 19,
      "+": 20,
      ",": 21,
      "-": 22,
      ".": 23,
      "/": 24,
      "0": 25,
      "1": 26,
      "2": 27,
      "3": 28,
      "4": 29,
      "5": 30,
      "6": 31,
      "7": 32,
      "8": 33,
      "9": 34,
      ":": 35,
      ";": 36,
      "<": 37,
      "=": 38,
      ">": 39,
      "?": 40,
      "@": 41,
      "A": 42,
      "B": 43,
      "C": 44,
      "D": 45,
      "E": 46,
      "F": 47,
      "G": 48,
      "H": 49,
      "I": 50,
      "J": 51,
      "K": 52,
      "L": 53,
      "M": 54,
      "N": 55,
      "O": 56,
      "P": 57,
      "Q": 58,
      "R": 59,
      "S": 60,
      "T": 61,
      "U": 62,
      "V": 63,
      "W": 64,
      "X": 65,
      "Y": 66,
      "Z": 67,
      "[": 68,
      "\\": 69,
      "]": 70,
      "^": 71,
      "_": 72,
      "`": 73,
      "a": 74,
      "b": 75,
      "c": 76,
      "d": 77,
      "e": 78,
      "f": 79,
      "g": 80,
      "h": 81,
      "i": 82,
      "j": 83,
      "k": 84,
      "l": 85,
      "m": 86,
      "n": 87,
      "o": 88,
      "p": 89,
      "q": 90,
      "r": 91,
      "s": 92,
      "t": 93,
      "u": 94,
      "v": 95,
      "w": 96,
      "x": 97,
      "y": 98,
      "z": 99,
      "{": 100,
      "|": 101,
      "}": 102,
      "~": 103,
      "¡": 104,
      "¢": 105,
      "£": 106,
      "¤": 107,
      "¥": 108,
      "§": 109,
      "©": 110,
      "ª": 111,
      "«": 112,
      "­": 113,
      "®": 114,
      "°": 115,
      "±": 116,
      "²": 117,
      "³": 118,
      "µ": 119,
      "·": 120,
      "º": 121,
      "»": 122,
      "¼": 123,
      "½": 124,
      "¾": 125,
      "¿": 126,
      "À": 127,
      "Á": 128,
      "Â": 129,
      "Ã": 130,
      "Ä": 131,
      "Å": 132,
      "Ç": 133,
      "É": 134,
      "Ê": 135,
      "Í": 136,
      "Î": 137,
      "Ñ": 138,
      "Ó": 139,
      "Ô": 140,
      "Õ": 141,
      "Ö": 142,
      "×": 143,
      "Ø": 144,
      "Ú": 145,
      "Ü": 146,
      "Þ": 147,
      "ß": 148,
      "à": 149,
      "á": 150,
      "â": 151,
      "ã": 152,
      "ä": 153,
      "å": 154,
      "æ": 155,
      "ç": 156,
      "è": 157,
      "é": 158,
      "ê": 159,
      "ë": 160,
      "ì": 161,
      "í": 162,
      "î": 163,
      "ï": 164,
      "ð": 165,
      "ñ": 166,
      "ò": 167,
      "ó": 168,
      "ô": 169,
      "õ": 170,
      "ö": 171,
      "÷": 172,
      "ø": 173,
      "ù": 174,
      "ú": 175,
      "r</w>": 176,
      ",</w>": 177,
      "s</w>": 178,
      ".</w>": 179,
      "d</w>": 180,
      "o</w>": 181,
      "!</w>": 182,
      "4</w>": 183,
      ")</w>": 184,
      "á</w>": 185,
      "m</w>": 186,
      "\"</w>": 187,
      "l</w>": 188,
      "a</w>": 189,
      "e</w>": 190,
      "6</w>": 191,
      "n</w>": 192,
      "A</w>": 193,
      ":</w>": 194,
      "3</w>": 195,
      "f</w>": 196,
      ";</w>": 197,
      "i</w>": 198,
      "D</w>": 199,
      "?</w>": 200,
      "y</w>": 201,
      "g</w>": 202,
      "0</w>": 203,
      "`</w>": 204,
      "ê</w>": 205,
      "5</w>": 206,
      "j</w>": 207,
      "2</w>": 208,
      "z</w>": 209,
      "R</w>": 210,
      "x</w>": 211,
      "1</w>": 212,
      "S</w>": 213,
      "9</w>": 214,
      "E</w>": 215,
      "u</w>": 216,
      "t</w>": 217,
      "V</w>": 218,
      "O</w>": 219,
      "v</w>": 220,
      "É</w>": 221,
      "k</w>": 222,
      "7</w>": 223,
      "W</w>": 224,
      "h</w>": 225,
      "c</w>": 226,
      "I</w>": 227,
      "T</w>": 228,
      "=</w>": 229,
      "p</w>": 230,
      "Y</w>": 231,
      "%</w>": 232,
      "'</w>": 233,
      "B</w>": 234,
      "L</w>": 235,
      "}</w>": 236,
      "X</w>": 237,
      "b</w>": 238,
      "H</w>": 239,
      "C</w>": 240,
      "]</w>": 241,
      "(</w>": 242,
      "°</w>": 243,
      "></w>": 244,
      "é</w>": 245,
      "8</w>": 246,
      "_</w>": 247,
      "K</w>": 248,
      "ó</w>": 249,
      "N</w>": 250,
      "U</w>": 251,
      "-</w>": 252,
      "G</w>": 253,
      "À</w>": 254,
      "w</w>": 255,
      "à</w>": 256,
      "\\</w>": 257,
      "q</w>": 258,
      "J</w>": 259,
      "ã</w>": 260,
      "ª</w>": 261,
      "/</w>": 262,
      "P</w>": 263,
      "|</w>": 264,
      "F</w>": 265,
      "*</w>": 266,
      "º</w>": 267,
      "â</w>": 268,
      "{</w>": 269,
      "®</w>": 270,
      "M</w>": 271,
      "ú</w>": 272,
      "Q</w>": 273,
      "³</w>": 274,
      "Z</w>": 275,
      "²</w>": 276,
      "×</w>": 277,
      "ô</w>": 278,
      "$</w>": 279,
      "+</w>": 280,
      "ß</w>": 281,
      "#</w>": 282,
      "í</w>": 283,
      "£</w>": 284,
      "è</w>": 285,
      "ù</w>": 286,
      "Å</w>": 287,
      "&</w>": 288,
      "ç</w>": 289,
      "<</w>": 290,
      "Á</w>": 291,
      "·</w>": 292,
      "©</w>": 293,
      "Ó</w>": 294,
      "Ã</w>": 295,
      "æ</w>": 296,
      "^</w>": 297,
      "½</w>": 298,
      "ë</w>": 299,
      "ò</w>": 300,
      "[</w>": 301,
      "ø</w>": 302,
      "ö</w>": 303,
      "±</w>": 304,
      "ì</w>": 305,
      "»</w>": 306,
      "¼</w>": 307,
      "~</w>": 308,
      "Ê</w>": 309,
      "÷</w>": 310,
      "§</w>": 311,
      "¢</w>": 312,
      "¾</w>": 313,
      "ä</w>": 314,
      "¥</w>": 315,
      "«</w>": 316,
      "Ö</w>": 317,
      "\u0014</w>": 318,
      "¤</w>": 319,
      "@</w>": 320,
      "nt": 321,
      "es": 322,
      "de</w>": 323,
      "co": 324,
      "er": 325,
      "ar": 326,
      "os</w>": 327,
      "as</w>": 328,
      "qu": 329,
      "ent": 330,
      "ad": 331,
      "po": 332,
      "re": 333,
      "in": 334,
      "an": 335,
      "ão</w>": 336,
      "en": 337,
      "do</w>": 338,
      "ci": 339,
      "or": 340,
      "al": 341,
      "em</w>": 342,
      "es</w>": 343,
      "que</w>": 344,
      "st": 345,
      "ri": 346,
      "ra": 347,
      "par": 348,
      "el": 349,
      "am": 350,
      "ar</w>": 351,
      "est": 352,
      "se": 353,
      "di": 354,
      "um": 355,
      "ti": 356,
      "as": 357,
      "ro": 358,
      "da</w>": 359,
      "para</w>": 360,
      "um</w>": 361,
      "aç": 362,
      "ai": 363,
      "com": 364,
      "so": 365,
      "em": 366,
      "ic": 367,
      "ei": 368,
      "uma</w>": 369,
      "gu": 370,
      "ant": 371,
      "on": 372,
      "vi": 373,
      "at": 374,
      "er</w>": 375,
      "si": 376,
      "su": 377,
      "res": 378,
      "se</w>": 379,
      "li": 380,
      "ente</w>": 381,
      "o,</w>": 382,
      "per": 383,
      "con": 384,
      "os": 385,
      "ou</w>": 386,
      "ais</w>": 387,
      "de": 388,
      "pro": 389,
      "al</w>": 390,
      "com</w>": 391,
      "for": 392,
      "im": 393,
      "ex": 394,
      "ul": 395,
      "a,</w>": 396,
      "ec": 397,
      "am</w>": 398,
      "ut": 399,
      "it": 400,
      "ado</w>": 401,
      "ação</w>": 402,
      "oc": 403,
      "o.</w>": 404,
      "id": 405,
      "ol": 406,
      "ando</w>": 407,
      "ap": 408,
      "fi": 409,
      "a.</w>": 410,
      "ões</w>": 411,
      "ra</w>": 412,
      "un": 413,
      "na</w>": 414,
      "et": 415,
      "om": 416,
      "ada</w>": 417,
      "no</w>": 418,
      "cont": 419,
      "des": 420,
      "como</w>": 421,
      "is": 422,
      "or</w>": 423,
      "re</w>": 424,
      "ag": 425,
      "não</w>": 426,
      "av": 427,
      "ab": 428,
      "ac": 429,
      "pl": 430,
      "so</w>": 431,
      "tiv": 432,
      "pre": 433,
      "ro</w>": 434,
      "ade</w>": 435,
      "ve": 436,
      "são</w>": 437,
      "fic": 438,
      "ção</w>": 439,
      "mais</w>": 440,
      "ia</w>": 441,
      "por</w>": 442,
      "lu": 443,
      "ento</w>": 444,
      "dos</w>": 445,
      "du": 446,
      "to": 447,
      "int": 448,
      "ch": 449,
      "to</w>": 450,
      "ver": 451,
      "e,</w>": 452,
      "post": 453,
      "cion": 454,
      "sua</w>": 455,
      "segu": 456,
      "por": 457,
      "seu</w>": 458,
      "ári": 459,
      "lh": 460,
      "nci": 461,
      "form": 462,
      "ran": 463,
      "cor": 464,
      "us": 465,
      "eg": 466,
      "ados</w>": 467,
      "ist": 468,
      "das</w>": 469,
      "ur": 470,
      "fo": 471,
      "pode</w>": 472,
      "pod": 473,
      "sob": 474,
      "fer": 475,
      "gunt": 476,
      "inh": 477,
      "ig": 478,
      "ter": 479,
      "ocê</w>": 480,
      "pes": 481,
      "ir</w>": 482,
      "mo": 483,
      "e.</w>": 484,
      "ni": 485,
      "pri": 486,
      "a:</w>": 487,
      "tam": 488,
      "ações</w>": 489,
      "mente</w>": 490,
      "ev": 491,
      "dade</w>": 492,
      "dad": 493,
      "iz": 494,
      "og": 495,
      "sobre</w>": 496,
      "ênci": 497,
      "ça</w>": 498,
      "pe": 499,
      "ess": 500,
      "ela</w>": 501,
      "is</w>": 502,
      "tra": 503,
      "mu": 504,
      "ém</w>": 505,
      "do": 506,
      "cri": 507,
      "está</w>": 508,
      "ju": 509,
      "no": 510,
      "ser</w>": 511,
      "ta</w>": 512,
      "ele</w>": 513,
      "pr": 514,
      "pres": 515,
      "res</w>": 516,
      "ao</w>": 517,
      "ma</w>": 518,
      "car": 519,
      "ru": 520,
      "ativ": 521,
      "El": 522,
      "alh": 523,
      "pergunt": 524,
      "elh": 525,
      "us</w>": 526,
      "dis": 527,
      "foi</w>": 528,
      "out": 529,
      "az": 530,
      "fra": 531,
      "cul": 532,
      "amente</w>": 533,
      "men": 534,
      "tem": 535,
      "os,</w>": 536,
      "s,</w>": 537,
      "te</w>": 538,
      "eu</w>": 539,
      "as,</w>": 540,
      "Est": 541,
      "pon": 542,
      "cl": 543,
      "mas</w>": 544,
      "você</w>": 545,
      "os.</w>": 546,
      "tu": 547,
      "clu": 548,
      "po</w>": 549,
      "il": 550,
      "pesso": 551,
      "as.</w>": 552,
      "ser": 553,
      "ob": 554,
      "ão,</w>": 555,
      "s.</w>": 556,
      "eb": 557,
      "min": 558,
      "vol": 559,
      "ros</w>": 560,
      "pos": 561,
      "ass": 562,
      "der": 563,
      "vel</w>": 564,
      "tor": 565,
      "Qu": 566,
      "almente</w>": 567,
      "tic": 568,
      "respost": 569,
      "o:</w>": 570,
      "col": 571,
      "entes</w>": 572,
      "mei": 573,
      "quant": 574,
      "eci": 575,
      "\".</w>": 576,
      "es,</w>": 577,
      "endo</w>": 578,
      "cu": 579,
      "muit": 580,
      "rar</w>": 581,
      "eles</w>": 582,
      "bi": 583,
      "es.</w>": 584,
      "man": 585,
      "adas</w>": 586,
      "ger": 587,
      "ip": 588,
      "estão</w>": 589,
      "ores</w>": 590,
      "ência</w>": 591,
      "mer": 592,
      "nec": 593,
      "rel": 594,
      "pen": 595,
      "óri": 596,
      "cas": 597,
      "sa</w>": 598,
      "ras</w>": 599,
      "Res": 600,
      "seus</w>": 601,
      "inform": 602,
      "ment": 603,
      "melh": 604,
      "ver</w>": 605,
      "ica</w>": 606,
      "indo</w>": 607,
      "ão.</w>": 608,
      "ções</w>": 609,
      "vei": 610,
      "esp": 611,
      "ten": 612,
      "ef": 613,
      "podem</w>": 614,
      "ante</w>": 615,
      "port": 616,
      "idade</w>": 617,
      "me</w>": 618,
      "bém</w>": 619,
      "gra": 620,
      "rec": 621,
      "mi": 622,
      "cos</w>": 623,
      "esta</w>": 624,
      "anh": 625,
      "agem</w>": 626,
      "íci": 627,
      "op": 628,
      "Com": 629,
      "ament": 630,
      "tem</w>": 631,
      "sent": 632,
      "resposta</w>": 633,
      "ve</w>": 634,
      "gi": 635,
      "fil": 636,
      "anç": 637,
      "antes</w>": 638,
      "go</w>": 639,
      "00": 640,
      "este</w>": 641,
      "Al": 642,
      "aliz": 643,
      "ca</w>": 644,
      "mo</w>": 645,
      "tos</w>": 646,
      "também</w>": 647,
      "sa": 648,
      "balh": 649,
      "aju": 650,
      "mes": 651,
      "equ": 652,
      "quanto</w>": 653,
      "co</w>": 654,
      "amos</w>": 655,
      "ou": 656,
      "faz": 657,
      "inter": 658,
      "mento</w>": 659,
      "seguint": 660,
      "trabalh": 661,
      "ora</w>": 662,
      "respon": 663,
      "fun": 664,
      "cre": 665,
      "fin": 666,
      "pel": 667,
      "aci": 668,
      "cer": 669,
      "-se</w>": 670,
      "nte</w>": 671,
      "va</w>": 672,
      "cam": 673,
      "anto,</w>": 674,
      "primei": 675,
      "ter</w>": 676,
      "-l": 677,
      "suas</w>": 678,
      "envol": 679,
      "19": 680,
      "jog": 681,
      "bl": 682,
      "tar</w>": 683,
      "aram</w>": 684,
      "amento</w>": 685,
      ").</w>": 686,
      "parti": 687,
      "posi": 688,
      "encont": 689,
      "Respost": 690,
      "inha</w>": 691,
      "sig": 692,
      "mis": 693,
      "dar</w>": 694,
      "Par": 695,
      "rad": 696,
      "edi": 697,
      "Os</w>": 698,
      "ven": 699,
      "go": 700,
      "Em</w>": 701,
      "emos</w>": 702,
      "al,</w>": 703,
      "pi": 704,
      "ces": 705,
      "pois</w>": 706,
      "der</w>": 707,
      "mar": 708,
      "No</w>": 709,
      "revi": 710,
      "lev": 711,
      "nific": 712,
      "ca": 713,
      "Es": 714,
      "úmer": 715,
      "signific": 716,
      "cent": 717,
      "emb": 718,
      "As</w>": 719,
      "alg": 720,
      "nos</w>": 721,
      "vel": 722,
      "an</w>": 723,
      "Co": 724,
      "sist": 725,
      "sí": 726,
      "atu": 727,
      "colh": 728,
      "idad": 729,
      "acion": 730,
      "ários</w>": 731,
      "ico</w>": 732,
      "loc": 733,
      "aix": 734,
      "mai": 735,
      "ase</w>": 736,
      "ili": 737,
      "rante</w>": 738,
      "cip": 739,
      "pa": 740,
      "conh": 741,
      "inclu": 742,
      "ava</w>": 743,
      "tes": 744,
      "dent": 745,
      "cap": 746,
      "nov": 747,
      "rá": 748,
      "ing": 749,
      "al.</w>": 750,
      "tar": 751,
      "pessoas</w>": 752,
      "entre</w>": 753,
      "Ele</w>": 754,
      "preci": 755,
      "fei": 756,
      "quando</w>": 757,
      "corre": 758,
      "seguinte</w>": 759,
      "gar": 760,
      "frase</w>": 761,
      "cial</w>": 762,
      "númer": 763,
      "informações</w>": 764,
      "indi": 765,
      "ja</w>": 766,
      "ir": 767,
      "cada</w>": 768,
      "ort": 769,
      "tran": 770,
      "hom": 771,
      "ário</w>": 772,
      "bri": 773,
      "veis</w>": 774,
      "a:": 775,
      "Per": 776,
      "ati": 777,
      "fornec": 778,
      "pas": 779,
      "eri": 780,
      "ali": 781,
      "pergunta</w>": 782,
      "ipó": 783,
      "el</w>": 784,
      "pela</w>": 785,
      "muito</w>": 786,
      "ipótes": 787,
      "iment": 788,
      "difer": 789,
      "quer</w>": 790,
      "torn": 791,
      "vez</w>": 792,
      "aqu": 793,
      "Você</w>": 794,
      "ot": 795,
      "ano</w>": 796,
      "eiro</w>": 797,
      "apa</w>": 798,
      "and": 799,
      "ns</w>": 800,
      "anos</w>": 801,
      "1.</w>": 802,
      "clar": 803,
      "dire": 804,
      "Um</w>": 805,
      "algu": 806,
      "2.</w>": 807,
      "ina</w>": 808,
      "mul": 809,
      "Is": 810,
      "neg": 811,
      "so,</w>": 812,
      "\",</w>": 813,
      "pass": 814,
      "éri": 815,
      "nas</w>": 816,
      "tot": 817,
      "eira</w>": 818,
      "lí": 819,
      "Ch": 820,
      "número</w>": 821,
      "le": 822,
      "águ": 823,
      "enas</w>": 824,
      "ific": 825,
      "pelo</w>": 826,
      "Como</w>": 827,
      "diz": 828,
      "Resposta:": 829,
      "20": 830,
      "hist": 831,
      "ens</w>": 832,
      "ença</w>": 833,
      "Con": 834,
      "tri": 835,
      "base</w>": 836,
      "ão:</w>": 837,
      "au": 838,
      "prin": 839,
      "ast": 840,
      "ço</w>": 841,
      "son": 842,
      "gran": 843,
      "pul": 844,
      "Et": 845,
      "ren": 846,
      "eix": 847,
      "dades</w>": 848,
      "sab": 849,
      "atra": 850,
      "arti": 851,
      "trans": 852,
      "exper": 853,
      "Para</w>": 854,
      "ável</w>": 855,
      "ador</w>": 856,
      "enh": 857,
      "lon": 858,
      "bu": 859,
      "históri": 860,
      "bo": 861,
      "Etapa</w>": 862,
      "afi": 863,
      "pal": 864,
      "hipótes": 865,
      "ece</w>": 866,
      "comp": 867,
      "pró": 868,
      "sim": 869,
      "ido</w>": 870,
      "or,</w>": 871,
      "fazer</w>": 872,
      "possí": 873,
      "duz": 874,
      "mit": 875,
      "premis": 876,
      "3.</w>": 877,
      "dia</w>": 878,
      "Se</w>": 879,
      "ari": 880,
      "ed": 881,
      "Por</w>": 882,
      "cham": 883,
      "In": 884,
      "e:</w>": 885,
      "tempo</w>": 886,
      "Pergunt": 887,
      "vez": 888,
      "ber": 889,
      "ão": 890,
      "cal": 891,
      "Isso</w>": 892,
      "fal": 893,
      "pont": 894,
      "princip": 895,
      "cesso</w>": 896,
      "ho</w>": 897,
      "enquanto</w>": 898,
      "Uma</w>": 899,
      "vid": 900,
      "adi": 901,
      "á-l": 902,
      "sub": 903,
      "te": 904,
      "conheci": 905,
      "qual": 906,
      "sol": 907,
      "entanto,</w>": 908,
      "exto</w>": 909,
      "fam": 910,
      "todos</w>": 911,
      "sto</w>": 912,
      "avi": 913,
      "durante</w>": 914,
      "umas</w>": 915,
      "val": 916,
      "sta</w>": 917,
      "espe": 918,
      "fici": 919,
      "onde</w>": 920,
      "dut": 921,
      "come": 922,
      "ví": 923,
      "positiv": 924,
      "rest": 925,
      "soci": 926,
      "termin": 927,
      "00</w>": 928,
      "cli": 929,
      "vida</w>": 930,
      "és</w>": 931,
      "met": 932,
      "outros</w>": 933,
      "vem</w>": 934,
      "Eu</w>": 935,
      "vest": 936,
      "eria</w>": 937,
      "import": 938,
      "Re": 939,
      "mant": 940,
      "ato</w>": 941,
      "fl": 942,
      "mos</w>": 943,
      "Não</w>": 944,
      "impl": 945,
      "Eles</w>": 946,
      "mé": 947,
      "ós</w>": 948,
      "org": 949,
      "comun": 950,
      "fav": 951,
      "fr": 952,
      "sider": 953,
      "até</w>": 954,
      "adores</w>": 955,
      "ument": 956,
      "ado,</w>": 957,
      "xim": 958,
      "Pergunta:</w>": 959,
      "ini": 960,
      "),</w>": 961,
      "up": 962,
      "conclu": 963,
      "estava</w>": 964,
      "filme</w>": 965,
      "sos</w>": 966,
      "ne": 967,
      "mor": 968,
      "ain": 969,
      "es:</w>": 970,
      "reg": 971,
      "foram</w>": 972,
      "Esta</w>": 973,
      "átic": 974,
      "produt": 975,
      "cidade</w>": 976,
      "total</w>": 977,
      "apenas</w>": 978,
      "An": 979,
      "ança</w>": 980,
      "nom": 981,
      "era</w>": 982,
      "êm</w>": 983,
      "ram</w>": 984,
      "sem</w>": 985,
      "amig": 986,
      "isso</w>": 987,
      "on</w>": 988,
      "escolh": 989,
      "podemos</w>": 990,
      "iv": 991,
      "ses</w>": 992,
      "ud": 993,
      "segun": 994,
      "forma</w>": 995,
      "compl": 996,
      "há</w>": 997,
      "4.</w>": 998,
      "alguns</w>": 999,
      "can": 1000,
      "dois</w>": 1001,
      "mp": 1002,
      "ener": 1003,
      "del": 1004,
      "stru": 1005,
      "aut": 1006,
      "lar": 1007,
      "palav": 1008,
      "mesmo</w>": 1009,
      "duas</w>": 1010,
      "jet": 1011,
      "espec": 1012,
      "pergunta:</w>": 1013,
      "mat": 1014,
      "De": 1015,
      "ês</w>": 1016,
      "icas</w>": 1017,
      "junt": 1018,
      "especi": 1019,
      "ças</w>": 1020,
      "az</w>": 1021,
      "aos</w>": 1022,
      "ema</w>": 1023,
      "af": 1024,
      "Su": 1025,
      "pra": 1026,
      "equip": 1027,
      "liv": 1028,
      "çõ": 1029,
      "tent": 1030,
      "água</w>": 1031,
      "lic": 1032,
      "Ent": 1033,
      "ino</w>": 1034,
      "cur": 1035,
      "Ag": 1036,
      "mun": 1037,
      "tas</w>": 1038,
      "então</w>": 1039,
      "menos</w>": 1040,
      "ânci": 1041,
      "tul": 1042,
      "deix": 1043,
      "áre": 1044,
      "desenvol": 1045,
      "mb": 1046,
      "lin": 1047,
      "end": 1048,
      "he</w>": 1049,
      "tom": 1050,
      "experi": 1051,
      "ências</w>": 1052,
      "hipótese</w>": 1053,
      "za</w>": 1054,
      "desco": 1055,
      "imp": 1056,
      "eia</w>": 1057,
      "ha</w>": 1058,
      "receb": 1059,
      "porque</w>": 1060,
      "mú": 1061,
      "Jo": 1062,
      "depois</w>": 1063,
      "aria</w>": 1064,
      "empres": 1065,
      "lo": 1066,
      "ta": 1067,
      "sal": 1068,
      "ado.</w>": 1069,
      "empl": 1070,
      "possível</w>": 1071,
      "Com</w>": 1072,
      "Qual</w>": 1073,
      "hor": 1074,
      "US</w>": 1075,
      "grande</w>": 1076,
      "deci": 1077,
      "ult": 1078,
      "encontrar</w>": 1079,
      "tamente</w>": 1080,
      "medi": 1081,
      "cons": 1082,
      "têm</w>": 1083,
      "sion": 1084,
      "ord": 1085,
      "tre": 1086,
      "enci": 1087,
      "algumas</w>": 1088,
      "ra,</w>": 1089,
      "parte</w>": 1090,
      "apo": 1091,
      "ativo</w>": 1092,
      "consider": 1093,
      "vés</w>": 1094,
      "En": 1095,
      "ra.</w>": 1096,
      "ambi": 1097,
      "ân": 1098,
      "film": 1099,
      "entos</w>": 1100,
      "prov": 1101,
      "melhor</w>": 1102,
      "ens": 1103,
      "adicion": 1104,
      "ar.</w>": 1105,
      "ação.</w>": 1106,
      "anc": 1107,
      "fíci": 1108,
      "dest": 1109,
      "fe": 1110,
      "tur": 1111,
      "ação,</w>": 1112,
      "vezes</w>": 1113,
      "expl": 1114,
      "her": 1115,
      "que": 1116,
      "declar": 1117,
      "homem</w>": 1118,
      "árias</w>": 1119,
      "ainda</w>": 1120,
      "ofer": 1121,
      "abili": 1122,
      "exempl": 1123,
      "eram</w>": 1124,
      "especí": 1125,
      "deve</w>": 1126,
      "ing</w>": 1127,
      "Pas": 1128,
      "trabalho</w>": 1129,
      "usar</w>": 1130,
      "precis": 1131,
      "gru": 1132,
      "relacion": 1133,
      "disso,</w>": 1134,
      "mencion": 1135,
      "vido</w>": 1136,
      "primeiro</w>": 1137,
      "através</w>": 1138,
      "hum": 1139,
      "primeira</w>": 1140,
      "rí": 1141,
      "anim": 1142,
      "ro,</w>": 1143,
      "ração</w>": 1144,
      "idades</w>": 1145,
      "pens": 1146,
      "ais,</w>": 1147,
      "ele": 1148,
      "começ": 1149,
      "inu": 1150,
      "Ex": 1151,
      "Port": 1152,
      "det": 1153,
      "às</w>": 1154,
      "ce": 1155,
      "ajud": 1156,
      "ador": 1157,
      "revisão</w>": 1158,
      "ida</w>": 1159,
      "cois": 1160,
      "lti": 1161,
      "determin": 1162,
      "dist": 1163,
      "confi": 1164,
      "inf": 1165,
      "esse</w>": 1166,
      "bem</w>": 1167,
      "pequ": 1168,
      "forn": 1169,
      "Passo</w>": 1170,
      "cin": 1171,
      "mud": 1172,
      "pu": 1173,
      "ais.</w>": 1174,
      "ajudar</w>": 1175,
      "processo</w>": 1176,
      "5.</w>": 1177,
      "pec": 1178,
      "aplic": 1179,
      "pap": 1180,
      "cres": 1181,
      "va": 1182,
      "ecer</w>": 1183,
      "ificar</w>": 1184,
      "pessoa</w>": 1185,
      "muitas</w>": 1186,
      "outras</w>": 1187,
      "imento</w>": 1188,
      "2:</w>": 1189,
      "tinha</w>": 1190,
      "estar</w>": 1191,
      "impac": 1192,
      "super": 1193,
      "esper": 1194,
      "íli": 1195,
      "apar": 1196,
      "forneci": 1197,
      "premissa</w>": 1198,
      "1:</w>": 1199,
      "Portanto,</w>": 1200,
      "ar,</w>": 1201,
      "ej": 1202,
      "vimento</w>": 1203,
      "ição</w>": 1204,
      "ços</w>": 1205,
      "Mar": 1206,
      "gia</w>": 1207,
      "tr": 1208,
      "assi": 1209,
      "ho": 1210,
      "ribu": 1211,
      "ítul": 1212,
      "inst": 1213,
      "organ": 1214,
      "Este</w>": 1215,
      "Além</w>": 1216,
      "sas</w>": 1217,
      "ura</w>": 1218,
      "bat": 1219,
      "vo": 1220,
      "servi": 1221,
      "poderia</w>": 1222,
      "anças</w>": 1223,
      "gar</w>": 1224,
      "ban": 1225,
      "abel": 1226,
      "verdad": 1227,
      "pú": 1228,
      "0,": 1229,
      "polí": 1230,
      "result": 1231,
      "ay": 1232,
      "liz": 1233,
      "necess": 1234,
      "emente</w>": 1235,
      "..": 1236,
      "vários</w>": 1237,
      "od": 1238,
      "saú": 1239,
      "ais": 1240,
      "olh": 1241,
      "as:</w>": 1242,
      "melhor": 1243,
      "quest": 1244,
      "iu</w>": 1245,
      "le</w>": 1246,
      "qualquer</w>": 1247,
      "apoi": 1248,
      "nos": 1249,
      "ria</w>": 1250,
      "mús": 1251,
      "os:</w>": 1252,
      "paí": 1253,
      "longo</w>": 1254,
      "quis": 1255,
      "passo</w>": 1256,
      "diferentes</w>": 1257,
      "nio</w>": 1258,
      "fornecer</w>": 1259,
      "amb": 1260,
      "garant": 1261,
      "pos</w>": 1262,
      "incluindo</w>": 1263,
      "bar": 1264,
      "casa</w>": 1265,
      "probl": 1266,
      "fut": 1267,
      "Pro": 1268,
      "famíli": 1269,
      "Ela</w>": 1270,
      "popul": 1271,
      "emo": 1272,
      "maior</w>": 1273,
      "ora,</w>": 1274,
      "tura</w>": 1275,
      "contexto</w>": 1276,
      "eve</w>": 1277,
      "continu": 1278,
      "ganh": 1279,
      "200": 1280,
      "filh": 1281,
      "mã": 1282,
      "diver": 1283,
      "últi": 1284,
      "funcion": 1285,
      "gover": 1286,
      "bol": 1287,
      "agens</w>": 1288,
      "frase": 1289,
      "ind": 1290,
      "201": 1291,
      "aument": 1292,
      "acor": 1293,
      "ál": 1294,
      "favor,</w>": 1295,
      "eta</w>": 1296,
      "Quando</w>": 1297,
      "escri": 1298,
      "história</w>": 1299,
      "invest": 1300,
      "ga</w>": 1301,
      "afir": 1302,
      "apro": 1303,
      "constru": 1304,
      "co,</w>": 1305,
      "apres": 1306,
      "ov": 1307,
      "caminh": 1308,
      "olog": 1309,
      "ro.</w>": 1310,
      "eito</w>": 1311,
      "ún": 1312,
      "rut": 1313,
      "detalh": 1314,
      "As": 1315,
      "co.</w>": 1316,
      "person": 1317,
      "negativ": 1318,
      "des</w>": 1319,
      "poten": 1320,
      "itu": 1321,
      "The</w>": 1322,
      "vamos</w>": 1323,
      "ível</w>": 1324,
      "uni": 1325,
      "emas</w>": 1326,
      "me": 1327,
      "tes</w>": 1328,
      "ando": 1329,
      "apresent": 1330,
      "leg": 1331,
      "baix": 1332,
      "plant": 1333,
      "Sent": 1334,
      "ral</w>": 1335,
      "áli": 1336,
      "a?</w>": 1337,
      "ori": 1338,
      "a-": 1339,
      "Un": 1340,
      "dentro</w>": 1341,
      "té": 1342,
      "responda</w>": 1343,
      "dizer</w>": 1344,
      "ista</w>": 1345,
      "ativi": 1346,
      "aliment": 1347,
      "idos</w>": 1348,
      "oso</w>": 1349,
      "orig": 1350,
      "outro</w>": 1351,
      "eit": 1352,
      "dem": 1353,
      "cad": 1354,
      "ável": 1355,
      "preen": 1356,
      "taref": 1357,
      "tec": 1358,
      "rig": 1359,
      "Aqu": 1360,
      "Ar": 1361,
      "usu": 1362,
      "e-": 1363,
      "tóri": 1364,
      "açõ": 1365,
      "20</w>": 1366,
      "pequen": 1367,
      "esses</w>": 1368,
      "a.": 1369,
      "progra": 1370,
      "situ": 1371,
      "Sim": 1372,
      "gl": 1373,
      "próxim": 1374,
      "ância</w>": 1375,
      "ação:</w>": 1376,
      "Ao</w>": 1377,
      "sendo</w>": 1378,
      "apren": 1379,
      "fre": 1380,
      "Se": 1381,
      "tro": 1382,
      "depen": 1383,
      "essas</w>": 1384,
      "polític": 1385,
      "arm": 1386,
      "Agora,</w>": 1387,
      "ará</w>": 1388,
      "so.</w>": 1389,
      "pesquis": 1390,
      "fat": 1391,
      "cheg": 1392,
      "ident": 1393,
      "10</w>": 1394,
      "disse</w>": 1395,
      "y,</w>": 1396,
      "nor": 1397,
      "áci": 1398,
      "je": 1399,
      "rin": 1400,
      "localiz": 1401,
      "nome</w>": 1402,
      "ente.</w>": 1403,
      "cen": 1404,
      "erra</w>": 1405,
      "do.</w>": 1406,
      "experiência</w>": 1407,
      "áveis</w>": 1408,
      "após</w>": 1409,
      "três</w>": 1410,
      "significa</w>": 1411,
      "seman": 1412,
      "vai</w>": 1413,
      "cel": 1414,
      "contra</w>": 1415,
      "most": 1416,
      "dução</w>": 1417,
      "médi": 1418,
      "agem": 1419,
      "projet": 1420,
      "própri": 1421,
      "energia</w>": 1422,
      "tor</w>": 1423,
      "dados</w>": 1424,
      "várias</w>": 1425,
      "saúde</w>": 1426,
      "sidade</w>": 1427,
      "ente,</w>": 1428,
      "ções:</w>": 1429,
      "sões</w>": 1430,
      "ín": 1431,
      "usa</w>": 1432,
      "abor": 1433,
      "usando</w>": 1434,
      "má": 1435,
      "quer": 1436,
      "criar</w>": 1437,
      "natu": 1438,
      "declaração</w>": 1439,
      "oria</w>": 1440,
      "pou": 1441,
      "desem": 1442,
      "já</w>": 1443,
      "ce</w>": 1444,
      "anto</w>": 1445,
      "papel</w>": 1446,
      "econ": 1447,
      "organiz": 1448,
      "ana</w>": 1449,
      "avam</w>": 1450,
      "milh": 1451,
      "duzir</w>": 1452,
      "redi": 1453,
      "ard": 1454,
      "ris": 1455,
      "cas</w>": 1456,
      "fis": 1457,
      "3:</w>": 1458,
      "edade</w>": 1459,
      "to.</w>": 1460,
      "escre": 1461,
      "todo</w>": 1462,
      "ak": 1463,
      "faz</w>": 1464,
      "Na</w>": 1465,
      "específic": 1466,
      "importante</w>": 1467,
      "uso</w>": 1468,
      "íveis</w>": 1469,
      "ach": 1470,
      "recur": 1471,
      "Aqui</w>": 1472,
      "sistema</w>": 1473,
      "Mo": 1474,
      "ado": 1475,
      "alis": 1476,
      "rada</w>": 1477,
      "escol": 1478,
      "bon": 1479,
      "cidad": 1480,
      "sido</w>": 1481,
      "desempen": 1482,
      "refer": 1483,
      "jo": 1484,
      "promo": 1485,
      "equipe</w>": 1486,
      "ada.</w>": 1487,
      "vídu": 1488,
      "s.": 1489,
      "lugar</w>": 1490,
      "grupo</w>": 1491,
      "rou</w>": 1492,
      "tão</w>": 1493,
      "regu": 1494,
      "Car": 1495,
      "suger": 1496,
      "18": 1497,
      "mente,</w>": 1498,
      "ave</w>": 1499,
      "ocup": 1500,
      "fri": 1501,
      "amentos</w>": 1502,
      "lut": 1503,
      "indivídu": 1504,
      "000</w>": 1505,
      "exist": 1506,
      "significativ": 1507,
      "Resposta:</w>": 1508,
      "descre": 1509,
      "realiz": 1510,
      "cou</w>": 1511,
      "mist": 1512,
      "ub": 1513,
      "qual</w>": 1514,
      "contro": 1515,
      "a\".</w>": 1516,
      "complet": 1517,
      "to,</w>": 1518,
      "dinh": 1519,
      "acordo</w>": 1520,
      "Joh": 1521,
      "cat": 1522,
      "tiliz": 1523,
      "descobri": 1524,
      "inici": 1525,
      "reci": 1526,
      "área</w>": 1527,
      "adequ": 1528,
      "visi": 1529,
      "lhe</w>": 1530,
      "teve</w>": 1531,
      "hi": 1532,
      "amer": 1533,
      "Le": 1534,
      "sou</w>": 1535,
      "10": 1536,
      "Então,</w>": 1537,
      "tipo</w>": 1538,
      "seguran": 1539,
      "devido</w>": 1540,
      "ór": 1541,
      "her</w>": 1542,
      "fí": 1543,
      "present": 1544,
      "serv": 1545,
      "informação</w>": 1546,
      "responder</w>": 1547,
      "preço</w>": 1548,
      "sti": 1549,
      "ol</w>": 1550,
      "seria</w>": 1551,
      "manter</w>": 1552,
      "car</w>": 1553,
      "á-lo</w>": 1554,
      "Depois</w>": 1555,
      "são,</w>": 1556,
      "públ": 1557,
      "diz</w>": 1558,
      "contribu": 1559,
      "tecn": 1560,
      "ício</w>": 1561,
      "desafi": 1562,
      "do,</w>": 1563,
      "ada,</w>": 1564,
      "Vamos</w>": 1565,
      "tamento</w>": 1566,
      "coloc": 1567,
      "s:</w>": 1568,
      "plan": 1569,
      "ares</w>": 1570,
      "ção,</w>": 1571,
      "qui": 1572,
      "segunda</w>": 1573,
      "tempo": 1574,
      "en</w>": 1575,
      "séri": 1576,
      "opções</w>": 1577,
      "ntes</w>": 1578,
      "deu</w>": 1579,
      "rei": 1580,
      "abri": 1581,
      "garantir</w>": 1582,
      "rado</w>": 1583,
      "san": 1584,
      "evi": 1585,
      "origin": 1586,
      "nacion": 1587,
      "Emb": 1588,
      "partilh": 1589,
      "final</w>": 1590,
      "son</w>": 1591,
      "essa</w>": 1592,
      "nenh": 1593,
      "sufici": 1594,
      "To": 1595,
      "radi": 1596,
      "ito</w>": 1597,
      "minut": 1598,
      "resol": 1599,
      "siv": 1600,
      "bem": 1601,
      "questão</w>": 1602,
      "chamado</w>": 1603,
      "ên": 1604,
      "miti": 1605,
      "conver": 1606,
      "bin": 1607,
      "vari": 1608,
      "sor</w>": 1609,
      "umento</w>": 1610,
      "gel": 1611,
      "No": 1612,
      "tax": 1613,
      "den": 1614,
      "étic": 1615,
      "seja</w>": 1616,
      "posição</w>": 1617,
      "local</w>": 1618,
      "fac": 1619,
      "noit": 1620,
      "alun": 1621,
      "crí": 1622,
      "Sentença</w>": 1623,
      "ase": 1624,
      "acont": 1625,
      "tivo</w>": 1626,
      "Escolh": 1627,
      "50</w>": 1628,
      "quar": 1629,
      "impacto</w>": 1630,
      "ida,</w>": 1631,
      "Embora</w>": 1632,
      "ção.</w>": 1633,
      "remo": 1634,
      "condi": 1635,
      "todas</w>": 1636,
      "pag": 1637,
      "estrut": 1638,
      "memb": 1639,
      "espaç": 1640,
      "itos</w>": 1641,
      "partir</w>": 1642,
      "estu": 1643,
      "dada</w>": 1644,
      "uro": 1645,
      "mundo</w>": 1646,
      "assu": 1647,
      "permit": 1648,
      "fora</w>": 1649,
      "mon": 1650,
      "classi": 1651,
      "novo</w>": 1652,
      "Di": 1653,
      "alter": 1654,
      "cé": 1655,
      "Pre": 1656,
      "capaci": 1657,
      "valor</w>": 1658,
      "Enquanto</w>": 1659,
      "Bo": 1660,
      "subst": 1661,
      "bili": 1662,
      "adr": 1663,
      "artigo</w>": 1664,
      "osa</w>": 1665,
      "Ident": 1666,
      "ich": 1667,
      "Sh": 1668,
      "raz": 1669,
      "eiros</w>": 1670,
      "muitos</w>": 1671,
      "realmente</w>": 1672,
      "americ": 1673,
      "defin": 1674,
      "ajuda</w>": 1675,
      "prot": 1676,
      "fornece</w>": 1677,
      "restau": 1678,
      "aten": 1679,
      "visão</w>": 1680,
      "bli": 1681,
      "gost": 1682,
      "ge</w>": 1683,
      "texto</w>": 1684,
      "óg": 1685,
      "opção</w>": 1686,
      "ement": 1687,
      "...</w>": 1688,
      "tel": 1689,
      "aj": 1690,
      "ei</w>": 1691,
      "jogo</w>": 1692,
      "sentimento</w>": 1693,
      "eira": 1694,
      "concluir</w>": 1695,
      "principal</w>": 1696,
      "classific": 1697,
      "tecnolog": 1698,
      "ária</w>": 1699,
      "íst": 1700,
      "Sim,</w>": 1701,
      "simpl": 1702,
      "conf": 1703,
      "nas": 1704,
      "ér": 1705,
      "estud": 1706,
      "beb": 1707,
      "determinar</w>": 1708,
      "graf": 1709,
      "orn": 1710,
      "Ju": 1711,
      "custo</w>": 1712,
      "prátic": 1713,
      "ped": 1714,
      "r.</w>": 1715,
      "Gu": 1716,
      "pedi": 1717,
      "profis": 1718,
      "sur": 1719,
      "uras</w>": 1720,
      "culo</w>": 1721,
      "nova</w>": 1722,
      "cab": 1723,
      "sen": 1724,
      "compartilh": 1725,
      "ôn": 1726,
      "cimento</w>": 1727,
      "expres": 1728,
      "sor": 1729,
      "cru": 1730,
      "avel": 1731,
      "Estados</w>": 1732,
      "Uni": 1733,
      "anos,</w>": 1734,
      "implic": 1735,
      "tis": 1736,
      "tex": 1737,
      "frent": 1738,
      "família</w>": 1739,
      "ete</w>": 1740,
      "Po": 1741,
      "er,</w>": 1742,
      "precisa</w>": 1743,
      "er.</w>": 1744,
      "ár": 1745,
      "caix": 1746,
      "potenci": 1747,
      "Du": 1748,
      "lei": 1749,
      "edu": 1750,
      "fez</w>": 1751,
      "ados.</w>": 1752,
      "recom": 1753,
      "dio</w>": 1754,
      "estabel": 1755,
      "assist": 1756,
      "ben": 1757,
      "fel": 1758,
      "oper": 1759,
      "6.</w>": 1760,
      "a?": 1761,
      "mesma</w>": 1762,
      "represent": 1763,
      "palavras</w>": 1764,
      "enten": 1765,
      "éci": 1766,
      "eiras</w>": 1767,
      "utiliz": 1768,
      "ata</w>": 1769,
      "minha</w>": 1770,
      "inas</w>": 1771,
      "lig": 1772,
      "influ": 1773,
      "rando</w>": 1774,
      "Col": 1775,
      "lanç": 1776,
      "30</w>": 1777,
      "perto</w>": 1778,
      "100</w>": 1779,
      "compar": 1780,
      "nto</w>": 1781,
      "dias</w>": 1782,
      "ás": 1783,
      "lado</w>": 1784,
      "regi": 1785,
      "relação</w>": 1786,
      "Des": 1787,
      "Mas</w>": 1788,
      "istas</w>": 1789,
      "im</w>": 1790,
      "obter</w>": 1791,
      "pouco</w>": 1792,
      "Dada</w>": 1793,
      "sim</w>": 1794,
      "zinh": 1795,
      "mag": 1796,
      "contra": 1797,
      "enfrent": 1798,
      "queb": 1799,
      "meu</w>": 1800,
      "gen": 1801,
      "frases</w>": 1802,
      "entu": 1803,
      "mulher</w>": 1804,
      "bal": 1805,
      "obje": 1806,
      "desenvolvimento</w>": 1807,
      "dom": 1808,
      "ias</w>": 1809,
      "corpo": 1810,
      "ê-l": 1811,
      "not": 1812,
      "efic": 1813,
      "mentos</w>": 1814,
      "ill": 1815,
      "recursos</w>": 1816,
      "só</w>": 1817,
      "posso</w>": 1818,
      "materi": 1819,
      "alguma</w>": 1820,
      "é:": 1821,
      "pará": 1822,
      "ry</w>": 1823,
      "levar</w>": 1824,
      "Escre": 1825,
      "tal": 1826,
      "parece</w>": 1827,
      "estes</w>": 1828,
      "habili": 1829,
      "cos,</w>": 1830,
      "Int": 1831,
      "pan": 1832,
      "agora</w>": 1833,
      "cação</w>": 1834,
      "opções:</w>": 1835,
      "se,</w>": 1836,
      "avelmente</w>": 1837,
      "Identificar</w>": 1838,
      "vendo</w>": 1839,
      "dinheiro</w>": 1840,
      "gue</w>": 1841,
      "segurança</w>": 1842,
      "avali": 1843,
      "resum": 1844,
      "EU": 1845,
      "compreen": 1846,
      "geral</w>": 1847,
      "Fran": 1848,
      "ficar</w>": 1849,
      "música</w>": 1850,
      "neces": 1851,
      "preocup": 1852,
      "descri": 1853,
      "semp": 1854,
      "acter": 1855,
      "profission": 1856,
      "algo</w>": 1857,
      "propri": 1858,
      "sempre</w>": 1859,
      "stas</w>": 1860,
      "fu": 1861,
      "exemplo,</w>": 1862,
      "Mu": 1863,
      "fund": 1864,
      "ins": 1865,
      "entemente</w>": 1866,
      "ine</w>": 1867,
      "ack": 1868,
      "eter": 1869,
      "eitos</w>": 1870,
      "esfor": 1871,
      "descobrir</w>": 1872,
      "outra</w>": 1873,
      "St": 1874,
      "stent": 1875,
      "corpo</w>": 1876,
      "perman": 1877,
      "volta</w>": 1878,
      "ata": 1879,
      "199": 1880,
      "th": 1881,
      "sex": 1882,
      "Am": 1883,
      "limit": 1884,
      "or.</w>": 1885,
      "sentença</w>": 1886,
      "atro</w>": 1887,
      "\"Um</w>": 1888,
      "ras": 1889,
      "doc": 1890,
      "feito</w>": 1891,
      "principais</w>": 1892,
      "conhecido</w>": 1893,
      "afet": 1894,
      "sequ": 1895,
      "liber": 1896,
      "meio</w>": 1897,
      "coisas</w>": 1898,
      "capacidade</w>": 1899,
      "alguém</w>": 1900,
      "temper": 1901,
      "é:</w>": 1902,
      "eceu</w>": 1903,
      "ack</w>": 1904,
      "bre": 1905,
      "erv": 1906,
      "melhorar</w>": 1907,
      "perí": 1908,
      "ativa</w>": 1909,
      "premiss": 1910,
      "depend": 1911,
      "ítulo</w>": 1912,
      "correta</w>": 1913,
      "análi": 1914,
      "sul": 1915,
      "tado</w>": 1916,
      "ados,</w>": 1917,
      "pid": 1918,
      "fica</w>": 1919,
      "Cont": 1920,
      "Respon": 1921,
      "empre": 1922,
      "geralmente</w>": 1923,
      "semelh": 1924,
      "caso</w>": 1925,
      "Fo": 1926,
      "consegu": 1927,
      "ambiente</w>": 1928,
      "trá": 1929,
      "escolha</w>": 1930,
      "ando-": 1931,
      "solu": 1932,
      "série</w>": 1933,
      "sustent": 1934,
      "mom": 1935,
      "tiva</w>": 1936,
      "lan": 1937,
      "crianças</w>": 1938,
      "mulher": 1939,
      "tando</w>": 1940,
      "segundo</w>": 1941,
      "almente,</w>": 1942,
      "a\"</w>": 1943,
      "12</w>": 1944,
      "Ger": 1945,
      "atóri": 1946,
      "cultu": 1947,
      "havi": 1948,
      "particip": 1949,
      "\".": 1950,
      "dado</w>": 1951,
      "contex": 1952,
      "frequ": 1953,
      "trein": 1954,
      "dispon": 1955,
      "comunic": 1956,
      "óci": 1957,
      "ávei": 1958,
      "afirma</w>": 1959,
      "cant": 1960,
      "peti": 1961,
      "vou</w>": 1962,
      "assin": 1963,
      "ínio</w>": 1964,
      "cular</w>": 1965,
      "\\]</w>": 1966,
      "-ch": 1967,
      "ceb": 1968,
      "tores</w>": 1969,
      "sin": 1970,
      "da,</w>": 1971,
      "procu": 1972,
      "anteri": 1973,
      "estil": 1974,
      "enças</w>": 1975,
      "o.": 1976,
      "produtos</w>": 1977,
      "experiment": 1978,
      "jar": 1979,
      "Escolha</w>": 1980,
      "que,</w>": 1981,
      "seguida,</w>": 1982,
      "let": 1983,
      "For": 1984,
      "satis": 1985,
      "quantidade</w>": 1986,
      "desde</w>": 1987,
      "is,</w>": 1988,
      "gast": 1989,
      "lha</w>": 1990,
      "raci": 1991,
      "de,</w>": 1992,
      "Pri": 1993,
      "sob</w>": 1994,
      "Ro": 1995,
      "Escreva</w>": 1996,
      "úst": 1997,
      "acredi": 1998,
      "ativas</w>": 1999,
      "aça</w>": 2000,
      "dor</w>": 2001,
      "devem</w>": 2002,
      "\"O</w>": 2003,
      "divi": 2004,
      "ôni": 2005,
      "fazendo</w>": 2006,
      "Responda</w>": 2007,
      "oport": 2008,
      "lingu": 2009,
      "parágraf": 2010,
      "brin": 2011,
      "aspec": 2012,
      "caracter": 2013,
      "arqu": 2014,
      "aumento</w>": 2015,
      "atura</w>": 2016,
      "emocion": 2017,
      "anos.</w>": 2018,
      "governo</w>": 2019,
      "ron": 2020,
      ".000</w>": 2021,
      "base": 2022,
      "4:</w>": 2023,
      "corr": 2024,
      "estado</w>": 2025,
      "mont": 2026,
      "propor": 2027,
      "produto</w>": 2028,
      "voc": 2029,
      "De</w>": 2030,
      "cado</w>": 2031,
      "comida</w>": 2032,
      "40</w>": 2033,
      "atos</w>": 2034,
      "eng": 2035,
      "torno</w>": 2036,
      "usado</w>": 2037,
      "efici": 2038,
      "\\)</w>": 2039,
      "compro": 2040,
      "foc": 2041,
      "igu": 2042,
      "álb": 2043,
      "lugar": 2044,
      "model": 2045,
      "sim,</w>": 2046,
      "pli": 2047,
      "interess": 2048,
      "pol": 2049,
      "corri": 2050,
      "estavam</w>": 2051,
      "flor": 2052,
      "elho</w>": 2053,
      "empresas</w>": 2054,
      "sucesso</w>": 2055,
      "ticos</w>": 2056,
      "antig": 2057,
      "luz</w>": 2058,
      "maneira</w>": 2059,
      "rais</w>": 2060,
      "John</w>": 2061,
      "in</w>": 2062,
      "pelos</w>": 2063,
      "Ad": 2064,
      "estrel": 2065,
      "tenho</w>": 2066,
      "acab": 2067,
      "esc": 2068,
      "enç": 2069,
      "mão</w>": 2070,
      "taxa</w>": 2071,
      "eú": 2072,
      "15</w>": 2073,
      "tornar</w>": 2074,
      "porte</w>": 2075,
      "da.</w>": 2076,
      "bran": 2077,
      "ecem</w>": 2078,
      "ay</w>": 2079,
      "poss": 2080,
      "mol": 2081,
      "to:</w>": 2082,
      "osos</w>": 2083,
      "bra": 2084,
      "exec": 2085,
      "passo": 2086,
      "envi": 2087,
      "cicl": 2088,
      "seguintes</w>": 2089,
      "ate</w>": 2090,
      "cos.</w>": 2091,
      "60</w>": 2092,
      "dí": 2093,
      "art": 2094,
      "algum</w>": 2095,
      "Unid": 2096,
      "artig": 2097,
      "aplicativo</w>": 2098,
      "flu": 2099,
      "conteú": 2100,
      "peg": 2101,
      "problemas</w>": 2102,
      "und": 2103,
      "amigos</w>": 2104,
      "ep": 2105,
      "log": 2106,
      "frut": 2107,
      "tempor": 2108,
      "empresa</w>": 2109,
      "pontos</w>": 2110,
      "ém": 2111,
      "combin": 2112,
      "aber": 2113,
      "reduzir</w>": 2114,
      "efeito</w>": 2115,
      "objet": 2116,
      "campo</w>": 2117,
      "exig": 2118,
      "bem-": 2119,
      "ros.</w>": 2120,
      "bus": 2121,
      "cuid": 2122,
      "conc": 2123,
      "luc": 2124,
      "detalhes</w>": 2125,
      "sh": 2126,
      "mos": 2127,
      "quem</w>": 2128,
      "fes": 2129,
      "cir": 2130,
      "ampl": 2131,
      "capit": 2132,
      "futeb": 2133,
      "alunos</w>": 2134,
      "bom</w>": 2135,
      "indúst": 2136,
      "oportun": 2137,
      "II": 2138,
      "são:</w>": 2139,
      "alidade</w>": 2140,
      "companh": 2141,
      "rot": 2142,
      "entes.</w>": 2143,
      "encial</w>": 2144,
      "poder": 2145,
      "hab": 2146,
      "Nova</w>": 2147,
      "indivíduos</w>": 2148,
      "estra": 2149,
      "horas</w>": 2150,
      "parar</w>": 2151,
      "A.</w>": 2152,
      "pressão</w>": 2153,
      "fen": 2154,
      "espéci": 2155,
      "relev": 2156,
      "concent": 2157,
      "ne</w>": 2158,
      "lá": 2159,
      "tradi": 2160,
      "categ": 2161,
      "alisar</w>": 2162,
      "oriz": 2163,
      "qualidade</w>": 2164,
      "idente</w>": 2165,
      "vermelh": 2166,
      "A,</w>": 2167,
      "animais</w>": 2168,
      "multi": 2169,
      "não": 2170,
      "nat": 2171,
      "crescimento</w>": 2172,
      "dig": 2173,
      "eja</w>": 2174,
      "será</w>": 2175,
      "lider": 2176,
      "afirm": 2177,
      "cess": 2178,
      "nun": 2179,
      "saí": 2180,
      "adas.</w>": 2181,
      "canç": 2182,
      "ica,</w>": 2183,
      "Sua</w>": 2184,
      "ell": 2185,
      "alta</w>": 2186,
      "atri": 2187,
      "aces": 2188,
      "ax": 2189,
      "possa</w>": 2190,
      "vo</w>": 2191,
      "nível</w>": 2192,
      "war": 2193,
      "tivos</w>": 2194,
      "faci": 2195,
      "resolver</w>": 2196,
      "explic": 2197,
      "perío": 2198,
      "culos</w>": 2199,
      "associ": 2200,
      "dade.</w>": 2201,
      "bilidade</w>": 2202,
      "pó": 2203,
      "ícios</w>": 2204,
      "explor": 2205,
      "sai": 2206,
      "eça</w>": 2207,
      "mort": 2208,
      "erc": 2209,
      "anha</w>": 2210,
      "o?</w>": 2211,
      "provavelmente</w>": 2212,
      "ambos</w>": 2213,
      "em,</w>": 2214,
      "lemb": 2215,
      "quatro</w>": 2216,
      "os.": 2217,
      "enre": 2218,
      "implica</w>": 2219,
      "ação": 2220,
      "Wil": 2221,
      "of</w>": 2222,
      "evitar</w>": 2223,
      "7.</w>": 2224,
      "novas</w>": 2225,
      "k,</w>": 2226,
      "all": 2227,
      "apoio</w>": 2228,
      "cient": 2229,
      "tanto</w>": 2230,
      "carro</w>": 2231,
      "eventos</w>": 2232,
      "amente.</w>": 2233,
      "amente,</w>": 2234,
      "deste</w>": 2235,
      "lar</w>": 2236,
      "ita</w>": 2237,
      "sé": 2238,
      "grandes</w>": 2239,
      "cep": 2240,
      "dific": 2241,
      "ton</w>": 2242,
      "ros": 2243,
      "cerca</w>": 2244,
      "xo</w>": 2245,
      "a)</w>": 2246,
      "mãe</w>": 2247,
      "norm": 2248,
      "icamente</w>": 2249,
      "desta</w>": 2250,
      "Seu</w>": 2251,
      "12": 2252,
      "ox": 2253,
      "cust": 2254,
      "y.</w>": 2255,
      "ta.</w>": 2256,
      "fís": 2257,
      "idas</w>": 2258,
      "ton": 2259,
      "abord": 2260,
      "produção</w>": 2261,
      "homens</w>": 2262,
      "consum": 2263,
      "15": 2264,
      "padr": 2265,
      "jorn": 2266,
      "ah": 2267,
      "proteg": 2268,
      "diretamente</w>": 2269,
      "oci": 2270,
      "Lu": 2271,
      "fort": 2272,
      "especific": 2273,
      "mens": 2274,
      "abilidade</w>": 2275,
      "rament": 2276,
      "começa</w>": 2277,
      "mí": 2278,
      "comprar</w>": 2279,
      "pai</w>": 2280,
      "uros</w>": 2281,
      "Ne": 2282,
      "havia</w>": 2283,
      "aisquer</w>": 2284,
      "ang": 2285,
      "leva</w>": 2286,
      "cresc": 2287,
      "?\"</w>": 2288,
      "minu": 2289,
      "tação</w>": 2290,
      "Har": 2291,
      "estim": 2292,
      "maioria</w>": 2293,
      "quei": 2294,
      "embora</w>": 2295,
      "força</w>": 2296,
      "oferece</w>": 2297,
      "áreas</w>": 2298,
      "ica.</w>": 2299,
      "desej": 2300,
      "ram": 2301,
      "carrei": 2302,
      "ítulo:</w>": 2303,
      "alcanç": 2304,
      "ham</w>": 2305,
      "desig": 2306,
      "lul": 2307,
      "quaisquer</w>": 2308,
      "Rs.": 2309,
      "específi": 2310,
      "198": 2311,
      "et</w>": 2312,
      "neste</w>": 2313,
      "atividades</w>": 2314,
      "início</w>": 2315,
      "téc": 2316,
      "al:</w>": 2317,
      "ater": 2318,
      "nunca</w>": 2319,
      "e.": 2320,
      "livro</w>": 2321,
      "Bar": 2322,
      "inhas</w>": 2323,
      "o-": 2324,
      "arem</w>": 2325,
      "olu": 2326,
      "__": 2327,
      "u.</w>": 2328,
      "elem": 2329,
      "lim": 2330,
      "perguntas</w>": 2331,
      "recu": 2332,
      "lit": 2333,
      "diminu": 2334,
      "moder": 2335,
      "veu</w>": 2336,
      "Que</w>": 2337,
      "caf": 2338,
      "sof": 2339,
      "pa</w>": 2340,
      "minist": 2341,
      "ret": 2342,
      "começou</w>": 2343,
      "quais</w>": 2344,
      "econom": 2345,
      "sei": 2346,
      "mudanças</w>": 2347,
      "tarefa</w>": 2348,
      "conhecimento</w>": 2349,
      "difíci": 2350,
      "minutos</w>": 2351,
      "consist": 2352,
      "ante.</w>": 2353,
      "implicada</w>": 2354,
      "aul": 2355,
      "adas,</w>": 2356,
      "elet": 2357,
      "Go": 2358,
      "tido</w>": 2359,
      "0,</w>": 2360,
      "esti": 2361,
      "edifíci": 2362,
      "público</w>": 2363,
      "tecnologia</w>": 2364,
      "chamada</w>": 2365,
      "posta</w>": 2366,
      "pelas</w>": 2367,
      "essencial</w>": 2368,
      "as.": 2369,
      "bor": 2370,
      "centagem</w>": 2371,
      "érci": 2372,
      "human": 2373,
      "anho</w>": 2374,
      "roup": 2375,
      "const": 2376,
      "ável.</w>": 2377,
      "formas</w>": 2378,
      "dé": 2379,
      "mus": 2380,
      "são.</w>": 2381,
      "principalmente</w>": 2382,
      "prefer": 2383,
      "dade,</w>": 2384,
      "decidi": 2385,
      "complex": 2386,
      "investig": 2387,
      "Op": 2388,
      "última</w>": 2389,
      "rit": 2390,
      "ambient": 2391,
      "negóci": 2392,
      "situação</w>": 2393,
      "sugere</w>": 2394,
      "produz": 2395,
      "país</w>": 2396,
      "antes.</w>": 2397,
      "árv": 2398,
      "tomar</w>": 2399,
      "programa</w>": 2400,
      "0.</w>": 2401,
      "elas</w>": 2402,
      "sej": 2403,
      "ik": 2404,
      "aw": 2405,
      "título</w>": 2406,
      "favor": 2407,
      "Título:</w>": 2408,
      "cão</w>": 2409,
      "25</w>": 2410,
      "e\"</w>": 2411,
      "observ": 2412,
      "nenhuma</w>": 2413,
      "tipos</w>": 2414,
      "sistemas</w>": 2415,
      "ma,</w>": 2416,
      "pit": 2417,
      "nu": 2418,
      "ama</w>": 2419,
      "conclusão,</w>": 2420,
      "ferrament": 2421,
      "locais</w>": 2422,
      "pontu": 2423,
      "palavra</w>": 2424,
      "100": 2425,
      "carreg": 2426,
      "questões</w>": 2427,
      "ouvi": 2428,
      "Cer": 2429,
      "conteúdo</w>": 2430,
      "mad": 2431,
      "geral,</w>": 2432,
      "precisamos</w>": 2433,
      "rang": 2434,
      "estraté": 2435,
      "for</w>": 2436,
      "compor": 2437,
      "ler</w>": 2438,
      "cultura</w>": 2439,
      "descreve</w>": 2440,
      "govern": 2441,
      "membros</w>": 2442,
      "saber</w>": 2443,
      "tenha</w>": 2444,
      "existem</w>": 2445,
      "conex": 2446,
      "plantas</w>": 2447,
      "pesquisa</w>": 2448,
      "ambas</w>": 2449,
      "plic": 2450,
      "inten": 2451,
      "Quant": 2452,
      "glob": 2453,
      "parágrafo</w>": 2454,
      "evento</w>": 2455,
      "conec": 2456,
      "ógi": 2457,
      "cora": 2458,
      "serviços</w>": 2459,
      "adicionar</w>": 2460,
      "classificação</w>": 2461,
      "formação</w>": 2462,
      "chu": 2463,
      "única</w>": 2464,
      "profun": 2465,
      "habilidades</w>": 2466,
      "nesta</w>": 2467,
      "cost": 2468,
      "quí": 2469,
      "dor": 2470,
      "gre": 2471,
      "Ap": 2472,
      "entender</w>": 2473,
      "u,</w>": 2474,
      "recebe</w>": 2475,
      "práticas</w>": 2476,
      "am.</w>": 2477,
      "carbon": 2478,
      "ído</w>": 2479,
      "racioc": 2480,
      "a-se</w>": 2481,
      "bre</w>": 2482,
      "toda</w>": 2483,
      "perceb": 2484,
      "novos</w>": 2485,
      "comum</w>": 2486,
      "menciona</w>": 2487,
      "usuário</w>": 2488,
      "ró": 2489,
      "sel": 2490,
      "clientes</w>": 2491,
      "nav": 2492,
      "arg": 2493,
      "cav": 2494,
      "iz</w>": 2495,
      "Rob": 2496,
      "boa</w>": 2497,
      "limp": 2498,
      "test": 2499,
      "apropri": 2500,
      "Cor": 2501,
      "fim</w>": 2502,
      "grav": 2503,
      "ante,</w>": 2504,
      "Do": 2505,
      "miss": 2506,
      "habit": 2507,
      "trabalhar</w>": 2508,
      "tim": 2509,
      "mili": 2510,
      "estas</w>": 2511,
      "nar": 2512,
      "assum": 2513,
      "jan": 2514,
      "am,</w>": 2515,
      "ros,</w>": 2516,
      "revisor</w>": 2517,
      "Neste</w>": 2518,
      "u-se</w>": 2519,
      "entes,</w>": 2520,
      "torna</w>": 2521,
      "ícia</w>": 2522,
      "dividi": 2523,
      "univer": 2524,
      "amigo</w>": 2525,
      "tou</w>": 2526,
      "turb": 2527,
      "mica</w>": 2528,
      "positivo</w>": 2529,
      "praz": 2530,
      "medida</w>": 2531,
      "acesso</w>": 2532,
      "tradicion": 2533,
      "one</w>": 2534,
      "exi": 2535,
      "197": 2536,
      "transport": 2537,
      "dow": 2538,
      "ênio</w>": 2539,
      "Primei": 2540,
      "Há</w>": 2541,
      "partes</w>": 2542,
      "estilo</w>": 2543,
      "e-se</w>": 2544,
      "técn": 2545,
      "célul": 2546,
      "armaz": 2547,
      "ani": 2548,
      "ponto</w>": 2549,
      "permiti": 2550,
      "-chave</w>": 2551,
      "asse</w>": 2552,
      "alto</w>": 2553,
      "Estas</w>": 2554,
      "futu": 2555,
      "Au": 2556,
      "Deter": 2557,
      "we": 2558,
      "sus": 2559,
      "tarde</w>": 2560,
      "Ter": 2561,
      "pá": 2562,
      "roch": 2563,
      "lista</w>": 2564,
      "Determin": 2565,
      "tudo</w>": 2566,
      "mulheres</w>": 2567,
      "adap": 2568,
      "superfíci": 2569,
      "linha</w>": 2570,
      "forç": 2571,
      "causa</w>": 2572,
      "pergunta.</w>": 2573,
      "saud": 2574,
      "vão</w>": 2575,
      "visu": 2576,
      "e?</w>": 2577,
      "viol": 2578,
      "posto</w>": 2579,
      "rog": 2580,
      "ações,</w>": 2581,
      "inar</w>": 2582,
      "necessi": 2583,
      "zes</w>": 2584,
      "osas</w>": 2585,
      "infer": 2586,
      "'s</w>": 2587,
      "idade.</w>": 2588,
      "ações.</w>": 2589,
      "promover</w>": 2590,
      "baixo</w>": 2591,
      "período</w>": 2592,
      "gres": 2593,
      "re,</w>": 2594,
      "adamente</w>": 2595,
      "aumentar</w>": 2596,
      "compreensão</w>": 2597,
      "alimentos</w>": 2598,
      "aqui</w>": 2599,
      "sele": 2600,
      "Tra": 2601,
      "fati": 2602,
      "jogos</w>": 2603,
      "ame": 2604,
      "ge": 2605,
      "financ": 2606,
      "linguagem</w>": 2607,
      "toc": 2608,
      "implement": 2609,
      "famili": 2610,
      "cabel": 2611,
      "ers</w>": 2612,
      "exerc": 2613,
      "máqu": 2614,
      "centro</w>": 2615,
      "ência.</w>": 2616,
      "Clar": 2617,
      "did": 2618,
      "alha</w>": 2619,
      "ência,</w>": 2620,
      "ual</w>": 2621,
      "fáci": 2622,
      "la</w>": 2623,
      "Out": 2624,
      "benef": 2625,
      "cho": 2626,
      "có": 2627,
      "jovem</w>": 2628,
      "recomend": 2629,
      "Algu": 2630,
      "Inter": 2631,
      "eriam</w>": 2632,
      "):</w>": 2633,
      "telef": 2634,
      "especialmente</w>": 2635,
      "estrutura</w>": 2636,
      "forte</w>": 2637,
      "calcular</w>": 2638,
      "corre</w>": 2639,
      "process": 2640,
      "esqu": 2641,
      "separ": 2642,
      "avanç": 2643,
      "poder</w>": 2644,
      "âni": 2645,
      "(1": 2646,
      "áss": 2647,
      "extra": 2648,
      "ok": 2649,
      "atividade</w>": 2650,
      "prepar": 2651,
      "ior</w>": 2652,
      "ário.</w>": 2653,
      "Leia</w>": 2654,
      "mátic": 2655,
      "iam</w>": 2656,
      "espos": 2657,
      "acess": 2658,
      "fatores</w>": 2659,
      "terc": 2660,
      "prote": 2661,
      "Premiss": 2662,
      "Premissa:</w>": 2663,
      "potencial</w>": 2664,
      "emp": 2665,
      "dia,</w>": 2666,
      "aproxim": 2667,
      "jul": 2668,
      "enn": 2669,
      "imentos</w>": 2670,
      "suficiente</w>": 2671,
      "elé": 2672,
      "presidente</w>": 2673,
      "enredo</w>": 2674,
      "antes,</w>": 2675,
      "termos</w>": 2676,
      "conven": 2677,
      "nossa</w>": 2678,
      "noite</w>": 2679,
      "Yor": 2680,
      "conjunt": 2681,
      "ash": 2682,
      "iria</w>": 2683,
      "possam</w>": 2684,
      "armazen": 2685,
      "cos": 2686,
      "sociais</w>": 2687,
      "destac": 2688,
      "paci": 2689,
      "ta,</w>": 2690,
      "of": 2691,
      "cinco</w>": 2692,
      "Quem</w>": 2693,
      "ion": 2694,
      "Hipótes": 2695,
      "Segu": 2696,
      "ano,</w>": 2697,
      "Nesta</w>": 2698,
      "competi": 2699,
      "públi": 2700,
      "falta</w>": 2701,
      "ideia</w>": 2702,
      "compri": 2703,
      "ed</w>": 2704,
      "mar</w>": 2705,
      "hou": 2706,
      "caminho</w>": 2707,
      "interpre": 2708,
      "pint": 2709,
      "tament": 2710,
      "ick": 2711,
      "empreg": 2712,
      "ond": 2713,
      "abaix": 2714,
      "assunto</w>": 2715,
      "ocorre": 2716,
      "possu": 2717,
      "próxima</w>": 2718,
      "capaz</w>": 2719,
      "long": 2720,
      "filme.</w>": 2721,
      "ativos</w>": 2722,
      "Jam": 2723,
      "Cri": 2724,
      "anti": 2725,
      "disc": 2726,
      "exemplos</w>": 2727,
      "assim</w>": 2728,
      "aleg": 2729,
      "Assim,</w>": 2730,
      "ecimento</w>": 2731,
      "comer": 2732,
      "oxig": 2733,
      "ech": 2734,
      "em.</w>": 2735,
      "publ": 2736,
      "isso,</w>": 2737,
      "ca,</w>": 2738,
      "levando</w>": 2739,
      "idade,</w>": 2740,
      "níveis</w>": 2741,
      "frente</w>": 2742,
      "Conclu": 2743,
      "Tim": 2744,
      "pe</w>": 2745,
      "16": 2746,
      "opini": 2747,
      "inos</w>": 2748,
      "espaço</w>": 2749,
      "Univer": 2750,
      "nature": 2751,
      "escola</w>": 2752,
      "frase,</w>": 2753,
      "respons": 2754,
      "camp": 2755,
      "cione</w>": 2756,
      "ligi": 2757,
      "Agora</w>": 2758,
      "ck": 2759,
      "tó": 2760,
      "fique</w>": 2761,
      "Ge": 2762,
      "-lhe</w>": 2763,
      "sar</w>": 2764,
      "influenci": 2765,
      "de.</w>": 2766,
      "mem": 2767,
      "analisar</w>": 2768,
      "passagem</w>": 2769,
      "cedi": 2770,
      "si</w>": 2771,
      "elo</w>": 2772,
      "resp": 2773,
      "gal": 2774,
      "amento.</w>": 2775,
      "ário,</w>": 2776,
      "hos": 2777,
      "Mich": 2778,
      "produ": 2779,
      "sem": 2780,
      "compr": 2781,
      "17": 2782,
      "modelo</w>": 2783,
      "frac</w>": 2784,
      "verdade</w>": 2785,
      "escritóri": 2786,
      "agem.</w>": 2787,
      "aqueles</w>": 2788,
      "coment": 2789,
      "permite</w>": 2790,
      "ma": 2791,
      "instal": 2792,
      "amor": 2793,
      "desafios</w>": 2794,
      "Estes</w>": 2795,
      "\"A</w>": 2796,
      "políticas</w>": 2797,
      "semana</w>": 2798,
      "substitu": 2799,
      "recuper": 2800,
      "rapid": 2801,
      "religi": 2802,
      "morte</w>": 2803,
      "significativo</w>": 2804,
      "efeitos</w>": 2805,
      "Bro": 2806,
      "difícil</w>": 2807,
      "não.</w>": 2808,
      "i,</w>": 2809,
      "Durante</w>": 2810,
      "comput": 2811,
      "put": 2812,
      "196": 2813,
      "Be": 2814,
      "veg": 2815,
      "bom": 2816,
      "Use</w>": 2817,
      "Cam": 2818,
      "levou</w>": 2819,
      "fontes</w>": 2820,
      "ald": 2821,
      "eita</w>": 2822,
      "ca.</w>": 2823,
      "países</w>": 2824,
      "o\".</w>": 2825,
      "movimento</w>": 2826,
      "ras.</w>": 2827,
      "Pes": 2828,
      "onst": 2829,
      "\"S": 2830,
      "Tam": 2831,
      "nosso</w>": 2832,
      "utri": 2833,
      "plata": 2834,
      "ores,</w>": 2835,
      "atmos": 2836,
      "seguir</w>": 2837,
      "original</w>": 2838,
      "desempenho</w>": 2839,
      "Por": 2840,
      "frase.</w>": 2841,
      "Alguns</w>": 2842,
      "indústria</w>": 2843,
      "menor</w>": 2844,
      "ront": 2845,
      "amento,</w>": 2846,
      "integ": 2847,
      "caso,</w>": 2848,
      "trás</w>": 2849,
      "ley</w>": 2850,
      "condições</w>": 2851,
      "milhões</w>": 2852,
      "atenção</w>": 2853,
      "caixa</w>": 2854,
      "coisa</w>": 2855,
      "cando</w>": 2856,
      "Nor": 2857,
      "eira,</w>": 2858,
      "filho</w>": 2859,
      "peix": 2860,
      "loja</w>": 2861,
      "particul": 2862,
      "serviço</w>": 2863,
      "solução</w>": 2864,
      "Euro": 2865,
      "futebol</w>": 2866,
      "aprender</w>": 2867,
      "óti": 2868,
      "\"Uma</w>": 2869,
      "nacional</w>": 2870,
      "1,</w>": 2871,
      "crític": 2872,
      "sens": 2873,
      "peso</w>": 2874,
      "encontr": 2875,
      "problem": 2876,
      "vul": 2877,
      "significado</w>": 2878,
      "metros</w>": 2879,
      "ável,</w>": 2880,
      "perturb": 2881,
      "pensar</w>": 2882,
      "sala</w>": 2883,
      "rápi": 2884,
      "enda</w>": 2885,
      "es.": 2886,
      "fór": 2887,
      "tempo,</w>": 2888,
      "assassin": 2889,
      "agrad": 2890,
      "resultado</w>": 2891,
      "fique": 2892,
      "consci": 2893,
      "identificar</w>": 2894,
      "variedade</w>": 2895,
      "Dado</w>": 2896,
      "is.</w>": 2897,
      "mudança</w>": 2898,
      "ãs</w>": 2899,
      "porcentagem</w>": 2900,
      "5,</w>": 2901,
      "pression": 2902,
      "lag": 2903,
      "poli": 2904,
      "ecendo</w>": 2905,
      "vali": 2906,
      "nenhum</w>": 2907,
      "escal": 2908,
      "acima</w>": 2909,
      "conhecida</w>": 2910,
      "dão</w>": 2911,
      "sentir</w>": 2912,
      "perda</w>": 2913,
      "reconh": 2914,
      "Hipótese:</w>": 2915,
      "Can": 2916,
      "natur": 2917,
      "sho": 2918,
      "evid": 2919,
      "the</w>": 2920,
      "pequena</w>": 2921,
      "eias</w>": 2922,
      "especificamente</w>": 2923,
      "C.</w>": 2924,
      "public": 2925,
      "so:</w>": 2926,
      "século</w>": 2927,
      "man</w>": 2928,
      "1,": 2929,
      "mass": 2930,
      "at</w>": 2931,
      "proces": 2932,
      "reduz": 2933,
      "Mc": 2934,
      "EUA</w>": 2935,
      "cober": 2936,
      "he": 2937,
      "fornecid": 2938,
      "Tr": 2939,
      "víde": 2940,
      "provável</w>": 2941,
      "ero</w>": 2942,
      "rei</w>": 2943,
      "sobrevi": 2944,
      "tí": 2945,
      "experiências</w>": 2946,
      "movi": 2947,
      "sejam</w>": 2948,
      "Fin": 2949,
      "eis</w>": 2950,
      "aspectos</w>": 2951,
      "ia,</w>": 2952,
      "sit": 2953,
      "emin": 2954,
      "melhores</w>": 2955,
      "Ho": 2956,
      "incluem</w>": 2957,
      "programas</w>": 2958,
      "tentar</w>": 2959,
      "quad": 2960,
      "8.</w>": 2961,
      "inclui</w>": 2962,
      "nutri": 2963,
      "quil": 2964,
      "Isto</w>": 2965,
      "mic": 2966,
      "restaurante</w>": 2967,
      "gias</w>": 2968,
      "raf": 2969,
      "cle": 2970,
      "envolve</w>": 2971,
      "estiv": 2972,
      "o\"</w>": 2973,
      "elev": 2974,
      "proporcion": 2975,
      "banda</w>": 2976,
      "tivamente</w>": 2977,
      "brilh": 2978,
      "fato</w>": 2979,
      "fácil</w>": 2980,
      "mo,</w>": 2981,
      "velo": 2982,
      "seis</w>": 2983,
      "usada</w>": 2984,
      "intel": 2985,
      "pat": 2986,
      "jo</w>": 2987,
      "elementos</w>": 2988,
      "interesse</w>": 2989,
      "mal": 2990,
      "venda</w>": 2991,
      "importância</w>": 2992,
      "decisão</w>": 2993,
      "Não,</w>": 2994,
      "institu": 2995,
      "ano.</w>": 2996,
      "ras,</w>": 2997,
      "sint": 2998,
      "controle</w>": 2999,
      "incent": 3000,
      "dores</w>": 3001,
      "atualiz": 3002,
      "objetivo</w>": 3003,
      "Man": 3004,
      "Guerra</w>": 3005,
      "normalmente</w>": 3006,
      "unt": 3007,
      "vel.</w>": 3008,
      "ísticas</w>": 3009,
      "ey</w>": 3010,
      "quase</w>": 3011,
      "osamente</w>": 3012,
      "bust": 3013,
      "comum": 3014,
      "menina</w>": 3015,
      "possíveis</w>": 3016,
      "evolu": 3017,
      "ck</w>": 3018,
      "Mun": 3019,
      "comparação</w>": 3020,
      "fia</w>": 3021,
      "agem,</w>": 3022,
      "viaj": 3023,
      "certe": 3024,
      "planej": 3025,
      "localização</w>": 3026,
      "(A": 3027,
      "Char": 3028,
      "livros</w>": 3029,
      "ph": 3030,
      "jardas</w>": 3031,
      "2,</w>": 3032,
      "amar": 3033,
      "oso": 3034,
      "ecido</w>": 3035,
      "população</w>": 3036,
      "desempenh": 3037,
      "materiais</w>": 3038,
      "14": 3039,
      "bro</w>": 3040,
      "-fei": 3041,
      "pequeno</w>": 3042,
      "exam": 3043,
      "and</w>": 3044,
      "arte</w>": 3045,
      "cliente</w>": 3046,
      "mistura</w>": 3047,
      "demonst": 3048,
      "criança</w>": 3049,
      "resist": 3050,
      "escolher</w>": 3051,
      "inv": 3052,
      "Gran": 3053,
      "brit": 3054,
      "Foi</w>": 3055,
      "positiva</w>": 3056,
      "Amb": 3057,
      "rem</w>": 3058,
      "erá</w>": 3059,
      "ciais</w>": 3060,
      "descont": 3061,
      "Mat": 3062,
      "on,</w>": 3063,
      "ard</w>": 3064,
      "pais</w>": 3065,
      "encontra</w>": 3066,
      "eira.</w>": 3067,
      "(B": 3068,
      "tam</w>": 3069,
      "potenciais</w>": 3070,
      "orient": 3071,
      "trib": 3072,
      "ore</w>": 3073,
      "política</w>": 3074,
      "tig": 3075,
      "considerar</w>": 3076,
      "polu": 3077,
      "levant": 3078,
      "culas</w>": 3079,
      "social</w>": 3080,
      "gol": 3081,
      "grad": 3082,
      "deixar</w>": 3083,
      "á-los</w>": 3084,
      "único</w>": 3085,
      "certo</w>": 3086,
      "medidas</w>": 3087,
      "red": 3088,
      "comunidade</w>": 3089,
      "les": 3090,
      "indivi": 3091,
      "ex-": 3092,
      "be</w>": 3093,
      "plano</w>": 3094,
      "regular": 3095,
      "an,</w>": 3096,
      "ance</w>": 3097,
      "respi": 3098,
      "temperatura</w>": 3099,
      "B:</w>": 3100,
      "individu": 3101,
      "Alg": 3102,
      "inspi": 3103,
      "escrever</w>": 3104,
      "Pl": 3105,
      "pergunta,</w>": 3106,
      "e\".</w>": 3107,
      "menino</w>": 3108,
      "apreci": 3109,
      "tamanho</w>": 3110,
      "perig": 3111,
      "deno": 3112,
      "Unidos</w>": 3113,
      "manh": 3114,
      "construção</w>": 3115,
      "fran": 3116,
      "dez": 3117,
      "momento</w>": 3118,
      "nós</w>": 3119,
      "regist": 3120,
      "pic": 3121,
      "dem</w>": 3122,
      "vidas</w>": 3123,
      "termo</w>": 3124,
      "regul": 3125,
      "esforços</w>": 3126,
      "temos</w>": 3127,
      "dente</w>": 3128,
      "eç": 3129,
      "music": 3130,
      "Ver": 3131,
      "lucro</w>": 3132,
      "raciocínio</w>": 3133,
      "Adi": 3134,
      "gên": 3135,
      "intro": 3136,
      "Davi": 3137,
      "nada</w>": 3138,
      "porta</w>": 3139,
      "poderiam</w>": 3140,
      "senso</w>": 3141,
      "usados</w>": 3142,
      "sabili": 3143,
      "stific": 3144,
      "média</w>": 3145,
      "Consider": 3146,
      "execut": 3147,
      "velh": 3148,
      "configu": 3149,
      "25": 3150,
      "ética</w>": 3151,
      "priv": 3152,
      "perten": 3153,
      "Chri": 3154,
      "hoj": 3155,
      "benefícios</w>": 3156,
      "blo": 3157,
      "pré": 3158,
      "Or": 3159,
      "roman": 3160,
      "Vi": 3161,
      "inação</w>": 3162,
      "compon": 3163,
      "lado,</w>": 3164,
      "conta</w>": 3165,
      "ah</w>": 3166,
      "inho</w>": 3167,
      "33": 3168,
      "autor": 3169,
      "dido</w>": 3170,
      "álbum</w>": 3171,
      "reuni": 3172,
      "gestão</w>": 3173,
      "coz": 3174,
      "ológ": 3175,
      "perfei": 3176,
      "pers": 3177,
      "arão</w>": 3178,
      "fras": 3179,
      "traz": 3180,
      "risco</w>": 3181,
      "naveg": 3182,
      "ismo</w>": 3183,
      "restaura": 3184,
      "16</w>": 3185,
      "está": 3186,
      "renov": 3187,
      "jas</w>": 3188,
      "embro</w>": 3189,
      "veget": 3190,
      "mercado</w>": 3191,
      "?Vamos</w>": 3192,
      "ona</w>": 3193,
      "apoiar</w>": 3194,
      "comunicação</w>": 3195,
      "\"The</w>": 3196,
      "próprio</w>": 3197,
      "lav": 3198,
      "Exist": 3199,
      "vers": 3200,
      "conselh": 3201,
      "adora</w>": 3202,
      "crucial</w>": 3203,
      "contém</w>": 3204,
      "solo</w>": 3205,
      "nasci": 3206,
      "tele": 3207,
      "êni": 3208,
      "personagem</w>": 3209,
      "ad</w>": 3210,
      "simples</w>": 3211,
      "turas</w>": 3212,
      "grupos</w>": 3213,
      "fonte</w>": 3214,
      "B.</w>": 3215,
      "And": 3216,
      "lhes</w>": 3217,
      "própria</w>": 3218,
      "izar</w>": 3219,
      "tempo.</w>": 3220,
      "Cl": 3221,
      "tivas</w>": 3222,
      "além</w>": 3223,
      "funcionários</w>": 3224,
      "responsabili": 3225,
      "hora</w>": 3226,
      "quarto</w>": 3227,
      "Resposta:O</w>": 3228,
      "ério</w>": 3229,
      "ívei": 3230,
      "fornecidas</w>": 3231,
      "carreira</w>": 3232,
      "uns</w>": 3233,
      "agu": 3234,
      "foco</w>": 3235,
      "ici": 3236,
      "resultados</w>": 3237,
      "acional</w>": 3238,
      "ficou</w>": 3239,
      "unh": 3240,
      "io</w>": 3241,
      "você": 3242,
      "conexão</w>": 3243,
      "profes": 3244,
      "prim": 3245,
      "h,</w>": 3246,
      "curso</w>": 3247,
      "atmosfer": 3248,
      "projeto</w>": 3249,
      "espécies</w>": 3250,
      "ht": 3251,
      "eficaz": 3252,
      "quint": 3253,
      "ões,</w>": 3254,
      "concor": 3255,
      "ós": 3256,
      "ceu</w>": 3257,
      "consequ": 3258,
      "24</w>": 3259,
      "começar</w>": 3260,
      "cr": 3261,
      "café</w>": 3262,
      "gado</w>": 3263,
      "sia</w>": 3264,
      "extre": 3265,
      "Li": 3266,
      "vida.</w>": 3267,
      "ganhou</w>": 3268,
      "década</w>": 3269,
      "Em": 3270,
      "viagem</w>": 3271,
      "od</w>": 3272,
      "fos": 3273,
      "fres": 3274,
      "Reino</w>": 3275,
      "denotar</w>": 3276,
      "Ant": 3277,
      "ele.</w>": 3278,
      "onlin": 3279,
      "cí": 3280,
      "próximo</w>": 3281,
      "êmi": 3282,
      "óx": 3283,
      "tifique": 3284,
      "nome": 3285,
      "feliz": 3286,
      "ção:</w>": 3287,
      "ãos</w>": 3288,
      "ões.</w>": 3289,
      "hav": 3290,
      "a).</w>": 3291,
      "altern": 3292,
      "câ": 3293,
      "rio</w>": 3294,
      "anci": 3295,
      "aer": 3296,
      "80</w>": 3297,
      "tais</w>": 3298,
      "colabor": 3299,
      "superfície</w>": 3300,
      "natural</w>": 3301,
      "personagens</w>": 3302,
      "proteger</w>": 3303,
      "indica</w>": 3304,
      "diferença</w>": 3305,
      "99": 3306,
      "ção": 3307,
      "tifique-se</w>": 3308,
      "exter": 3309,
      "mest": 3310,
      "causar</w>": 3311,
      "natureza</w>": 3312,
      "ide": 3313,
      "inham</w>": 3314,
      "necessidades</w>": 3315,
      "bei": 3316,
      "cai": 3317,
      "tentando</w>": 3318,
      "Pod": 3319,
      "identific": 3320,
      "judi": 3321,
      "oxigênio</w>": 3322,
      "desenvolver</w>": 3323,
      "éis</w>": 3324,
      "usuários</w>": 3325,
      "indo": 3326,
      "lín": 3327,
      "dessas</w>": 3328,
      "ús": 3329,
      "último</w>": 3330,
      "ating": 3331,
      "refere-se</w>": 3332,
      "ena</w>": 3333,
      "ajudá-lo</w>": 3334,
      "(2": 3335,
      "jogador</w>": 3336,
      "essenci": 3337,
      "confort": 3338,
      "Estou</w>": 3339,
      "0%</w>": 3340,
      "íbri": 3341,
      "ansi": 3342,
      "região</w>": 3343,
      "pessoal</w>": 3344,
      "gan": 3345,
      "jogar</w>": 3346,
      "importantes</w>": 3347,
      "vant": 3348,
      "Bu": 3349,
      "verdadeira</w>": 3350,
      "far": 3351,
      "jogadores</w>": 3352,
      "oportunidades</w>": 3353,
      "atas</w>": 3354,
      "de:</w>": 3355,
      "ly": 3356,
      "vel,</w>": 3357,
      "lhas</w>": 3358,
      "se.</w>": 3359,
      "filmes</w>": 3360,
      "tou": 3361,
      "itas</w>": 3362,
      "estres": 3363,
      "18</w>": 3364,
      "soli": 3365,
      "construir</w>": 3366,
      "sil": 3367,
      "elei": 3368,
      "premissa.</w>": 3369,
      "temporada</w>": 3370,
      "cidade.</w>": 3371,
      "esposa</w>": 3372,
      "jard": 3373,
      "direção</w>": 3374,
      "ições</w>": 3375,
      "til</w>": 3376,
      "luta</w>": 3377,
      "itens</w>": 3378,
      "pág": 3379,
      "estou</w>": 3380,
      "cidade,</w>": 3381,
      "falar</w>": 3382,
      "gerenci": 3383,
      "pis": 3384,
      "dirig": 3385,
      "cuidad": 3386,
      "rup": 3387,
      "climátic": 3388,
      "ia.</w>": 3389,
      "Val": 3390,
      "presença</w>": 3391,
      "1.": 3392,
      "ly</w>": 3393,
      "sk": 3394,
      "pés</w>": 3395,
      "positivos</w>": 3396,
      "mãos</w>": 3397,
      "ances</w>": 3398,
      "var": 3399,
      "Ob": 3400,
      "domin": 3401,
      "transporte</w>": 3402,
      "presente</w>": 3403,
      "velocidade</w>": 3404,
      "enha</w>": 3405,
      "oce": 3406,
      "chegar</w>": 3407,
      "e!</w>": 3408,
      "Algumas</w>": 3409,
      "abordagem</w>": 3410,
      "amor</w>": 3411,
      "respostas</w>": 3412,
      "óli": 3413,
      "teria</w>": 3414,
      "células</w>": 3415,
      "leo</w>": 3416,
      "ções.</w>": 3417,
      "Ste": 3418,
      "problema</w>": 3419,
      "cara</w>": 3420,
      "tornou</w>": 3421,
      "lados</w>": 3422,
      "transmit": 3423,
      "tir</w>": 3424,
      "ogra": 3425,
      "atamente</w>": 3426,
      "guerra</w>": 3427,
      "eto</w>": 3428,
      "bicicl": 3429,
      "transform": 3430,
      "200</w>": 3431,
      "14</w>": 3432,
      "rito</w>": 3433,
      "sangu": 3434,
      "agri": 3435,
      "tific": 3436,
      "refei": 3437,
      "potencialmente</w>": 3438,
      "língu": 3439,
      "torno": 3440,
      "hon": 3441,
      "autom": 3442,
      "educação</w>": 3443,
      "gulh": 3444,
      "dia.</w>": 3445,
      "armente</w>": 3446,
      "corrida</w>": 3447,
      "pequenas</w>": 3448,
      "análise</w>": 3449,
      "data</w>": 3450,
      "cer</w>": 3451,
      "Também</w>": 3452,
      "din": 3453,
      "cozinh": 3454,
      "Quais</w>": 3455,
      "acontec": 3456,
      "retra": 3457,
      "jant": 3458,
      "intelig": 3459,
      "específico</w>": 3460,
      "Após</w>": 3461,
      "gas": 3462,
      "comportamento</w>": 3463,
      "vens</w>": 3464,
      "atório</w>": 3465,
      "tendo</w>": 3466,
      "fazem</w>": 3467,
      "vitóri": 3468,
      "mico</w>": 3469,
      "mec": 3470,
      "unci": 3471,
      "sensação</w>": 3472,
      "satisf": 3473,
      "o)</w>": 3474,
      "rast": 3475,
      "sangue</w>": 3476,
      "mas": 3477,
      "Contex": 3478,
      "camis": 3479,
      "\"Eu</w>": 3480,
      "tenta</w>": 3481,
      "incluir</w>": 3482,
      "calor</w>": 3483,
      "corretamente</w>": 3484,
      "vidade</w>": 3485,
      "simples": 3486,
      "pet": 3487,
      "continua</w>": 3488,
      "aprendiz": 3489,
      "cabeça</w>": 3490,
      "lidar</w>": 3491,
      "cart": 3492,
      "carbono</w>": 3493,
      "usam</w>": 3494,
      "desses</w>": 3495,
      "lâ": 3496,
      "ill</w>": 3497,
      "nem</w>": 3498,
      "crimin": 3499,
      "alcançar</w>": 3500,
      "refl": 3501,
      "cro": 3502,
      "dá</w>": 3503,
      "categoria</w>": 3504,
      "lo</w>": 3505,
      "3,</w>": 3506,
      "etas</w>": 3507,
      "específicos</w>": 3508,
      "site</w>": 3509,
      "crianç": 3510,
      "Cent": 3511,
      "certeza</w>": 3512,
      "Primeiro,</w>": 3513,
      "ando-se</w>": 3514,
      "áveis.</w>": 3515,
      "ket": 3516,
      "conjunto</w>": 3517,
      "arquiv": 3518,
      "rar": 3519,
      "fluxo</w>": 3520,
      "ções,</w>": 3521,
      "confli": 3522,
      "rapidamente</w>": 3523,
      "alização</w>": 3524,
      "descober": 3525,
      "ográ": 3526,
      "John": 3527,
      "ores.</w>": 3528,
      "Sar": 3529,
      "Gre": 3530,
      "expan": 3531,
      "eiro,</w>": 3532,
      "195": 3533,
      "ch</w>": 3534,
      "pósi": 3535,
      "Gerar</w>": 3536,
      "Ab": 3537,
      "ina,</w>": 3538,
      "profissional</w>": 3539,
      "contato</w>": 3540,
      "Mais</w>": 3541,
      "revel": 3542,
      "suj": 3543,
      "polícia</w>": 3544,
      "mundo.</w>": 3545,
      "ular</w>": 3546,
      "redução</w>": 3547,
      "James</w>": 3548,
      "saída</w>": 3549,
      "premissa,</w>": 3550,
      "figu": 3551,
      "padrões</w>": 3552,
      "i.</w>": 3553,
      "análise,</w>": 3554,
      "eio</w>": 3555,
      "confir": 3556,
      "digit": 3557,
      "At": 3558,
      "fundament": 3559,
      "postos</w>": 3560,
      "imedi": 3561,
      "finalmente</w>": 3562,
      "pesar</w>": 3563,
      "óxido</w>": 3564,
      "str": 3565,
      "perspec": 3566,
      "organizações</w>": 3567,
      "comunidades</w>": 3568,
      "álog": 3569,
      "passar</w>": 3570,
      "recebeu</w>": 3571,
      "certa</w>": 3572,
      "combust": 3573,
      "maç": 3574,
      "caval": 3575,
      "les</w>": 3576,
      "direitos</w>": 3577,
      "ássar": 3578,
      "veí": 3579,
      "Hol": 3580,
      "serve</w>": 3581,
      "particularmente</w>": 3582,
      "dicas</w>": 3583,
      "equil": 3584,
      "elétri": 3585,
      "áb": 3586,
      "suficientes</w>": 3587,
      "celeb": 3588,
      "ganhar</w>": 3589,
      "sucedi": 3590,
      "Lond": 3591,
      "par</w>": 3592,
      "IA,</w>": 3593,
      "On": 3594,
      "resposta:</w>": 3595,
      "mídia</w>": 3596,
      "estudantes</w>": 3597,
      "namor": 3598,
      "terra</w>": 3599,
      "Mé": 3600,
      "coração</w>": 3601,
      "Podemos</w>": 3602,
      "abrang": 3603,
      "possi": 3604,
      "tal</w>": 3605,
      "missão</w>": 3606,
      "faix": 3607,
      "eiro.</w>": 3608,
      "candid": 3609,
      "e)</w>": 3610,
      "entrar</w>": 3611,
      "a\",</w>": 3612,
      "navi": 3613,
      "acima,</w>": 3614,
      "ást": 3615,
      "inov": 3616,
      "coleg": 3617,
      "sentimentos</w>": 3618,
      "bo</w>": 3619,
      "Resposta:A</w>": 3620,
      "ael</w>": 3621,
      "dever": 3622,
      "Améri": 3623,
      "vin": 3624,
      "pássar": 3625,
      "ução</w>": 3626,
      "Bi": 3627,
      "So": 3628,
      "Existem</w>": 3629,
      "5:</w>": 3630,
      "exemplo</w>": 3631,
      "queria</w>": 3632,
      "mencionado</w>": 3633,
      "ére": 3634,
      "cren": 3635,
      "tornando</w>": 3636,
      "Lo": 3637,
      "?Sim,</w>": 3638,
      "gem</w>": 3639,
      "resul": 3640,
      "versão</w>": 3641,
      "equilíbri": 3642,
      "cuidados</w>": 3643,
      "simplesmente</w>": 3644,
      "ai</w>": 3645,
      "depo": 3646,
      "alise</w>": 3647,
      "progres": 3648,
      "land": 3649,
      "quantos</w>": 3650,
      "back</w>": 3651,
      "ez": 3652,
      "redes</w>": 3653,
      "Willi": 3654,
      "entreg": 3655,
      "bras</w>": 3656,
      "bast": 3657,
      "fech": 3658,
      "mento.</w>": 3659,
      "meses</w>": 3660,
      "ocorre</w>": 3661,
      "ingu": 3662,
      "pontuação</w>": 3663,
      "viv": 3664,
      "acho</w>": 3665,
      "sabemos</w>": 3666,
      "Th": 3667,
      "hid": 3668,
      "enfati": 3669,
      "cor</w>": 3670,
      "(C": 3671,
      "comer</w>": 3672,
      "gri": 3673,
      "maneiras</w>": 3674,
      "ajust": 3675,
      "aí": 3676,
      "wo": 3677,
      "aus": 3678,
      "máquina</w>": 3679,
      "ann": 3680,
      "194": 3681,
      "l,</w>": 3682,
      "açú": 3683,
      "o!</w>": 3684,
      "sores</w>": 3685,
      "?Para</w>": 3686,
      "\".?</w>": 3687,
      "impression": 3688,
      "Sr.</w>": 3689,
      "dedi": 3690,
      "âne": 3691,
      "pele</w>": 3692,
      "tinham</w>": 3693,
      "euro": 3694,
      "inci": 3695,
      "procur": 3696,
      "fundo</w>": 3697,
      "acompanh": 3698,
      "micos</w>": 3699,
      "localizado</w>": 3700,
      "9.</w>": 3701,
      "roub": 3702,
      "defen": 3703,
      "4,</w>": 3704,
      "ando.</w>": 3705,
      "um,</w>": 3706,
      "iram</w>": 3707,
      "estudo</w>": 3708,
      "fabri": 3709,
      "mo.</w>": 3710,
      "sei</w>": 3711,
      "assunt": 3712,
      "atac": 3713,
      "azu": 3714,
      "cole": 3715,
      "ick</w>": 3716,
      "agen": 3717,
      "criação</w>": 3718,
      "Pol": 3719,
      "distância</w>": 3720,
      "Então</w>": 3721,
      "folh": 3722,
      "Def": 3723,
      "Don": 3724,
      "consul": 3725,
      "bola</w>": 3726,
      "re.</w>": 3727,
      "ingredi": 3728,
      "ismos</w>": 3729,
      "11</w>": 3730,
      "lóg": 3731,
      "sentido</w>": 3732,
      "casa.</w>": 3733,
      "âncias</w>": 3734,
      "gerar</w>": 3735,
      "ães</w>": 3736,
      "fiz": 3737,
      "reun": 3738,
      "Determinar</w>": 3739,
      "aco</w>": 3740,
      "ation": 3741,
      "Ber": 3742,
      "longa</w>": 3743,
      "fala</w>": 3744,
      "objeto</w>": 3745,
      "Nort": 3746,
      "re-se</w>": 3747,
      "entrada</w>": 3748,
      "popular</w>": 3749,
      "roupas</w>": 3750,
      "específicas</w>": 3751,
      "Apesar</w>": 3752,
      "Nat": 3753,
      "envolver</w>": 3754,
      "necessário</w>": 3755,
      "chef": 3756,
      "primeiro": 3757,
      "ferramentas</w>": 3758,
      "instru": 3759,
      "do:</w>": 3760,
      "irmão</w>": 3761,
      "responde</w>": 3762,
      "cionar</w>": 3763,
      "atrá": 3764,
      "atual</w>": 3765,
      "colet": 3766,
      "precisam</w>": 3767,
      "fico</w>": 3768,
      "conserv": 3769,
      "tarefa,</w>": 3770,
      "Ir": 3771,
      "cum": 3772,
      "Jan": 3773,
      "tornou-se</w>": 3774,
      "razão</w>": 3775,
      "hospit": 3776,
      "brinque": 3777,
      "Quantos</w>": 3778,
      "chin": 3779,
      "á-la</w>": 3780,
      "econó": 3781,
      "Fl": 3782,
      "pren": 3783,
      "líder</w>": 3784,
      "filme:</w>": 3785,
      "pé</w>": 3786,
      "juntos</w>": 3787,
      "iri": 3788,
      "peças</w>": 3789,
      "distribu": 3790,
      "quente</w>": 3791,
      "maiores</w>": 3792,
      "Tom</w>": 3793,
      "plac": 3794,
      "nossos</w>": 3795,
      "Ingl": 3796,
      "conclusão</w>": 3797,
      "real</w>": 3798,
      "membro</w>": 3799,
      "dificul": 3800,
      "imagem</w>": 3801,
      "ome</w>": 3802,
      "claro</w>": 3803,
      "Cada</w>": 3804,
      "David</w>": 3805,
      "a-fei": 3806,
      "incentiv": 3807,
      "irm": 3808,
      "especial</w>": 3809,
      "feliz</w>": 3810,
      "usou</w>": 3811,
      "filme,</w>": 3812,
      "ficial</w>": 3813,
      "13": 3814,
      "Cu": 3815,
      "vestindo</w>": 3816,
      "Sab": 3817,
      "soft": 3818,
      "Pres": 3819,
      "Universidade</w>": 3820,
      "if": 3821,
      "mente.</w>": 3822,
      "mudar</w>": 3823,
      "Gra": 3824,
      "Essas</w>": 3825,
      "ie</w>": 3826,
      "vida,</w>": 3827,
      "tratamento</w>": 3828,
      "lá</w>": 3829,
      "deles</w>": 3830,
      "irá</w>": 3831,
      "estação</w>": 3832,
      "hipótese.</w>": 3833,
      "paco": 3834,
      "by</w>": 3835,
      "gá": 3836,
      "ídu": 3837,
      "marca</w>": 3838,
      "militar": 3839,
      "vez,</w>": 3840,
      "ê-lo</w>": 3841,
      "relacionamento</w>": 3842,
      "tiveram</w>": 3843,
      "técnicas</w>": 3844,
      "Georg": 3845,
      "épo": 3846,
      "ong": 3847,
      "exclu": 3848,
      "Analise</w>": 3849,
      "casa,</w>": 3850,
      "mento,</w>": 3851,
      "mostra</w>": 3852,
      "emer": 3853,
      "acad": 3854,
      "chdow": 3855,
      "all</w>": 3856,
      "guer": 3857,
      "áveis,</w>": 3858,
      "rom": 3859,
      "conversa</w>": 3860,
      "banh": 3861,
      "Rom": 3862,
      "necessidade</w>": 3863,
      "água.</w>": 3864,
      "dó": 3865,
      "ais:</w>": 3866,
      "Tri": 3867,
      "tirar</w>": 3868,
      "Bri": 3869,
      "memóri": 3870,
      "incrí": 3871,
      "lent": 3872,
      "eventu": 3873,
      "secre": 3874,
      "acha</w>": 3875,
      "avaliar</w>": 3876,
      "ecos": 3877,
      "primeiros</w>": 3878,
      "emoções</w>": 3879,
      "Ed": 3880,
      "unho</w>": 3881,
      "resumo,</w>": 3882,
      "ner": 3883,
      "sabe</w>": 3884,
      "busca</w>": 3885,
      "perform": 3886,
      "material</w>": 3887,
      "emis": 3888,
      "diverti": 3889,
      "descobre</w>": 3890,
      "parc": 3891,
      "vil": 3892,
      "comprimento</w>": 3893,
      "anterior": 3894,
      "colocar</w>": 3895,
      "Quanto</w>": 3896,
      "hot": 3897,
      "alista</w>": 3898,
      "chuva</w>": 3899,
      "valores</w>": 3900,
      "design</w>": 3901,
      "touchdow": 3902,
      "6,</w>": 3903,
      "co-": 3904,
      "esco": 3905,
      "discu": 3906,
      "ware</w>": 3907,
      "resídu": 3908,
      "\"M": 3909,
      "ney</w>": 3910,
      "inicial</w>": 3911,
      "destru": 3912,
      "administ": 3913,
      "Cas": 3914,
      "econô": 3915,
      "ost": 3916,
      "absor": 3917,
      "logo</w>": 3918,
      "rus": 3919,
      "mental</w>": 3920,
      "defini": 3921,
      "adul": 3922,
      "humanos</w>": 3923,
      "Lemb": 3924,
      "ido.</w>": 3925,
      "excel": 3926,
      "-o</w>": 3927,
      "merc": 3928,
      "tan": 3929,
      "Pos": 3930,
      "negativo</w>": 3931,
      "bur": 3932,
      "forças</w>": 3933,
      "8,</w>": 3934,
      "sobre": 3935,
      "altamente</w>": 3936,
      "Ty": 3937,
      "terr": 3938,
      "Esses</w>": 3939,
      "terceiro</w>": 3940,
      "adicionais</w>": 3941,
      "cores</w>": 3942,
      "realizar</w>": 3943,
      "peça</w>": 3944,
      "ar-se</w>": 3945,
      "quebrar</w>": 3946,
      "atmosfera</w>": 3947,
      "diálog": 3948,
      "(S": 3949,
      "diretor</w>": 3950,
      "filha</w>": 3951,
      "aço</w>": 3952,
      "milhas</w>": 3953,
      "gest": 3954,
      "air": 3955,
      "pública</w>": 3956,
      "isso": 3957,
      "orden": 3958,
      "pequenos</w>": 3959,
      "solar</w>": 3960,
      "bas": 3961,
      "pé": 3962,
      "a;</w>": 3963,
      "sando</w>": 3964,
      "aturas</w>": 3965,
      "ela.</w>": 3966,
      "ell</w>": 3967,
      "estiver</w>": 3968,
      "visto</w>": 3969,
      "sol</w>": 3970,
      "serem</w>": 3971,
      "completamente</w>": 3972,
      "D.</w>": 3973,
      "características</w>": 3974,
      "motiv": 3975,
      "portanto,</w>": 3976,
      "fas": 3977,
      "artigo:</w>": 3978,
      "terap": 3979,
      "érias</w>": 3980,
      "ça,</w>": 3981,
      "sec": 3982,
      "satisfação</w>": 3983,
      "tamb": 3984,
      "pratic": 3985,
      "escolhas</w>": 3986,
      "confiança</w>": 3987,
      "____": 3988,
      "bot": 3989,
      "Hou": 3990,
      "el,</w>": 3991,
      "espaços</w>": 3992,
      "eat": 3993,
      "mó": 3994,
      "específica</w>": 3995,
      "Sim</w>": 3996,
      "Michael</w>": 3997,
      "ensin": 3998,
      "bem-estar</w>": 3999,
      "cabelo</w>": 4000,
      "organização</w>": 4001,
      "Aust": 4002,
      "estran": 4003,
      "?O</w>": 4004,
      "resumo</w>": 4005,
      "Jer": 4006,
      "desfrut": 4007,
      "xí": 4008,
      "exten": 4009,
      "disponíveis</w>": 4010,
      "alterações</w>": 4011,
      "ofici": 4012,
      "radas</w>": 4013,
      "circ": 4014,
      "ug": 4015,
      "cientí": 4016,
      "Wh": 4017,
      "grá": 4018,
      "preços</w>": 4019,
      "trimest": 4020,
      "ânico</w>": 4021,
      "Bl": 4022,
      "ite</w>": 4023,
      "juros</w>": 4024,
      "líqu": 4025,
      "ameaç": 4026,
      "metade</w>": 4027,
      "Sy": 4028,
      "propriedade</w>": 4029,
      "66": 4030,
      "Mundi": 4031,
      "mensagem</w>": 4032,
      "preocupações</w>": 4033,
      "suces": 4034,
      "indic": 4035,
      "livre</w>": 4036,
      "restaurant": 4037,
      "teste</w>": 4038,
      "danos</w>": 4039,
      "\"T": 4040,
      "ins</w>": 4041,
      "procurar</w>": 4042,
      "estre": 4043,
      "isso.</w>": 4044,
      "colo": 4045,
      "requer</w>": 4046,
      "desenh": 4047,
      "ced": 4048,
      "cenário</w>": 4049,
      "considerado</w>": 4050,
      "gelo</w>": 4051,
      "Pet": 4052,
      "dióxido</w>": 4053,
      "ester": 4054,
      "pare": 4055,
      "poluição</w>": 4056,
      "ída</w>": 4057,
      "garraf": 4058,
      "prejudi": 4059,
      "meus</w>": 4060,
      "números</w>": 4061,
      "fum": 4062,
      "ariamente</w>": 4063,
      "dú": 4064,
      "últimos</w>": 4065,
      "sul</w>": 4066,
      "água,</w>": 4067,
      "ínu": 4068,
      "tenham</w>": 4069,
      "tema</w>": 4070,
      "Resum": 4071,
      "front": 4072,
      "pico</w>": 4073,
      "futuro</w>": 4074,
      "senh": 4075,
      "rápido</w>": 4076,
      "ização</w>": 4077,
      "ça.</w>": 4078,
      "ídos</w>": 4079,
      "Amer": 4080,
      "tos,</w>": 4081,
      "internacion": 4082,
      "trabalho.</w>": 4083,
      "seguro</w>": 4084,
      "gat": 4085,
      "argument": 4086,
      "Rober": 4087,
      "ina.</w>": 4088,
      "vog": 4089,
      "Trum": 4090,
      "ock": 4091,
      "cional</w>": 4092,
      "sivo</w>": 4093,
      "ando,</w>": 4094,
      "morre": 4095,
      "contínu": 4096,
      "personaliz": 4097,
      "cast": 4098,
      "imig": 4099,
      "esa</w>": 4100,
      "dendo</w>": 4101,
      "Gr": 4102,
      "ndo</w>": 4103,
      "explorar</w>": 4104,
      "tados</w>": 4105,
      "fess": 4106,
      "outros.</w>": 4107,
      "aves</w>": 4108,
      "\"N": 4109,
      "trabalhando</w>": 4110,
      "7,</w>": 4111,
      "ouro</w>": 4112,
      "ários.</w>": 4113,
      "escu": 4114,
      "ew": 4115,
      "diri": 4116,
      "ativamente</w>": 4117,
      "precisão</w>": 4118,
      "olhos</w>": 4119,
      "frequentemente</w>": 4120,
      "madeira</w>": 4121,
      "iva</w>": 4122,
      "notíci": 4123,
      "Terra</w>": 4124,
      "Pal": 4125,
      "vidos</w>": 4126,
      "(i": 4127,
      "apont": 4128,
      "função</w>": 4129,
      "via</w>": 4130,
      "Cap": 4131,
      "jogando</w>": 4132,
      "métodos</w>": 4133,
      "atlet": 4134,
      "classe</w>": 4135,
      "lie</w>": 4136,
      "sedi": 4137,
      "visit": 4138,
      "apresenta</w>": 4139,
      "treinamento</w>": 4140,
      "Dis": 4141,
      "13</w>": 4142,
      "500</w>": 4143,
      "carros</w>": 4144,
      "pil": 4145,
      "consequências</w>": 4146,
      "esar</w>": 4147,
      "viu</w>": 4148,
      "dios</w>": 4149,
      "ja": 4150,
      "esteja</w>": 4151,
      "estratégias</w>": 4152,
      "pai": 4153,
      "relax": 4154,
      "e-mai": 4155,
      "desapar": 4156,
      "infec": 4157,
      "taxas</w>": 4158,
      "ordem</w>": 4159,
      "dependendo</w>": 4160,
      "civi": 4161,
      "monit": 4162,
      "ext": 4163,
      "lei</w>": 4164,
      "equilíbrio</w>": 4165,
      "document": 4166,
      "cân": 4167,
      "equação:</w>": 4168,
      "proprie": 4169,
      "gor": 4170,
      "eficaz</w>": 4171,
      "imag": 4172,
      "histórias</w>": 4173,
      "mesa</w>": 4174,
      "audi": 4175,
      "adol": 4176,
      "d,</w>": 4177,
      "cidades</w>": 4178,
      "Times</w>": 4179,
      "US": 4180,
      "relacionadas</w>": 4181,
      "dev": 4182,
      "facili": 4183,
      "rados</w>": 4184,
      "bis": 4185,
      "subtra": 4186,
      "Gl": 4187,
      "jovens</w>": 4188,
      "discut": 4189,
      "act": 4190,
      "ército</w>": 4191,
      "sta,</w>": 4192,
      "cena</w>": 4193,
      "Fi": 4194,
      "ando-o</w>": 4195,
      "s)</w>": 4196,
      "economia</w>": 4197,
      "gradu": 4198,
      "ador,</w>": 4199,
      "Min": 4200,
      "impul": 4201,
      "ido,</w>": 4202,
      "facil": 4203,
      "rep": 4204,
      "indivíduo</w>": 4205,
      "cinem": 4206,
      "convid": 4207,
      "continuar</w>": 4208,
      "Contexto:</w>": 4209,
      "anhas</w>": 4210,
      "terá</w>": 4211,
      "dos.</w>": 4212,
      "ing,</w>": 4213,
      "médico</w>": 4214,
      "Gar": 4215,
      "sap": 4216,
      "americano</w>": 4217,
      "norte</w>": 4218,
      "anas</w>": 4219,
      "diversi": 4220,
      "ador.</w>": 4221,
      "significativamente</w>": 4222,
      "apesar</w>": 4223,
      "receber</w>": 4224,
      "vent": 4225,
      "significativa</w>": 4226,
      "adequada</w>": 4227,
      "vê</w>": 4228,
      "propósi": 4229,
      "fant": 4230,
      "testem": 4231,
      "tend": 4232,
      "longe</w>": 4233,
      "event": 4234,
      "ensino</w>": 4235,
      "árvores</w>": 4236,
      "íram</w>": 4237,
      "inúmer": 4238,
      "energi": 4239,
      "ry": 4240,
      "ideias</w>": 4241,
      "Im": 4242,
      "também": 4243,
      "categori": 4244,
      "produzir</w>": 4245,
      "tada</w>": 4246,
      "Mon": 4247,
      "diferente</w>": 4248,
      "culp": 4249,
      "arquit": 4250,
      "acres": 4251,
      "velmente</w>": 4252,
      "espect": 4253,
      "Opções:</w>": 4254,
      "propriet": 4255,
      "ática</w>": 4256,
      "segue</w>": 4257,
      "e-me</w>": 4258,
      "razo": 4259,
      "incorpo": 4260,
      "program": 4261,
      "rol": 4262,
      "resid": 4263,
      "ke</w>": 4264,
      "selv": 4265,
      "mal</w>": 4266,
      "vir": 4267,
      "rações</w>": 4268,
      "vista</w>": 4269,
      "resto</w>": 4270,
      "dez</w>": 4271,
      "compra</w>": 4272,
      "sociedade</w>": 4273,
      "eia,</w>": 4274,
      "deram</w>": 4275,
      "poleg": 4276,
      "ana,</w>": 4277,
      "l.</w>": 4278,
      "Sal": 4279,
      "New</w>": 4280,
      "est</w>": 4281,
      "dada,</w>": 4282,
      "dada.</w>": 4283,
      "geral.</w>": 4284,
      "son,</w>": 4285,
      "oferecem</w>": 4286,
      "envolvimento</w>": 4287,
      "partí": 4288,
      "inver": 4289,
      "s\"</w>": 4290,
      "compromis": 4291,
      "liderança</w>": 4292,
      "responsável</w>": 4293,
      "contr": 4294,
      "fá": 4295,
      "doenças</w>": 4296,
      "unidade</w>": 4297,
      "imagens</w>": 4298,
      "breve</w>": 4299,
      "motor": 4300,
      "voz</w>": 4301,
      "gener": 4302,
      "preserv": 4303,
      "massa</w>": 4304,
      "tom</w>": 4305,
      "t,</w>": 4306,
      "vie</w>": 4307,
      "objetos</w>": 4308,
      "deixou</w>": 4309,
      "Ph": 4310,
      "tos.</w>": 4311,
      "redor</w>": 4312,
      "sicos</w>": 4313,
      "sair</w>": 4314,
      "embar": 4315,
      "1/": 4316,
      "uten": 4317,
      "vis": 4318,
      "verific": 4319,
      "e\",</w>": 4320,
      "passe</w>": 4321,
      "Tu": 4322,
      "relevantes</w>": 4323,
      "arre": 4324,
      "ouvir</w>": 4325,
      "úr": 4326,
      "desconto</w>": 4327,
      "líder": 4328,
      "micas</w>": 4329,
      "porto</w>": 4330,
      "vas</w>": 4331,
      "Dr.</w>": 4332,
      "rador</w>": 4333,
      "câmer": 4334,
      "raram</w>": 4335,
      "transmiti": 4336,
      "tamentos</w>": 4337,
      "bilh": 4338,
      "vale</w>": 4339,
      "comprou</w>": 4340,
      "',</w>": 4341,
      "negoci": 4342,
      "disse": 4343,
      "financi": 4344,
      "história.</w>": 4345,
      "expli": 4346,
      "endo": 4347,
      "Númer": 4348,
      "otec": 4349,
      "compartilhar</w>": 4350,
      "som</w>": 4351,
      "fortes</w>": 4352,
      "fiel": 4353,
      "delici": 4354,
      "Cali": 4355,
      "Gol": 4356,
      "drog": 4357,
      "n,</w>": 4358,
      "outub": 4359,
      "usadas</w>": 4360,
      "pessoais</w>": 4361,
      "boc": 4362,
      "extrem": 4363,
      "m,</w>": 4364,
      "pais": 4365,
      "aquela</w>": 4366,
      "sobreviv": 4367,
      "esforço</w>": 4368,
      "vaz": 4369,
      "crist": 4370,
      "Pen": 4371,
      "ice</w>": 4372,
      "inc": 4373,
      "as?</w>": 4374,
      "feitos</w>": 4375,
      "aquele</w>": 4376,
      "oportunidade</w>": 4377,
      "Tex": 4378,
      "parque</w>": 4379,
      "ariam</w>": 4380,
      "Wal": 4381,
      "defes": 4382,
      "193": 4383,
      "passou</w>": 4384,
      "professor</w>": 4385,
      "salv": 4386,
      "idores</w>": 4387,
      "velho</w>": 4388,
      "emocional</w>": 4389,
      "novamente</w>": 4390,
      "possui</w>": 4391,
      "ologia</w>": 4392,
      "gama</w>": 4393,
      "esquer": 4394,
      "diferenças</w>": 4395,
      "danç": 4396,
      "combat": 4397,
      "verificar</w>": 4398,
      "ampla</w>": 4399,
      "dentes</w>": 4400,
      "dizer": 4401,
      "list": 4402,
      "entra</w>": 4403,
      "passa</w>": 4404,
      "totalmente</w>": 4405,
      "Jack</w>": 4406,
      "enfrentar</w>": 4407,
      "rede</w>": 4408,
      "Tom": 4409,
      "alistas</w>": 4410,
      "icas,</w>": 4411,
      "sal</w>": 4412,
      "Fal": 4413,
      "soma</w>": 4414,
      "ques</w>": 4415,
      "br": 4416,
      "processos</w>": 4417,
      "fe</w>": 4418,
      "estad": 4419,
      "21</w>": 4420,
      "azes</w>": 4421,
      "femin": 4422,
      "premissa": 4423,
      "útil</w>": 4424,
      "direito</w>": 4425,
      "9,</w>": 4426,
      "limpe": 4427,
      "ística</w>": 4428,
      "nta</w>": 4429,
      "relações</w>": 4430,
      "Considere</w>": 4431,
      "Bra": 4432,
      "asi": 4433,
      "pena</w>": 4434,
      "é,</w>": 4435,
      "passado</w>": 4436,
      "nucle": 4437,
      "ânt": 4438,
      "guar": 4439,
      "dólar": 4440,
      "festa</w>": 4441,
      "ans</w>": 4442,
      "encontrou</w>": 4443,
      "York</w>": 4444,
      "forme</w>": 4445,
      "telefone</w>": 4446,
      "ataque</w>": 4447,
      "Número</w>": 4448,
      "escap": 4449,
      "medic": 4450,
      "Americ": 4451,
      "dizer.</w>": 4452,
      "my</w>": 4453,
      "descrição</w>": 4454,
      "pot": 4455,
      "humano</w>": 4456,
      "oferecer</w>": 4457,
      "voltar</w>": 4458,
      "canção</w>": 4459,
      "Pode</w>": 4460,
      "pareci": 4461,
      "dadas</w>": 4462,
      "cruz": 4463,
      "ráli": 4464,
      "investimento</w>": 4465,
      "amp": 4466,
      "abordar</w>": 4467,
      "jogou</w>": 4468,
      "feed": 4469,
      "permitindo</w>": 4470,
      "disponívei": 4471,
      "bem-sucedi": 4472,
      "stri": 4473,
      "acrescent": 4474,
      "aceit": 4475,
      "Dois</w>": 4476,
      "reti": 4477,
      "gás</w>": 4478,
      "giu</w>": 4479,
      "ânica</w>": 4480,
      "formar</w>": 4481,
      "Jon": 4482,
      "ON": 4483,
      "culturas</w>": 4484,
      "ex</w>": 4485,
      "instituição</w>": 4486,
      "setem": 4487,
      "Nacional</w>": 4488,
      "etap": 4489,
      "verdadeira": 4490,
      "investigação</w>": 4491,
      "Antes</w>": 4492,
      "olhar</w>": 4493,
      "frase:</w>": 4494,
      "decidir</w>": 4495,
      "mostrar</w>": 4496,
      "necessárias</w>": 4497,
      "destin": 4498,
      "proporção</w>": 4499,
      "tos": 4500,
      "diversidade</w>": 4501,
      "Artig": 4502,
      "17</w>": 4503,
      "Desde</w>": 4504,
      "twe": 4505,
      "Compar": 4506,
      "flores</w>": 4507,
      "ey": 4508,
      "prática</w>": 4509,
      "lugar,</w>": 4510,
      "custos</w>": 4511,
      "prest": 4512,
      "preciso</w>": 4513,
      "medo</w>": 4514,
      "itar": 4515,
      "tarefas</w>": 4516,
      "indire": 4517,
      "TV</w>": 4518,
      "etes</w>": 4519,
      "Thom": 4520,
      "global</w>": 4521,
      "televisão</w>": 4522,
      "George</w>": 4523,
      "estruturas</w>": 4524,
      "alem": 4525,
      "ake</w>": 4526,
      "rej": 4527,
      "edifício</w>": 4528,
      "produto.</w>": 4529,
      "justi": 4530,
      "Revi": 4531,
      "cac": 4532,
      "Mik": 4533,
      "palavras": 4534,
      "espor": 4535,
      "ner</w>": 4536,
      "Justific": 4537,
      "decisões</w>": 4538,
      "antemente</w>": 4539,
      "market": 4540,
      "Cit": 4541,
      "oficial</w>": 4542,
      "independ": 4543,
      "pedir</w>": 4544,
      "trist": 4545,
      "color": 4546,
      "Certifique-se</w>": 4547,
      "volum": 4548,
      "Brow": 4549,
      "baixa</w>": 4550,
      "projetos</w>": 4551,
      "ferência</w>": 4552,
      "Ma": 4553,
      "Austráli": 4554,
      "necessários</w>": 4555,
      "trabalhadores</w>": 4556,
      "culin": 4557,
      "75</w>": 4558,
      "aspecto</w>": 4559,
      "Artigo:</w>": 4560,
      "váli": 4561,
      "cha</w>": 4562,
      "Conclusão:</w>": 4563,
      "?A</w>": 4564,
      "siva</w>": 4565,
      "conceito</w>": 4566,
      "açúcar</w>": 4567,
      "japon": 4568,
      "sabor</w>": 4569,
      "únci": 4570,
      "cis": 4571,
      "Esper": 4572,
      "coraj": 4573,
      "med": 4574,
      "inhos</w>": 4575,
      "uto</w>": 4576,
      "autor</w>": 4577,
      "chefe</w>": 4578,
      "aços</w>": 4579,
      "Sam": 4580,
      "resposta,</w>": 4581,
      "florest": 4582,
      "ovos</w>": 4583,
      "Jack": 4584,
      "-lo</w>": 4585,
      "manhã</w>": 4586,
      "susp": 4587,
      "infra": 4588,
      "feder": 4589,
      "ashing": 4590,
      "19</w>": 4591,
      "vídeo</w>": 4592,
      "método</w>": 4593,
      "dizendo</w>": 4594,
      "cultural</w>": 4595,
      "Sele": 4596,
      "Mont": 4597,
      "Rich": 4598,
      "composi": 4599,
      "explicar</w>": 4600,
      "tual</w>": 4601,
      "razões</w>": 4602,
      "fosse</w>": 4603,
      "anunci": 4604,
      "gosta</w>": 4605,
      "pect": 4606,
      "itali": 4607,
      "nossas</w>": 4608,
      "eu": 4609,
      "experimentar</w>": 4610,
      "(3": 4611,
      "mes</w>": 4612,
      "den</w>": 4613,
      "distint": 4614,
      "engenh": 4615,
      "laran": 4616,
      "emerg": 4617,
      "adequado</w>": 4618,
      "Ser": 4619,
      "elim": 4620,
      "Goog": 4621,
      "influência</w>": 4622,
      "fornecida</w>": 4623,
      "conseguiu</w>": 4624,
      "ba</w>": 4625,
      "al.": 4626,
      "ago</w>": 4627,
      "atrás</w>": 4628,
      "band": 4629,
      "dos,</w>": 4630,
      "jardi": 4631,
      "Movie</w>": 4632,
      "narra": 4633,
      "inicialmente</w>": 4634,
      "Ran": 4635,
      "sexu": 4636,
      "m.</w>": 4637,
      "ath": 4638,
      "cães</w>": 4639,
      "cog": 4640,
      "Indi": 4641,
      "aumenta</w>": 4642,
      "use</w>": 4643,
      "envolv": 4644,
      "IA</w>": 4645,
      "rust": 4646,
      "Tal": 4647,
      "ar:</w>": 4648,
      "tab": 4649,
      "facul": 4650,
      "jornada</w>": 4651,
      "ego</w>": 4652,
      "pagar</w>": 4653,
      "control": 4654,
      "xi": 4655,
      "destaca</w>": 4656,
      "preferências</w>": 4657,
      "vas": 4658,
      "a!</w>": 4659,
      "etapa</w>": 4660,
      "equipes</w>": 4661,
      "passei": 4662,
      "estabelecer</w>": 4663,
      "Mi": 4664,
      "vizinh": 4665,
      "sozinh": 4666,
      "juntamente</w>": 4667,
      "estamos</w>": 4668,
      "famílias</w>": 4669,
      "desper": 4670,
      "Fre": 4671,
      "resposta.</w>": 4672,
      "Norte</w>": 4673,
      "camisa</w>": 4674,
      "serão</w>": 4675,
      "aprovei": 4676,
      "icas.</w>": 4677,
      "filhos</w>": 4678,
      "\"Não</w>": 4679,
      "atin": 4680,
      "land</w>": 4681,
      "ref": 4682,
      "proposta</w>": 4683,
      "ológi": 4684,
      "or:</w>": 4685,
      "úni": 4686,
      "bastante</w>": 4687,
      "bul": 4688,
      "b).</w>": 4689,
      "fornecidas,</w>": 4690,
      "ários,</w>": 4691,
      "combinação</w>": 4692,
      "dan": 4693,
      "bra</w>": 4694,
      "ou.</w>": 4695,
      "China</w>": 4696,
      "nasceu</w>": 4697,
      "show</w>": 4698,
      "lançado</w>": 4699,
      "componentes</w>": 4700,
      "Her": 4701,
      "pux": 4702,
      "0.": 4703,
      "perturbação</w>": 4704,
      "notar</w>": 4705,
      "América</w>": 4706,
      "\"B": 4707,
      "Ori": 4708,
      "digo</w>": 4709,
      "decidiu</w>": 4710,
      "tório</w>": 4711,
      "Áfri": 4712,
      "física</w>": 4713,
      "gênero</w>": 4714,
      "comerci": 4715,
      "liter": 4716,
      "ou,</w>": 4717,
      "ok</w>": 4718,
      "\\).</w>": 4719,
      "lugares</w>": 4720,
      "animal</w>": 4721,
      "haver</w>": 4722,
      "facilmente</w>": 4723,
      "alinh": 4724,
      "Hen": 4725,
      "quê": 4726,
      "íne": 4727,
      "empur": 4728,
      "falando</w>": 4729,
      "passos</w>": 4730,
      "Washing": 4731,
      "libras</w>": 4732,
      "noite,</w>": 4733,
      "relacionada</w>": 4734,
      "sanguíne": 4735,
      "Mil": 4736,
      "plot": 4737,
      "Lin": 4738,
      "per</w>": 4739,
      "esport": 4740,
      "eiro": 4741,
      "pati": 4742,
      "po,</w>": 4743,
      "iga</w>": 4744,
      "vitória</w>": 4745,
      "omas</w>": 4746,
      "22</w>": 4747,
      "são": 4748,
      "Alem": 4749,
      "be": 4750,
      "entre": 4751,
      "as\".</w>": 4752,
      "ht</w>": 4753,
      "anda</w>": 4754,
      "aul</w>": 4755,
      "advog": 4756,
      "po.</w>": 4757,
      "profissionais</w>": 4758,
      "emprego</w>": 4759,
      "jantar</w>": 4760,
      "obrig": 4761,
      "isó": 4762,
      "participar</w>": 4763,
      "guitar": 4764,
      "net": 4765,
      "elog": 4766,
      "Faça</w>": 4767,
      "contexto,</w>": 4768,
      "reb": 4769,
      "us,</w>": 4770,
      "gr": 4771,
      "quantas</w>": 4772,
      "capazes</w>": 4773,
      "médio</w>": 4774,
      "capital</w>": 4775,
      "remover</w>": 4776,
      "síveis</w>": 4777,
      "aproximadamente</w>": 4778,
      "ingredientes</w>": 4779,
      "Claro,</w>": 4780,
      "árvore</w>": 4781,
      "educa": 4782,
      "conqu": 4783,
      "Estado</w>": 4784,
      "deixa</w>": 4785,
      "clara</w>": 4786,
      "fornecem</w>": 4787,
      "ze</w>": 4788,
      "texto.</w>": 4789,
      "elen": 4790,
      "planos</w>": 4791,
      "cadeia</w>": 4792,
      "ida.</w>": 4793,
      "odi": 4794,
      "tive</w>": 4795,
      "exces": 4796,
      "costum": 4797,
      "amiz": 4798,
      "ondas</w>": 4799,
      "julg": 4800,
      "s-": 4801,
      "opiniões</w>": 4802,
      "45</w>": 4803,
      "28</w>": 4804,
      "psi": 4805,
      "folhas</w>": 4806,
      "mel": 4807,
      "plataformas</w>": 4808,
      "Califór": 4809,
      "garantindo</w>": 4810,
      "repeti": 4811,
      "baseado</w>": 4812,
      "naturais</w>": 4813,
      "P:</w>": 4814,
      "sabia</w>": 4815,
      "2,": 4816,
      "ajudou</w>": 4817,
      "alizar</w>": 4818,
      "esperar</w>": 4819,
      "90</w>": 4820,
      "eles.</w>": 4821,
      "orç": 4822,
      "cinema</w>": 4823,
      "resíduos</w>": 4824,
      "querem</w>": 4825,
      "ta-fei": 4826,
      "rev": 4827,
      "óleo</w>": 4828,
      "bliotec": 4829,
      "ib": 4830,
      "democ": 4831,
      "ty</w>": 4832,
      "édi": 4833,
      "imo</w>": 4834,
      "passo:</w>": 4835,
      "os\".</w>": 4836,
      "recor": 4837,
      "Gal": 4838,
      "kg</w>": 4839,
      "ilha</w>": 4840,
      "in,</w>": 4841,
      "ático</w>": 4842,
      "planta</w>": 4843,
      "It": 4844,
      "rápid": 4845,
      "prêmi": 4846,
      "instr": 4847,
      "língua</w>": 4848,
      "comérci": 4849,
      "eleg": 4850,
      "confor": 4851,
      "gol</w>": 4852,
      "Esp": 4853,
      "trabalha</w>": 4854,
      "assistir</w>": 4855,
      ");</w>": 4856,
      "obras</w>": 4857,
      "doença</w>": 4858,
      "EUA.</w>": 4859,
      "Obri": 4860,
      "conceitos</w>": 4861,
      "ma.</w>": 4862,
      "corrente</w>": 4863,
      "r,</w>": 4864,
      "pede</w>": 4865,
      "e?": 4866,
      "indu": 4867,
      "diversas</w>": 4868,
      "afetar</w>": 4869,
      "baseada</w>": 4870,
      "faixa</w>": 4871,
      "abaixo</w>": 4872,
      "plot:</w>": 4873,
      "online</w>": 4874,
      "Canad": 4875,
      "cot": 4876,
      "partículas</w>": 4877,
      "assumir</w>": 4878,
      "gases</w>": 4879,
      "gido</w>": 4880,
      "restantes</w>": 4881,
      "gio</w>": 4882,
      "natural,</w>": 4883,
      "fol": 4884,
      "estrelas</w>": 4885,
      "70</w>": 4886,
      "Bur": 4887,
      "objetivos</w>": 4888,
      "ataqu": 4889,
      "irmã</w>": 4890,
      "ong</w>": 4891,
      "aére": 4892,
      "Fer": 4893,
      "Sul": 4894,
      "software</w>": 4895,
      "indústri": 4896,
      "representa</w>": 4897,
      "tarde,</w>": 4898,
      "alu": 4899,
      "certos</w>": 4900,
      "desse</w>": 4901,
      "arquitet": 4902,
      "Mad": 4903,
      "empresa,</w>": 4904,
      "Bat": 4905,
      "visitar</w>": 4906,
      "carne</w>": 4907,
      "expect": 4908,
      "Inst": 4909,
      "pratos</w>": 4910,
      "Cli": 4911,
      "(I": 4912,
      "íni": 4913,
      "o?": 4914,
      "ana.</w>": 4915,
      "bio</w>": 4916,
      "passag": 4917,
      "partamento</w>": 4918,
      "Sabemos</w>": 4919,
      "ola</w>": 4920,
      "Sub": 4921,
      "resultado,</w>": 4922,
      "em:</w>": 4923,
      "ferramenta</w>": 4924,
      "entrevi": 4925,
      "forma,</w>": 4926,
      "Unidos.</w>": 4927,
      "definitivamente</w>": 4928,
      "fotos</w>": 4929,
      "meninas</w>": 4930,
      "soluções</w>": 4931,
      "trabalho,</w>": 4932,
      "chocol": 4933,
      "Ci": 4934,
      "ny</w>": 4935,
      "negativa</w>": 4936,
      "janeiro</w>": 4937,
      "sível</w>": 4938,
      "talvez</w>": 4939,
      "(D": 4940,
      "receita</w>": 4941,
      "aja</w>": 4942,
      "real": 4943,
      "artistas</w>": 4944,
      "impossível</w>": 4945,
      "organismos</w>": 4946,
      "Tor": 4947,
      "rícol": 4948,
      "chega</w>": 4949,
      "Quantas</w>": 4950,
      "Todos</w>": 4951,
      "aprendizagem</w>": 4952,
      "fins</w>": 4953,
      "ol,</w>": 4954,
      "rada,</w>": 4955,
      "Ri": 4956,
      "gin": 4957,
      "almo": 4958,
      "persegu": 4959,
      "acident": 4960,
      "rua</w>": 4961,
      "Veri": 4962,
      "meninos</w>": 4963,
      "Alex": 4964,
      "Avali": 4965,
      "prazo</w>": 4966,
      "clube</w>": 4967,
      "completo</w>": 4968,
      "preven": 4969,
      "dependent": 4970,
      "trazer</w>": 4971,
      "che": 4972,
      "aparência</w>": 4973,
      "nomes</w>": 4974,
      "Sentenç": 4975,
      "ecol": 4976,
      "Encont": 4977,
      "bele": 4978,
      "terri": 4979,
      "caus": 4980,
      "en,</w>": 4981,
      "ator</w>": 4982,
      "Sk": 4983,
      "especializ": 4984,
      "decide</w>": 4985,
      "ilum": 4986,
      "telefon": 4987,
      "manuten": 4988,
      "z,</w>": 4989,
      "procura</w>": 4990,
      "sentenç": 4991,
      "Grande</w>": 4992,
      "k.</w>": 4993,
      "peri": 4994,
      "comuns</w>": 4995,
      "ilh": 4996,
      "didos</w>": 4997,
      "ajudam</w>": 4998,
      "ado:</w>": 4999,
      "Mari": 5000,
      "Onde</w>": 5001,
      "falh": 5002,
      "lou": 5003,
      "suport": 5004,
      "questão:</w>": 5005,
      "C:</w>": 5006,
      "máxim": 5007,
      "Explic": 5008,
      "passo:": 5009,
      "escala</w>": 5010,
      "banco</w>": 5011,
      "apresentar</w>": 5012,
      "rochas</w>": 5013,
      "perder</w>": 5014,
      "depois,</w>": 5015,
      "escolas</w>": 5016,
      "tribun": 5017,
      "pessoas.</w>": 5018,
      "volunt": 5019,
      "múlti": 5020,
      "aprov": 5021,
      "as)</w>": 5022,
      "múltipl": 5023,
      "casamento</w>": 5024,
      "profund": 5025,
      "agrícol": 5026,
      "face</w>": 5027,
      "estat": 5028,
      "claramente</w>": 5029,
      "num": 5030,
      "verdadeira,</w>": 5031,
      "Ambas</w>": 5032,
      "contrast": 5033,
      "miner": 5034,
      "o;</w>": 5035,
      "frequência</w>": 5036,
      "menores</w>": 5037,
      "tiver</w>": 5038,
      "estresse</w>": 5039,
      "Loc": 5040,
      "oto</w>": 5041,
      "Joe</w>": 5042,
      "Imp": 5043,
      "querer</w>": 5044,
      "exercício</w>": 5045,
      "ald</w>": 5046,
      "Wor": 5047,
      "gosto</w>": 5048,
      "apaix": 5049,
      "adolesc": 5050,
      "semanas</w>": 5051,
      "regular</w>": 5052,
      "evidências</w>": 5053,
      "exposição</w>": 5054,
      "calcul": 5055,
      "greg": 5056,
      "ir.</w>": 5057,
      "estrada</w>": 5058,
      "temp": 5059,
      "pegar</w>": 5060,
      "sistem": 5061,
      "consumo</w>": 5062,
      "tecnologias</w>": 5063,
      "exibi": 5064,
      "dando</w>": 5065,
      "Finalmente,</w>": 5066,
      "isol": 5067,
      "anta</w>": 5068,
      "sim.</w>": 5069,
      "campanha</w>": 5070,
      "leite</w>": 5071,
      "maci": 5072,
      "ados:</w>": 5073,
      "ux": 5074,
      "Trump</w>": 5075,
      "question": 5076,
      "tradicionais</w>": 5077,
      "zar</w>": 5078,
      "essenciais</w>": 5079,
      "arran": 5080,
      "riscos</w>": 5081,
      "fós": 5082,
      "armas</w>": 5083,
      "ve,</w>": 5084,
      "casas</w>": 5085,
      "escreveu</w>": 5086,
      "fase</w>": 5087,
      "eth</w>": 5088,
      "sóli": 5089,
      "aram": 5090,
      "requi": 5091,
      "picos</w>": 5092,
      "0,0": 5093,
      "2)</w>": 5094,
      "culturais</w>": 5095,
      "(1</w>": 5096,
      "casos</w>": 5097,
      "Paul</w>": 5098,
      "entusi": 5099,
      "wit": 5100,
      "Segun": 5101,
      "fogo</w>": 5102,
      "respondí": 5103,
      "play": 5104,
      "verdade,</w>": 5105,
      "pulm": 5106,
      "tica</w>": 5107,
      "preso</w>": 5108,
      "equili": 5109,
      "Ban": 5110,
      "Core": 5111,
      "tornam</w>": 5112,
      "fit": 5113,
      "rr": 5114,
      ".O</w>": 5115,
      "ticamente</w>": 5116,
      "escon": 5117,
      "atribu": 5118,
      "contribuir</w>": 5119,
      "feedback</w>": 5120,
      "fundamental</w>": 5121,
      "fog": 5122,
      "Robert</w>": 5123,
      "sos,</w>": 5124,
      "tentativa</w>": 5125,
      "antigo</w>": 5126,
      "quadr": 5127,
      "situações</w>": 5128,
      "antiga</w>": 5129,
      "negócios</w>": 5130,
      "olhando</w>": 5131,
      "rota</w>": 5132,
      "padrão</w>": 5133,
      "dura</w>": 5134,
      "dra": 5135,
      "frust": 5136,
      "shi": 5137,
      "on.</w>": 5138,
      "acredita</w>": 5139,
      "educ": 5140,
      "age</w>": 5141,
      "\"o</w>": 5142,
      "relacionados</w>": 5143,
      "sac": 5144,
      "sentenças</w>": 5145,
      "mistu": 5146,
      "oni": 5147,
      "preten": 5148,
      "contexto.</w>": 5149,
      "criando</w>": 5150,
      "opinião</w>": 5151,
      "Bill": 5152,
      "compromisso</w>": 5153,
      ".,</w>": 5154,
      "discus": 5155,
      "anivers": 5156,
      "rastre": 5157,
      "declarações</w>": 5158,
      "res,</w>": 5159,
      "seri": 5160,
      "reserv": 5161,
      "30": 5162,
      "es\"</w>": 5163,
      "foto": 5164,
      "junho</w>": 5165,
      "touchdown</w>": 5166,
      "\"A": 5167,
      "visita</w>": 5168,
      "mac": 5169,
      "espalh": 5170,
      "recicl": 5171,
      "Europ": 5172,
      "rus</w>": 5173,
      "Mal": 5174,
      "proteção</w>": 5175,
      "gas</w>": 5176,
      "artista</w>": 5177,
      "Cat": 5178,
      "enor": 5179,
      "0000": 5180,
      "marido</w>": 5181,
      "palavra": 5182,
      "clima</w>": 5183,
      "considerada</w>": 5184,
      "ácia</w>": 5185,
      "definição</w>": 5186,
      "50": 5187,
      "estú": 5188,
      "an.</w>": 5189,
      "oque</w>": 5190,
      "adores,</w>": 5191,
      "Patri": 5192,
      "crenças</w>": 5193,
      "estrela</w>": 5194,
      "dispositivos</w>": 5195,
      "Mor": 5196,
      "respeit": 5197,
      "impactos</w>": 5198,
      "fizeram</w>": 5199,
      "peixes</w>": 5200,
      "desen": 5201,
      "feita</w>": 5202,
      "Rec": 5203,
      "dida</w>": 5204,
      "negativo.</w>": 5205,
      "crescente</w>": 5206,
      "el.</w>": 5207,
      "outubro</w>": 5208,
      "gent": 5209,
      "tomada</w>": 5210,
      "cabeç": 5211,
      "ago": 5212,
      "estabeleci": 5213,
      "adores.</w>": 5214,
      "umb": 5215,
      "gato</w>": 5216,
      "os?</w>": 5217,
      "Alex</w>": 5218,
      "'.</w>": 5219,
      "smo</w>": 5220,
      "veram</w>": 5221,
      "400</w>": 5222,
      "somb": 5223,
      "relat": 5224,
      "on-l": 5225,
      "escrita</w>": 5226,
      "c.</w>": 5227,
      "im,</w>": 5228,
      "Lou": 5229,
      "moment": 5230,
      "sper": 5231,
      "cozinha</w>": 5232,
      "Fil": 5233,
      "semelhante</w>": 5234,
      "deixando</w>": 5235,
      "político</w>": 5236,
      "-B": 5237,
      "Cons": 5238,
      "regras</w>": 5239,
      "custa</w>": 5240,
      "Essa</w>": 5241,
      "exercícios</w>": 5242,
      "viver</w>": 5243,
      "plataforma</w>": 5244,
      "Unidos,</w>": 5245,
      "áti": 5246,
      "sivamente</w>": 5247,
      "propósito</w>": 5248,
      "\"não</w>": 5249,
      "atualmente</w>": 5250,
      "ól": 5251,
      "equação</w>": 5252,
      "cima</w>": 5253,
      "Sch": 5254,
      "não-": 5255,
      "correr</w>": 5256,
      "che</w>": 5257,
      "encontrado</w>": 5258,
      "correta.</w>": 5259,
      "-lhes</w>": 5260,
      "cans": 5261,
      "popular": 5262,
      "branco</w>": 5263,
      "mergulh": 5264,
      "estuf": 5265,
      "ont": 5266,
      "cou": 5267,
      "Reg": 5268,
      "neça</w>": 5269,
      "ir,</w>": 5270,
      "estudos</w>": 5271,
      "solici": 5272,
      "Lembre-se</w>": 5273,
      "igual": 5274,
      "pré-": 5275,
      "emente,</w>": 5276,
      "bebê</w>": 5277,
      "magn": 5278,
      "som": 5279,
      "Combin": 5280,
      "fever": 5281,
      "Nós</w>": 5282,
      "azul</w>": 5283,
      "quero</w>": 5284,
      "Cal": 5285,
      "ton,</w>": 5286,
      "congel": 5287,
      "identidade</w>": 5288,
      "40": 5289,
      "detalhada</w>": 5290,
      "abrangente</w>": 5291,
      "wor": 5292,
      "Selecione</w>": 5293,
      "ingres": 5294,
      "utilização</w>": 5295,
      "líderes</w>": 5296,
      "aler": 5297,
      "club": 5298,
      "dividimos</w>": 5299,
      "auto": 5300,
      "vezes,</w>": 5301,
      "Segunda</w>": 5302,
      "Mant": 5303,
      "nort": 5304,
      "ré": 5305,
      "conhecidos</w>": 5306,
      "bicicleta</w>": 5307,
      "35</w>": 5308,
      "premissa?</w>": 5309,
      "ow": 5310,
      "dupl": 5311,
      "inse": 5312,
      "(x</w>": 5313,
      "linhas</w>": 5314,
      "dimento</w>": 5315,
      "acus": 5316,
      "oeste</w>": 5317,
      "relacionado</w>": 5318,
      "Adicione</w>": 5319,
      "vac": 5320,
      "caç": 5321,
      "hoje</w>": 5322,
      "positivo.</w>": 5323,
      "bit": 5324,
      "acel": 5325,
      "ro-": 5326,
      "contar</w>": 5327,
      "houve</w>": 5328,
      "Ali": 5329,
      "setembro</w>": 5330,
      "Ni": 5331,
      "minim": 5332,
      "escritório</w>": 5333,
      "colher</w>": 5334,
      "back": 5335,
      "cípi": 5336,
      "pin": 5337,
      "cumpri": 5338,
      "eventualmente</w>": 5339,
      "urban": 5340,
      "Deix": 5341,
      "sente</w>": 5342,
      "resultando</w>": 5343,
      "investir</w>": 5344,
      "emia</w>": 5345,
      "aqui": 5346,
      "Sul</w>": 5347,
      "São</w>": 5348,
      "execu": 5349,
      "semelhantes</w>": 5350,
      "stat": 5351,
      "determinado</w>": 5352,
      "mês</w>": 5353,
      "reação</w>": 5354,
      "reunião</w>": 5355,
      "Escolhas:</w>": 5356,
      "Muitas</w>": 5357,
      "sonh": 5358,
      "eletr": 5359,
      "agor": 5360,
      "Ambos</w>": 5361,
      "campe": 5362,
      "fórmul": 5363,
      "Peter</w>": 5364,
      "favor</w>": 5365,
      "homen": 5366,
      "Pe": 5367,
      "co:</w>": 5368,
      "rico</w>": 5369,
      "to?</w>": 5370,
      "Jap": 5371,
      "es?</w>": 5372,
      "operação</w>": 5373,
      "detec": 5374,
      "chances</w>": 5375,
      "menin": 5376,
      "não,</w>": 5377,
      "prisão</w>": 5378,
      "minhas</w>": 5379,
      "abra": 5380,
      "mach": 5381,
      "curto</w>": 5382,
      "trabalham</w>": 5383,
      "New": 5384,
      "explici": 5385,
      "sete</w>": 5386,
      "correspon": 5387,
      "tividade</w>": 5388,
      "chão</w>": 5389,
      "pediu</w>": 5390,
      "procurando</w>": 5391,
      "Sam</w>": 5392,
      "necessariamente</w>": 5393,
      "eletri": 5394,
      "posições</w>": 5395,
      "Tur": 5396,
      "tular</w>": 5397,
      "gli": 5398,
      "vi</w>": 5399,
      "álbum,</w>": 5400,
      "ada:</w>": 5401,
      "equilib": 5402,
      "ídi": 5403,
      "ciclo</w>": 5404,
      "computador</w>": 5405,
      "Analisar</w>": 5406,
      "próprias</w>": 5407,
      "Sarah</w>": 5408,
      "fãs</w>": 5409,
      "dispositivo</w>": 5410,
      "casal</w>": 5411,
      "bibliotec": 5412,
      "vos</w>": 5413,
      "vag": 5414,
      "notícias</w>": 5415,
      "tili": 5416,
      "Justificação:</w>": 5417,
      "Bran": 5418,
      "marc": 5419,
      "chave</w>": 5420,
      "tempos</w>": 5421,
      "parede</w>": 5422,
      "correndo</w>": 5423,
      "turn": 5424,
      "diversific": 5425,
      "incl": 5426,
      "za,</w>": 5427,
      "cinemat": 5428,
      "familiar": 5429,
      "nie</w>": 5430,
      "27</w>": 5431,
      "300</w>": 5432,
      "isl": 5433,
      "bus</w>": 5434,
      "oma</w>": 5435,
      "element": 5436,
      "proteí": 5437,
      "negativos</w>": 5438,
      "climáticas</w>": 5439,
      "Kar": 5440,
      "para": 5441,
      "cuidadosamente</w>": 5442,
      "orar</w>": 5443,
      "cho</w>": 5444,
      "Christ": 5445,
      "att": 5446,
      "Win": 5447,
      "Pesso": 5448,
      "auto-": 5449,
      "começaram</w>": 5450,
      "anúnci": 5451,
      "eceram</w>": 5452,
      "mut": 5453,
      "He": 5454,
      "requisi": 5455,
      "altura</w>": 5456,
      "caixas</w>": 5457,
      "escreva</w>": 5458,
      "teis</w>": 5459,
      "chá</w>": 5460,
      "Medi": 5461,
      "ônia</w>": 5462,
      "código</w>": 5463,
      "manutenção</w>": 5464,
      "o\",</w>": 5465,
      "topo</w>": 5466,
      "eza</w>": 5467,
      "es\".</w>": 5468,
      "trem</w>": 5469,
      "Resposta</w>": 5470,
      "Gi": 5471,
      "autoridades</w>": 5472,
      "bio": 5473,
      "episó": 5474,
      "vinh": 5475,
      "Jog": 5476,
      "conselho</w>": 5477,
      "transporte,</w>": 5478,
      "defesa</w>": 5479,
      "Determine</w>": 5480,
      "princípi": 5481,
      "sticos</w>": 5482,
      "suav": 5483,
      "contin": 5484,
      "das.</w>": 5485,
      "novembro</w>": 5486,
      "interesses</w>": 5487,
      "infl": 5488,
      "cort": 5489,
      "bact": 5490,
      "excelente</w>": 5491,
      "expressar</w>": 5492,
      "erem</w>": 5493,
      "escrevendo</w>": 5494,
      "próprios</w>": 5495,
      "vig": 5496,
      "loj": 5497,
      "Europa</w>": 5498,
      "limpeza</w>": 5499,
      "necessária</w>": 5500,
      "ografia</w>": 5501,
      "ovo</w>": 5502,
      "caras</w>": 5503,
      "musical</w>": 5504,
      "marketing</w>": 5505,
      "completa</w>": 5506,
      "igual</w>": 5507,
      "apos": 5508,
      "hipótese,</w>": 5509,
      "precisar</w>": 5510,
      "introduz": 5511,
      "show": 5512,
      "costa</w>": 5513,
      "carta</w>": 5514,
      "chance</w>": 5515,
      "ung": 5516,
      "Ev": 5517,
      "houver</w>": 5518,
      "lot": 5519,
      "papéis</w>": 5520,
      "frutas</w>": 5521,
      "temas</w>": 5522,
      "veio</w>": 5523,
      "mundo,</w>": 5524,
      "23</w>": 5525,
      "ela,</w>": 5526,
      "aplicativ": 5527,
      "contexto:</w>": 5528,
      "bair": 5529,
      "quilô": 5530,
      "ceis</w>": 5531,
      "mecan": 5532,
      "ocorr": 5533,
      "vivem</w>": 5534,
      "inguém</w>": 5535,
      "relevante</w>": 5536,
      "quali": 5537,
      "emissões</w>": 5538,
      "responsabilidade</w>": 5539,
      "Ry": 5540,
      "julho</w>": 5541,
      "\"Os</w>": 5542,
      "Mes": 5543,
      "comumente</w>": 5544,
      "parecia</w>": 5545,
      "d.</w>": 5546,
      "\"D": 5547,
      "rica</w>": 5548,
      "história,</w>": 5549,
      "espaci": 5550,
      "Fe": 5551,
      "significativas</w>": 5552,
      "yn": 5553,
      "maio</w>": 5554,
      "Mag": 5555,
      "ff": 5556,
      "consciência</w>": 5557,
      "reiv": 5558,
      "presentes</w>": 5559,
      "consegue</w>": 5560,
      "pensando</w>": 5561,
      "o:": 5562,
      "cepção</w>": 5563,
      "comércio</w>": 5564,
      "credi": 5565,
      "artigo,</w>": 5566,
      "molé": 5567,
      "ward</w>": 5568,
      "Entenda</w>": 5569,
      "imediatamente</w>": 5570,
      "ess</w>": 5571,
      "embal": 5572,
      "estados</w>": 5573,
      "evolução</w>": 5574,
      "ades": 5575,
      "socie": 5576,
      "histórico</w>": 5577,
      "ve.</w>": 5578,
      "localizada</w>": 5579,
      "Unido</w>": 5580,
      "nad": 5581,
      "recipi": 5582,
      "ensai": 5583,
      "quete</w>": 5584,
      "superior</w>": 5585,
      "serviç": 5586,
      "ra:</w>": 5587,
      "ra-": 5588,
      "aula</w>": 5589,
      "1-": 5590,
      "avaliação</w>": 5591,
      "limpar</w>": 5592,
      "rápida</w>": 5593,
      "le,</w>": 5594,
      "Tem": 5595,
      "sição</w>": 5596,
      "contribuem</w>": 5597,
      "comunit": 5598,
      "chegou</w>": 5599,
      "conden": 5600,
      "modern": 5601,
      "Smit": 5602,
      "os?": 5603,
      "imos</w>": 5604,
      "bura": 5605,
      "segurando</w>": 5606,
      "Stre": 5607,
      "você.</w>": 5608,
      "domé": 5609,
      "descrever</w>": 5610,
      "nutrientes</w>": 5611,
      "espí": 5612,
      "central</w>": 5613,
      "bar</w>": 5614,
      "seguinte,</w>": 5615,
      "deveria</w>": 5616,
      "matar</w>": 5617,
      "crítico</w>": 5618,
      "suposta</w>": 5619,
      "necessári": 5620,
      "resistência</w>": 5621,
      "Lau": 5622,
      "design": 5623,
      "oporto</w>": 5624,
      "químicos</w>": 5625,
      "parcer": 5626,
      "movimentos</w>": 5627,
      "32</w>": 5628,
      "ford</w>": 5629,
      "piz": 5630,
      "Pra": 5631,
      "restante</w>": 5632,
      "populares</w>": 5633,
      "William</w>": 5634,
      "amplamente</w>": 5635,
      "respeito</w>": 5636,
      "instruções</w>": 5637,
      "oso,</w>": 5638,
      "marcou</w>": 5639,
      "36</w>": 5640,
      "abril</w>": 5641,
      "permitir</w>": 5642,
      "aposent": 5643,
      "condição</w>": 5644,
      "dat": 5645,
      "ilu": 5646,
      "elos</w>": 5647,
      "seleção</w>": 5648,
      "escritório,</w>": 5649,
      "perdeu</w>": 5650,
      "dezembro</w>": 5651,
      "vist": 5652,
      "don": 5653,
      "A)</w>": 5654,
      "mundi": 5655,
      "títul": 5656,
      "muita</w>": 5657,
      "circun": 5658,
      "net</w>": 5659,
      "prioriz": 5660,
      "negócio</w>": 5661,
      "equi": 5662,
      "país.</w>": 5663,
      "dieta</w>": 5664,
      "cardí": 5665,
      "jec": 5666,
      "Mary</w>": 5667,
      "tópico</w>": 5668,
      "times</w>": 5669,
      "Obrigado</w>": 5670,
      "2.": 5671,
      "ético</w>": 5672,
      "adas:</w>": 5673,
      "permanece</w>": 5674,
      "Ben": 5675,
      "Lee</w>": 5676,
      "ocorreu</w>": 5677,
      "ol.</w>": 5678,
      "Frank</w>": 5679,
      "eitas</w>": 5680,
      "incên": 5681,
      "tico</w>": 5682,
      "Muitos</w>": 5683,
      "éria</w>": 5684,
      "saudável</w>": 5685,
      "respec": 5686,
      "próximos</w>": 5687,
      "ing.</w>": 5688,
      "conveni": 5689,
      "possamos</w>": 5690,
      "os)</w>": 5691,
      "das,</w>": 5692,
      "ônibus</w>": 5693,
      "corpor": 5694,
      "convers": 5695,
      "perspectiva</w>": 5696,
      "propriedades</w>": 5697,
      "Fac": 5698,
      "março</w>": 5699,
      "acontece</w>": 5700,
      "pesquisas</w>": 5701,
      "Luc": 5702,
      "nascido</w>": 5703,
      "iniciativas</w>": 5704,
      "han</w>": 5705,
      "escrito</w>": 5706,
      "26</w>": 5707,
      "Os": 5708,
      "militar</w>": 5709,
      "elabor": 5710,
      "Jef": 5711,
      "compet": 5712,
      "pensamento</w>": 5713,
      "fornecendo</w>": 5714,
      "ount": 5715,
      "adoras</w>": 5716,
      "desfrutar</w>": 5717,
      "começam</w>": 5718,
      "corpo.</w>": 5719,
      "explicitamente</w>": 5720,
      "PT": 5721,
      "vendas</w>": 5722,
      "espera</w>": 5723,
      "efe": 5724,
      "dança</w>": 5725,
      "ele,</w>": 5726,
      "configurar</w>": 5727,
      "ks</w>": 5728,
      "ation</w>": 5729,
      "superar</w>": 5730,
      "titular</w>": 5731,
      "text</w>": 5732,
      "regiões</w>": 5733,
      "Instru": 5734,
      "ângu": 5735,
      "dir</w>": 5736,
      "aco": 5737,
      "bos</w>": 5738,
      "as\"</w>": 5739,
      "igre": 5740,
      "educacion": 5741,
      "tip": 5742,
      "esperança</w>": 5743,
      "transmite</w>": 5744,
      "floresta</w>": 5745,
      "independent": 5746,
      "parecer</w>": 5747,
      "parecem</w>": 5748,
      "seres</w>": 5749,
      "eiramente</w>": 5750,
      "avent": 5751,
      "za.</w>": 5752,
      "depende</w>": 5753,
      "adapt": 5754,
      "(R": 5755,
      "quet": 5756,
      "beleza</w>": 5757,
      "5%</w>": 5758,
      "captu": 5759,
      "ide</w>": 5760,
      "suporte</w>": 5761,
      "morto</w>": 5762,
      "agricul": 5763,
      "defici": 5764,
      "Nos</w>": 5765,
      "orit": 5766,
      "Pergunta</w>": 5767,
      "gui": 5768,
      "ênt": 5769,
      "animal,</w>": 5770,
      "(ou</w>": 5771,
      "eti": 5772,
      "assust": 5773,
      "dizem</w>": 5774,
      "benefici": 5775,
      "simpli": 5776,
      "jogo.</w>": 5777,
      "desejo</w>": 5778,
      "bisco": 5779,
      "ast</w>": 5780,
      "armazenamento</w>": 5781,
      "mam": 5782,
      "esten": 5783,
      "disponível</w>": 5784,
      "profundi": 5785,
      "Jas": 5786,
      "oito</w>": 5787,
      "União</w>": 5788,
      "nessa</w>": 5789,
      "navio</w>": 5790,
      "momentos</w>": 5791,
      "espécie</w>": 5792,
      "dar": 5793,
      "modo</w>": 5794,
      "liga</w>": 5795,
      "promoção</w>": 5796,
      "Vic": 5797,
      "mim</w>": 5798,
      "ministro</w>": 5799,
      "apaixon": 5800,
      "Coreia</w>": 5801,
      "ifique</w>": 5802,
      "dades.</w>": 5803,
      "marcas</w>": 5804,
      "carga</w>": 5805,
      "aplicação</w>": 5806,
      "durad": 5807,
      "objetiv": 5808,
      "tap": 5809,
      "poni": 5810,
      "militares</w>": 5811,
      "sinais</w>": 5812,
      "ês,</w>": 5813,
      "Eri": 5814,
      "palavras-chave</w>": 5815,
      "adicional</w>": 5816,
      "Seus</w>": 5817,
      "esperando</w>": 5818,
      "ily</w>": 5819,
      "diga</w>": 5820,
      "10.</w>": 5821,
      "z.</w>": 5822,
      "encontram</w>": 5823,
      "emoção</w>": 5824,
      "Mis": 5825,
      "os\"</w>": 5826,
      "impulsion": 5827,
      "sos.</w>": 5828,
      "volume</w>": 5829,
      "fertiliz": 5830,
      "rais,</w>": 5831,
      "field</w>": 5832,
      "la": 5833,
      "estacion": 5834,
      "diálogo</w>": 5835,
      "hol": 5836,
      "verde</w>": 5837,
      "significativos</w>": 5838,
      "relatório</w>": 5839,
      "dados:</w>": 5840,
      "Comparar</w>": 5841,
      "adver": 5842,
      "osão</w>": 5843,
      "país": 5844,
      "direto</w>": 5845,
      "comentários</w>": 5846,
      "Tot": 5847,
      "una</w>": 5848,
      "exatamente</w>": 5849,
      "Pi": 5850,
      "Mike</w>": 5851,
      "1)</w>": 5852,
      "Gere</w>": 5853,
      "cobertura</w>": 5854,
      "temos:</w>": 5855,
      "discutir</w>": 5856,
      "aceler": 5857,
      "Lar": 5858,
      "justiça</w>": 5859,
      "músicas</w>": 5860,
      "troux": 5861,
      "pergunta?</w>": 5862,
      "desenvolvi": 5863,
      "neut": 5864,
      "ail": 5865,
      "álco": 5866,
      "justific": 5867,
      "aconteceu</w>": 5868,
      "continuou</w>": 5869,
      "planta,</w>": 5870,
      "figura</w>": 5871,
      "sementes</w>": 5872,
      "cobri": 5873,
      "ang</w>": 5874,
      "..</w>": 5875,
      "duz</w>": 5876,
      "aconselh": 5877,
      "piment": 5878,
      "agosto</w>": 5879,
      "stin</w>": 5880,
      "chat": 5881,
      "explicação</w>": 5882,
      "romance</w>": 5883,
      "ficos</w>": 5884,
      "\")</w>": 5885,
      "vic": 5886,
      "certific": 5887,
      "pas</w>": 5888,
      "petró": 5889,
      "conhecer</w>": 5890,
      "Pesquis": 5891,
      "bro": 5892,
      "garante</w>": 5893,
      "físico</w>": 5894,
      "im.</w>": 5895,
      "prato</w>": 5896,
      "gé": 5897,
      "pessoas,</w>": 5898,
      "relacionamentos</w>": 5899,
      "(P": 5900,
      "vermelho</w>": 5901,
      "seriam</w>": 5902,
      "Hom": 5903,
      "zona</w>": 5904,
      "Mel": 5905,
      "deixe-me</w>": 5906,
      "multiplic": 5907,
      "lógica</w>": 5908,
      "paix": 5909,
      "deser": 5910,
      "estrutu": 5911,
      "24": 5912,
      "agir</w>": 5913,
      "colegas</w>": 5914,
      "decl": 5915,
      "Men": 5916,
      "tion": 5917,
      "víti": 5918,
      "americana</w>": 5919,
      "moe": 5920,
      "atingir</w>": 5921,
      "aldeia,</w>": 5922,
      "tela</w>": 5923,
      "expressa</w>": 5924,
      "ld</w>": 5925,
      "progresso</w>": 5926,
      "``": 5927,
      "mais.</w>": 5928,
      "festiv": 5929,
      "ony</w>": 5930,
      "páginas</w>": 5931,
      "solut": 5932,
      "leis</w>": 5933,
      "onda</w>": 5934,
      "ameaça</w>": 5935,
      "fir": 5936,
      ".A</w>": 5937,
      "Ang": 5938,
      "diferentes.</w>": 5939,
      "cativ": 5940,
      "maçãs</w>": 5941,
      "funciona</w>": 5942,
      "publi": 5943,
      "camada</w>": 5944,
      "fortem": 5945,
      "torna-se</w>": 5946,
      "órg": 5947,
      "lançamento</w>": 5948,
      "vento</w>": 5949,
      "ker</w>": 5950,
      "acidente</w>": 5951,
      "estej": 5952,
      "cuidado</w>": 5953,
      "b.</w>": 5954,
      "pensamentos</w>": 5955,
      "veículos</w>": 5956,
      "rada.</w>": 5957,
      "aplicativos</w>": 5958,
      "lat": 5959,
      "direta</w>": 5960,
      "28": 5961,
      "orientação</w>": 5962,
      "possível.</w>": 5963,
      "enny</w>": 5964,
      "C)</w>": 5965,
      "aband": 5966,
      "pão</w>": 5967,
      "excep": 5968,
      "fortal": 5969,
      "Mark</w>": 5970,
      "composto</w>": 5971,
      "confront": 5972,
      "descobriu</w>": 5973,
      "Wo": 5974,
      "vírus</w>": 5975,
      "Los</w>": 5976,
      "IN": 5977,
      "corte</w>": 5978,
      "artista,</w>": 5979,
      "eficácia</w>": 5980,
      "Person": 5981,
      "ótimo</w>": 5982,
      "renda</w>": 5983,
      "controlar</w>": 5984,
      "vender</w>": 5985,
      "reconhecer</w>": 5986,
      "strali": 5987,
      "emi": 5988,
      "Rús": 5989,
      "crédi": 5990,
      "prob": 5991,
      "ací": 5992,
      "600</w>": 5993,
      "der,</w>": 5994,
      "xícara</w>": 5995,
      "entidade</w>": 5996,
      "(\"": 5997,
      "us.</w>": 5998,
      "ain</w>": 5999,
      "direit": 6000,
      "sinal</w>": 6001,
      "ame</w>": 6002,
      "entreten": 6003,
      "disse:</w>": 6004,
      "qualific": 6005,
      "habitat": 6006,
      "destino</w>": 6007,
      "á-lo.</w>": 6008,
      "!\"</w>": 6009,
      "úcle": 6010,
      "enta</w>": 6011,
      "imun": 6012,
      "resolução</w>": 6013,
      "recuperar</w>": 6014,
      "andando</w>": 6015,
      "conflito</w>": 6016,
      "morreu</w>": 6017,
      "envolvendo</w>": 6018,
      "Eu": 6019,
      "Procu": 6020,
      "M:</w>": 6021,
      "nascimento</w>": 6022,
      "sorri": 6023,
      "operações</w>": 6024,
      "disponi": 6025,
      "políticos</w>": 6026,
      "éticas</w>": 6027,
      "partido</w>": 6028,
      "povo</w>": 6029,
      "don</w>": 6030,
      "ston</w>": 6031,
      "Met": 6032,
      "mensagens</w>": 6033,
      "estratégia</w>": 6034,
      "status</w>": 6035,
      "ebo": 6036,
      "fevereiro</w>": 6037,
      "Dire": 6038,
      "tion</w>": 6039,
      "sofre": 6040,
      "dipl": 6041,
      "illi": 6042,
      "americanos</w>": 6043,
      "maravi": 6044,
      "Me": 6045,
      "ocident": 6046,
      "anterior</w>": 6047,
      "sugerir</w>": 6048,
      "molho</w>": 6049,
      "compreender</w>": 6050,
      "Red": 6051,
      "bem,</w>": 6052,
      "implementação</w>": 6053,
      "Imag": 6054,
      "temperaturas</w>": 6055,
      "sintomas</w>": 6056,
      "vot": 6057,
      "cláss": 6058,
      "Cop": 6059,
      "leve</w>": 6060,
      "féri": 6061,
      "recente</w>": 6062,
      "venced": 6063,
      "y:</w>": 6064,
      "t.</w>": 6065,
      "impactando</w>": 6066,
      "conci": 6067,
      "Juli": 6068,
      "Mac": 6069,
      "asta</w>": 6070,
      "beise": 6071,
      "curi": 6072,
      "use": 6073,
      "resultar</w>": 6074,
      "manhã": 6075,
      "dades,</w>": 6076,
      "chap": 6077,
      "gos</w>": 6078,
      "oso.</w>": 6079,
      "Minha</w>": 6080,
      "artigo": 6081,
      "just": 6082,
      "curta</w>": 6083,
      "2).</w>": 6084,
      "recomen": 6085,
      "tamente!</w>": 6086,
      "gêner": 6087,
      "lojas</w>": 6088,
      "leit": 6089,
      "analis": 6090,
      "fortemente</w>": 6091,
      "eitar</w>": 6092,
      "CO": 6093,
      "5)</w>": 6094,
      "Chic": 6095,
      "Verifique</w>": 6096,
      "mento:</w>": 6097,
      "requisitos</w>": 6098,
      "ajudará</w>": 6099,
      "erros</w>": 6100,
      "ista,</w>": 6101,
      "Mer": 6102,
      "escondi": 6103,
      "espanh": 6104,
      "ayl": 6105,
      "agradável</w>": 6106,
      "núcle": 6107,
      "rock</w>": 6108,
      "acabou</w>": 6109,
      "h.</w>": 6110,
      "ore": 6111,
      "joga</w>": 6112,
      "micro": 6113,
      "litros</w>": 6114,
      "andar</w>": 6115,
      "-chav": 6116,
      "cord": 6117,
      "circunst": 6118,
      "S:</w>": 6119,
      "assassinato</w>": 6120,
      "vantagem</w>": 6121,
      "cher</w>": 6122,
      "elogi": 6123,
      "coloca</w>": 6124,
      "eficiência</w>": 6125,
      "chamar</w>": 6126,
      "colaboração</w>": 6127,
      "disser": 6128,
      "háb": 6129,
      "África</w>": 6130,
      "es)</w>": 6131,
      "eli": 6132,
      "mín": 6133,
      "rosto</w>": 6134,
      "diminuição</w>": 6135,
      "60": 6136,
      "irmã": 6137,
      "testes</w>": 6138,
      "arei</w>": 6139,
      "polegadas</w>": 6140,
      "gostaria</w>": 6141,
      "capitaliz": 6142,
      "respira": 6143,
      "cria</w>": 6144,
      "inferir</w>": 6145,
      "reunir</w>": 6146,
      "120</w>": 6147,
      "erro</w>": 6148,
      "desafio</w>": 6149,
      "adultos</w>": 6150,
      "lembrar</w>": 6151,
      "Itáli": 6152,
      "internacional</w>": 6153,
      "restri": 6154,
      "Opção</w>": 6155,
      "wood</w>": 6156,
      "mesm": 6157,
      "\":</w>": 6158,
      "instrument": 6159,
      "cam</w>": 6160,
      "tamanh": 6161,
      "certas</w>": 6162,
      "talent": 6163,
      "afeta</w>": 6164,
      "confortável</w>": 6165,
      "I,</w>": 6166,
      "eatTy": 6167,
      "ya</w>": 6168,
      "pacientes</w>": 6169,
      "ts</w>": 6170,
      "Título</w>": 6171,
      "Condado</w>": 6172,
      "completar</w>": 6173,
      "Dist": 6174,
      "continuam</w>": 6175,
      "Certamente!</w>": 6176,
      "len</w>": 6177,
      "selecion": 6178,
      "Ou": 6179,
      "tas,</w>": 6180,
      "admi": 6181,
      "terceira</w>": 6182,
      "Han": 6183,
      "apropriada</w>": 6184,
      "\"As</w>": 6185,
      "Duas</w>": 6186,
      "faça</w>": 6187,
      "láp": 6188,
      "ême": 6189,
      "romp": 6190,
      "final,</w>": 6191,
      "relógi": 6192,
      "presa</w>": 6193,
      "adqui": 6194,
      "ônica</w>": 6195,
      "3)</w>": 6196,
      "recém": 6197,
      "ganho</w>": 6198,
      "indicando</w>": 6199,
      "Tran": 6200,
      "funções</w>": 6201,
      "coleção</w>": 6202,
      "edifícios</w>": 6203,
      "conduz": 6204,
      "indo,</w>": 6205,
      "Maria</w>": 6206,
      "neve</w>": 6207,
      "postas</w>": 6208,
      "elemento</w>": 6209,
      "arro": 6210,
      ").": 6211,
      "almente.</w>": 6212,
      "proemin": 6213,
      "soldados</w>": 6214,
      "olo</w>": 6215,
      "dinâ": 6216,
      "percebe</w>": 6217,
      "(o</w>": 6218,
      "visitantes</w>": 6219,
      "Grã": 6220,
      "(ii": 6221,
      "limites</w>": 6222,
      "vestido</w>": 6223,
      "recurso</w>": 6224,
      "tipicamente</w>": 6225,
      "ane</w>": 6226,
      "ando-os</w>": 6227,
      "quão</w>": 6228,
      "estejam</w>": 6229,
      "Sem</w>": 6230,
      "verdadeiro</w>": 6231,
      "-Bret": 6232,
      "Grã-Bret": 6233,
      "ânicos</w>": 6234,
      "concord": 6235,
      "tomou</w>": 6236,
      "mig": 6237,
      "tude</w>": 6238,
      "lin</w>": 6239,
      "celul": 6240,
      "gon": 6241,
      "perguntando</w>": 6242,
      "avião</w>": 6243,
      "atórios</w>": 6244,
      "eni": 6245,
      "ológico</w>": 6246,
      "servir</w>": 6247,
      "lum": 6248,
      "War": 6249,
      "otim": 6250,
      "zon": 6251,
      "meti": 6252,
      "incrível</w>": 6253,
      "osa,</w>": 6254,
      "agon": 6255,
      "preto</w>": 6256,
      "Richard</w>": 6257,
      "tentou</w>": 6258,
      "descrito</w>": 6259,
      "sáb": 6260,
      "recep": 6261,
      "que.</w>": 6262,
      "descan": 6263,
      "aquecimento</w>": 6264,
      "anteriormente</w>": 6265,
      "executar</w>": 6266,
      "cia</w>": 6267,
      "sing": 6268,
      "aterra</w>": 6269,
      "ança.</w>": 6270,
      "também.</w>": 6271,
      "stitu": 6272,
      "proxim": 6273,
      "ambientais</w>": 6274,
      "entemente,</w>": 6275,
      "eses</w>": 6276,
      "associados</w>": 6277,
      "Intro": 6278,
      "abandon": 6279,
      "mudou</w>": 6280,
      "Partido</w>": 6281,
      "atleta,</w>": 6282,
      "reput": 6283,
      "segura</w>": 6284,
      "testemunh": 6285,
      "a-feira</w>": 6286,
      "Nos": 6287,
      "considerando</w>": 6288,
      "dele</w>": 6289,
      "verão</w>": 6290,
      "avanços</w>": 6291,
      "pacote</w>": 6292,
      "Blu": 6293,
      "drogas</w>": 6294,
      "agens,</w>": 6295,
      "veja</w>": 6296,
      "th</w>": 6297,
      "rocha</w>": 6298,
      "Fri": 6299,
      "local.</w>": 6300,
      "afetará</w>": 6301,
      "enni": 6302,
      "Era</w>": 6303,
      "1).</w>": 6304,
      "pares</w>": 6305,
      "brinquedos</w>": 6306,
      "dorm": 6307,
      "indicação</w>": 6308,
      "crip": 6309,
      "refere</w>": 6310,
      "e;</w>": 6311,
      "preparar</w>": 6312,
      "chamadas</w>": 6313,
      "agente</w>": 6314,
      "envolvem</w>": 6315,
      "saíd": 6316,
      "vegetais</w>": 6317,
      "juntos.</w>": 6318,
      "ris</w>": 6319,
      "metro</w>": 6320,
      "chapé": 6321,
      "recém-": 6322,
      "revol": 6323,
      "pain": 6324,
      "sequest": 6325,
      "íamos</w>": 6326,
      "il</w>": 6327,
      "os-chave</w>": 6328,
      "crescer</w>": 6329,
      "captur": 6330,
      "envolvidos</w>": 6331,
      "nó": 6332,
      "chut": 6333,
      "questão.</w>": 6334,
      "Defini": 6335,
      "Bal": 6336,
      "candidato</w>": 6337,
      "guard": 6338,
      "transfer": 6339,
      "de-se</w>": 6340,
      "fatos</w>": 6341,
      "preocupação</w>": 6342,
      "nia</w>": 6343,
      "Igre": 6344,
      "Inglater": 6345,
      "etapas</w>": 6346,
      "mantém</w>": 6347,
      "fabric": 6348,
      "3,": 6349,
      "y\"</w>": 6350,
      "ational</w>": 6351,
      "feitas</w>": 6352,
      "jac": 6353,
      "48</w>": 6354,
      "Sra.</w>": 6355,
      "eficiente</w>": 6356,
      "pós-": 6357,
      "debat": 6358,
      "matem": 6359,
      "reduzindo</w>": 6360,
      "verdadeira.</w>": 6361,
      "dólares</w>": 6362,
      "los</w>": 6363,
      "equipamentos</w>": 6364,
      "cachor": 6365,
      "trabalhou</w>": 6366,
      "examinar</w>": 6367,
      "individuais</w>": 6368,
      "it</w>": 6369,
      "sai</w>": 6370,
      "trimestre,</w>": 6371,
      "exigem</w>": 6372,
      "médicos</w>": 6373,
      "noite.</w>": 6374,
      "jardim</w>": 6375,
      "Rel": 6376,
      "brinquedo</w>": 6377,
      "associado</w>": 6378,
      "alv": 6379,
      "engaj": 6380,
      "bás": 6381,
      "governos</w>": 6382,
      "Scho": 6383,
      "agres": 6384,
      "ponha</w>": 6385,
      "assem</w>": 6386,
      "Tudo</w>": 6387,
      "Thomas</w>": 6388,
      "guia</w>": 6389,
      "orgulh": 6390,
      "gostam</w>": 6391,
      "promet": 6392,
      "divid": 6393,
      "recentemente</w>": 6394,
      "supri": 6395,
      "Jos": 6396,
      "primeiras</w>": 6397,
      "mex": 6398,
      "geração</w>": 6399,
      "heró": 6400,
      "alvo</w>": 6401,
      "competição</w>": 6402,
      "ástico</w>": 6403,
      "tas.</w>": 6404,
      "explica</w>": 6405,
      "Dec": 6406,
      "Google</w>": 6407,
      "gratu": 6408,
      "je</w>": 6409,
      "20%</w>": 6410,
      "Vir": 6411,
      "rais.</w>": 6412,
      "di</w>": 6413,
      "lá.</w>": 6414,
      "al)</w>": 6415,
      "unidades</w>": 6416,
      "ambiente.</w>": 6417,
      "misteri": 6418,
      "enfatiz": 6419,
      "Melh": 6420,
      "arma</w>": 6421,
      "A).</w>": 6422,
      "core": 6423,
      "familiar</w>": 6424,
      "dessa</w>": 6425,
      "contas</w>": 6426,
      "Extra": 6427,
      "salvar</w>": 6428,
      "estilos</w>": 6429,
      "Bow": 6430,
      "intenção</w>": 6431,
      "(II": 6432,
      "vendeu</w>": 6433,
      "Procure</w>": 6434,
      "Oci": 6435,
      "dy</w>": 6436,
      "encoraj": 6437,
      "sede</w>": 6438,
      "tradicional</w>": 6439,
      "leste</w>": 6440,
      "ou-se</w>": 6441,
      "transmitem</w>": 6442,
      "ings</w>": 6443,
      "eado</w>": 6444,
      "ganha</w>": 6445,
      "terapia</w>": 6446,
      "Império</w>": 6447,
      "Harry</w>": 6448,
      "olina</w>": 6449,
      "industri": 6450,
      "mostrando</w>": 6451,
      "entrou</w>": 6452,
      "moda</w>": 6453,
      "á,</w>": 6454,
      "envolvido</w>": 6455,
      "determinada</w>": 6456,
      "encontrados</w>": 6457,
      "umul": 6458,
      "gerente</w>": 6459,
      "sustentável</w>": 6460,
      "doces</w>": 6461,
      "notas</w>": 6462,
      "altas</w>": 6463,
      "tei": 6464,
      "posteri": 6465,
      "ança,</w>": 6466,
      "Inglaterra</w>": 6467,
      "incluem:</w>": 6468,
      "cama</w>": 6469,
      "pad": 6470,
      "altos</w>": 6471,
      "(como</w>": 6472,
      "vapor</w>": 6473,
      "itt": 6474,
      "símb": 6475,
      "conforto</w>": 6476,
      "deseja</w>": 6477,
      "elhas</w>": 6478,
      "boas</w>": 6479,
      "cientistas</w>": 6480,
      "dado,</w>": 6481,
      "dados.</w>": 6482,
      "Nenh": 6483,
      "batalha</w>": 6484,
      "oferecendo</w>": 6485,
      "ver.</w>": 6486,
      "Sen": 6487,
      "atender</w>": 6488,
      "dias,</w>": 6489,
      "legisl": 6490,
      "ações:</w>": 6491,
      "jogo,</w>": 6492,
      "viagens</w>": 6493,
      "num</w>": 6494,
      "Equ": 6495,
      "mantei": 6496,
      "troca</w>": 6497,
      "instituições</w>": 6498,
      "tornando-se</w>": 6499,
      "fábri": 6500,
      "ácido</w>": 6501,
      "ofen": 6502,
      "lavar</w>": 6503,
      "sacos</w>": 6504,
      "áticas</w>": 6505,
      "montanh": 6506,
      "sorv": 6507,
      "Dar": 6508,
      "permanecer</w>": 6509,
      "grama</w>": 6510,
      "OPT": 6511,
      "outros,</w>": 6512,
      "ses": 6513,
      "amost": 6514,
      "apel": 6515,
      "ares,</w>": 6516,
      "alismo</w>": 6517,
      "re-": 6518,
      "reconhecimento</w>": 6519,
      "igi": 6520,
      "tant": 6521,
      "sexo</w>": 6522,
      "contrário</w>": 6523,
      "terremo": 6524,
      "ur</w>": 6525,
      "150</w>": 6526,
      "Profess": 6527,
      "ográfic": 6528,
      "Fun": 6529,
      "part": 6530,
      "rá-l": 6531,
      "treinador</w>": 6532,
      "fo</w>": 6533,
      "Califórni": 6534,
      "teci": 6535,
      "substituir</w>": 6536,
      "chas</w>": 6537,
      "razoável</w>": 6538,
      "pássaros</w>": 6539,
      "San</w>": 6540,
      "saúde.</w>": 6541,
      "(que</w>": 6542,
      "melhoria</w>": 6543,
      "mover</w>": 6544,
      "idades.</w>": 6545,
      "Je": 6546,
      "grafo": 6547,
      "enviar</w>": 6548,
      "colocou</w>": 6549,
      ".Você</w>": 6550,
      "pand": 6551,
      "(N": 6552,
      "concentrar</w>": 6553,
      "gig": 6554,
      "E.</w>": 6555,
      "marinh": 6556,
      "concorr": 6557,
      "Ham": 6558,
      "vive</w>": 6559,
      "narrativa</w>": 6560,
      "Casa</w>": 6561,
      "tweet</w>": 6562,
      "rotina</w>": 6563,
      "revela</w>": 6564,
      "fronteira</w>": 6565,
      "ível.</w>": 6566,
      "(a</w>": 6567,
      "pensa</w>": 6568,
      "resili": 6569,
      "líquido</w>": 6570,
      "ambientes</w>": 6571,
      "\".,</w>": 6572,
      "Trabalh": 6573,
      "Dani": 6574,
      "trad": 6575,
      "Sus": 6576,
      "ado?</w>": 6577,
      "é.</w>": 6578,
      "interessante</w>": 6579,
      "gravi": 6580,
      "Constru": 6581,
      "simul": 6582,
      "assistência</w>": 6583,
      "ando-a</w>": 6584,
      "saúde,</w>": 6585,
      "Chris</w>": 6586,
      "tru": 6587,
      "oz": 6588,
      "ataques</w>": 6589,
      "junto</w>": 6590,
      "incorporar</w>": 6591,
      "ninguém</w>": 6592,
      "pô": 6593,
      "utu": 6594,
      "proprietário</w>": 6595,
      "efetivamente</w>": 6596,
      "obst": 6597,
      "\"Ele</w>": 6598,
      "ling</w>": 6599,
      "pront": 6600,
      "res.</w>": 6601,
      "cheio</w>": 6602,
      "arquivo</w>": 6603,
      "enorme</w>": 6604,
      "sat": 6605,
      "sustentáveis</w>": 6606,
      "carvão</w>": 6607,
      "Cur": 6608,
      "rob": 6609,
      "Continu": 6610,
      "casos,</w>": 6611,
      "agem:</w>": 6612,
      "amizade</w>": 6613,
      "navegar</w>": 6614,
      "Andre": 6615,
      "universit": 6616,
      "Considerando</w>": 6617,
      "partici": 6618,
      "certifique-se</w>": 6619,
      "sentiu</w>": 6620,
      "acim": 6621,
      "público.</w>": 6622,
      "Londres</w>": 6623,
      "desempenha</w>": 6624,
      "época</w>": 6625,
      "teri": 6626,
      "jardas.</w>": 6627,
      "adquiri": 6628,
      "ampli": 6629,
      "alimentar</w>": 6630,
      "pertenc": 6631,
      "câmera</w>": 6632,
      "chama</w>": 6633,
      "orias</w>": 6634,
      "Paul": 6635,
      "vulner": 6636,
      "ares.</w>": 6637,
      "corpos</w>": 6638,
      "díg": 6639,
      "inúmeras</w>": 6640,
      "ph</w>": 6641,
      "s\".</w>": 6642,
      "dob": 6643,
      "pedido</w>": 6644,
      "Inform": 6645,
      "participação</w>": 6646,
      "conectar</w>": 6647,
      "pessoais,</w>": 6648,
      "apartamento</w>": 6649,
      "metal</w>": 6650,
      "correu</w>": 6651,
      "constante</w>": 6652,
      "mascul": 6653,
      "Ren": 6654,
      "retorno</w>": 6655,
      "tecido</w>": 6656,
      "complic": 6657,
      "Compare</w>": 6658,
      "Esse</w>": 6659,
      "pun": 6660,
      "divisão</w>": 6661,
      "derru": 6662,
      "suave</w>": 6663,
      "Capit": 6664,
      "I.</w>": 6665,
      "interval": 6666,
      "prior": 6667,
      "roupa</w>": 6668,
      "\"O": 6669,
      "origem</w>": 6670,
      "profundamente</w>": 6671,
      "aper": 6672,
      "Vou</w>": 6673,
      "anual</w>": 6674,
      "atores</w>": 6675,
      "Scot": 6676,
      "tivi": 6677,
      "Jord": 6678,
      "relativamente</w>": 6679,
      "reações</w>": 6680,
      "pedaços</w>": 6681,
      "performances</w>": 6682,
      "fix": 6683,
      "so?</w>": 6684,
      "eia.</w>": 6685,
      "100)</w>": 6686,
      "mil": 6687,
      "ória</w>": 6688,
      "sites</w>": 6689,
      "Bob</w>": 6690,
      "confirm": 6691,
      "div": 6692,
      "sopa</w>": 6693,
      "segre": 6694,
      "cesa</w>": 6695,
      "Mundial</w>": 6696,
      "partida</w>": 6697,
      "aldeia</w>": 6698,
      "Edu": 6699,
      "precisos</w>": 6700,
      "eatType</w>": 6701,
      "conflitos</w>": 6702,
      "ese</w>": 6703,
      "barco</w>": 6704,
      "bem.</w>": 6705,
      "instalações</w>": 6706,
      "Jim": 6707,
      "past": 6708,
      "ízes</w>": 6709,
      "satisfeito</w>": 6710,
      "Avaliar</w>": 6711,
      "ivo</w>": 6712,
      "moviment": 6713,
      "bol</w>": 6714,
      "________": 6715,
      "muda</w>": 6716,
      "setor</w>": 6717,
      "angu": 6718,
      "estranh": 6719,
      "cipl": 6720,
      "item</w>": 6721,
      "aumentando</w>": 6722,
      "fornecido</w>": 6723,
      "constitu": 6724,
      "TD</w>": 6725,
      "rost": 6726,
      "e-mail</w>": 6727,
      "respondível": 6728,
      "11": 6729,
      "Da</w>": 6730,
      "expectativas</w>": 6731,
      "moléculas</w>": 6732,
      "B).</w>": 6733,
      "participantes</w>": 6734,
      "permitiu</w>": 6735,
      "Jim</w>": 6736,
      "tocar</w>": 6737,
      "populações</w>": 6738,
      "S.</w>": 6739,
      "enx": 6740,
      "ciência</w>": 6741,
      "largu": 6742,
      "hospital</w>": 6743,
      "esmag": 6744,
      "votos</w>": 6745,
      "hotel</w>": 6746,
      "ica:</w>": 6747,
      "quê?</w>": 6748,
      "AR": 6749,
      "inteligência</w>": 6750,
      "Esc": 6751,
      "Usando</w>": 6752,
      "causando</w>": 6753,
      "extremamente</w>": 6754,
      "igreja</w>": 6755,
      "retorna</w>": 6756,
      "implementar</w>": 6757,
      "(B).</w>": 6758,
      "tripul": 6759,
      "ester</w>": 6760,
      "shop": 6761,
      "local,</w>": 6762,
      "toque</w>": 6763,
      "%.</w>": 6764,
      "mantendo</w>": 6765,
      "esforç": 6766,
      "distribuição</w>": 6767,
      "sivos</w>": 6768,
      "ímos</w>": 6769,
      "Total</w>": 6770,
      "Parece</w>": 6771,
      "ótima</w>": 6772,
      "variar</w>": 6773,
      "seção</w>": 6774,
      "compre": 6775,
      "interven": 6776,
      "qued": 6777,
      "sono</w>": 6778,
      "Mesmo</w>": 6779,
      "osa.</w>": 6780,
      "Bill</w>": 6781,
      "och": 6782,
      "idi": 6783,
      "esf": 6784,
      "estrang": 6785,
      "edes</w>": 6786,
      "projetado</w>": 6787,
      "(A).</w>": 6788,
      "õe</w>": 6789,
      "vivo</w>": 6790,
      "ver,</w>": 6791,
      "modelos</w>": 6792,
      "ka</w>": 6793,
      "quilômetros</w>": 6794,
      "Sa": 6795,
      "bolas</w>": 6796,
      "passos:</w>": 6797,
      "câncer</w>": 6798,
      "glico": 6799,
      "profundidade</w>": 6800,
      "Syd": 6801,
      "tori": 6802,
      "probabilidade</w>": 6803,
      "notável</w>": 6804,
      "confirmar</w>": 6805,
      "especiais</w>": 6806,
      "eced": 6807,
      "permitem</w>": 6808,
      "Bus": 6809,
      "pano</w>": 6810,
      "Exército</w>": 6811,
      "difí": 6812,
      "áticos</w>": 6813,
      "totais</w>": 6814,
      "invas": 6815,
      "disseram</w>": 6816,
      "turis": 6817,
      "Presidente</w>": 6818,
      "tivesse</w>": 6819,
      "abertura</w>": 6820,
      "professores</w>": 6821,
      "n.</w>": 6822,
      "vende": 6823,
      "tensão</w>": 6824,
      "oficiais</w>": 6825,
      "desempenhou</w>": 6826,
      "saída:": 6827,
      "conexões</w>": 6828,
      "dul": 6829,
      "Hig": 6830,
      "exige</w>": 6831,
      "Imagine</w>": 6832,
      "Prin": 6833,
      "rádio</w>": 6834,
      "eficazes</w>": 6835,
      "transpar": 6836,
      "vont": 6837,
      "acredit": 6838,
      "ária.</w>": 6839,
      "penas</w>": 6840,
      "fator</w>": 6841,
      "Sentença:</w>": 6842,
      "ear</w>": 6843,
      "levaram</w>": 6844,
      "vínci": 6845,
      "originalmente</w>": 6846,
      "como": 6847,
      "cartão</w>": 6848,
      "bactérias</w>": 6849,
      "W:</w>": 6850,
      "uniform": 6851,
      "Det": 6852,
      "Kat": 6853,
      "combustíveis</w>": 6854,
      "exército</w>": 6855,
      "família.</w>": 6856,
      "low": 6857,
      "encant": 6858,
      "sugest": 6859,
      "coli": 6860,
      "impressão</w>": 6861,
      "nit": 6862,
      "parceiro</w>": 6863,
      "seria:</w>": 6864,
      "bolo</w>": 6865,
      "financiamento</w>": 6866,
      "tinta</w>": 6867,
      "yl": 6868,
      "City</w>": 6869,
      "ague</w>": 6870,
      "profunda</w>": 6871,
      "190": 6872,
      "lugar.</w>": 6873,
      "conservação</w>": 6874,
      "profess": 6875,
      "olos</w>": 6876,
      "famoso</w>": 6877,
      "ampi": 6878,
      "diria</w>": 6879,
      "terror": 6880,
      "futuro.</w>": 6881,
      "feli": 6882,
      "terminar</w>": 6883,
      "a),</w>": 6884,
      "testar</w>": 6885,
      "técnica</w>": 6886,
      "narrador</w>": 6887,
      "pou</w>": 6888,
      "aparentemente</w>": 6889,
      "fantas": 6890,
      "alho</w>": 6891,
      "planeta</w>": 6892,
      "descoberta</w>": 6893,
      "dade:</w>": 6894,
      "vite</w>": 6895,
      "itação</w>": 6896,
      "só": 6897,
      "seg": 6898,
      "Encontre</w>": 6899,
      "Crie</w>": 6900,
      "Nig": 6901,
      "multi-": 6902,
      "respondi": 6903,
      "Yo": 6904,
      "maneira": 6905,
      "gerenciar</w>": 6906,
      "vir</w>": 6907,
      "sentiment": 6908,
      "Associ": 6909,
      "janela</w>": 6910,
      "ID": 6911,
      "ideal</w>": 6912,
      "Brit": 6913,
      "semana,</w>": 6914,
      "ale</w>": 6915,
      "músculos</w>": 6916,
      "cultiv": 6917,
      "meios</w>": 6918,
      "calç": 6919,
      "Tayl": 6920,
      "menção</w>": 6921,
      "lá,</w>": 6922,
      "vantagens</w>": 6923,
      "protest": 6924,
      "iniciar</w>": 6925,
      "corrup": 6926,
      "discipl": 6927,
      "distrito</w>": 6928,
      "implicações</w>": 6929,
      "pensament": 6930,
      "éti": 6931,
      "C,</w>": 6932,
      "Te": 6933,
      "novamente.</w>": 6934,
      "ra-se</w>": 6935,
      "conhece</w>": 6936,
      "refri": 6937,
      "paciente</w>": 6938,
      "refeições</w>": 6939,
      "Entre</w>": 6940,
      "fugi": 6941,
      "bolsa</w>": 6942,
      "gro": 6943,
      "cuidar</w>": 6944,
      "passo.</w>": 6945,
      "lob": 6946,
      "ígen": 6947,
      "consiste</w>": 6948,
      "ídas</w>": 6949,
      "chamados</w>": 6950,
      "inesper": 6951,
      "imper": 6952,
      "cai</w>": 6953,
      "Mur": 6954,
      "paz</w>": 6955,
      "Suas</w>": 6956,
      "B,</w>": 6957,
      "foto</w>": 6958,
      "Professor:</w>": 6959,
      "eliz": 6960,
      "obstá": 6961,
      "off": 6962,
      "incidente</w>": 6963,
      "Tar": 6964,
      "expressão</w>": 6965,
      "prevenir</w>": 6966,
      "pulmões</w>": 6967,
      "juntar</w>": 6968,
      "tráf": 6969,
      "aque</w>": 6970,
      "serviu</w>": 6971,
      "alhas</w>": 6972,
      "empor": 6973,
      "stic": 6974,
      "Ocident": 6975,
      "Angel": 6976,
      "centav": 6977,
      "cultur": 6978,
      "visual</w>": 6979,
      "repar": 6980,
      "ham": 6981,
      "uta</w>": 6982,
      "29</w>": 6983,
      "país,</w>": 6984,
      "ífer": 6985,
      "alment": 6986,
      "Resposta:Com</w>": 6987,
      "ota</w>": 6988,
      "IS": 6989,
      "aluno</w>": 6990,
      "vêm</w>": 6991,
      "brut": 6992,
      "rigor": 6993,
      "liberdade</w>": 6994,
      "inando</w>": 6995,
      "ileg": 6996,
      "índia</w>": 6997,
      "passageiros</w>": 6998,
      "labor": 6999,
      "Congres": 7000,
      "comparar</w>": 7001,
      "cicli": 7002,
      "Log": 7003,
      "Francis": 7004,
      "aeron": 7005,
      "sentado</w>": 7006,
      "cortar</w>": 7007,
      "legal</w>": 7008,
      "\"P": 7009,
      "recorde</w>": 7010,
      "anu": 7011,
      "Donald</w>": 7012,
      "nerv": 7013,
      "sess": 7014,
      "dias.</w>": 7015,
      "diretri": 7016,
      "Jane</w>": 7017,
      "queijo</w>": 7018,
      "memória</w>": 7019,
      "Ti": 7020,
      "composição</w>": 7021,
      "ônio</w>": 7022,
      "fatores,</w>": 7023,
      "graç": 7024,
      "pedindo</w>": 7025,
      "chocolate</w>": 7026,
      "disponibilidade</w>": 7027,
      "taram</w>": 7028,
      "respiração</w>": 7029,
      "und</w>": 7030,
      "reputação</w>": 7031,
      "estabelecimento</w>": 7032,
      "cina</w>": 7033,
      "grafia</w>": 7034,
      "duração</w>": 7035,
      "enfer": 7036,
      "prést": 7037,
      "ent</w>": 7038,
      "Range</w>": 7039,
      "(2).</w>": 7040,
      "Igreja</w>": 7041,
      "incorre": 7042,
      "AS": 7043,
      "acidade</w>": 7044,
      "emy</w>": 7045,
      "despes": 7046,
      "á-las</w>": 7047,
      "issão</w>": 7048,
      "Ben</w>": 7049,
      "motor</w>": 7050,
      "bert</w>": 7051,
      "vio</w>": 7052,
      "AT": 7053,
      "Explicação:</w>": 7054,
      "precisava</w>": 7055,
      "estudou</w>": 7056,
      "Jason</w>": 7057,
      "coer": 7058,
      "alivi": 7059,
      "passado,</w>": 7060,
      "página</w>": 7061,
      "britânico</w>": 7062,
      "tron": 7063,
      "viajar</w>": 7064,
      "escritor</w>": 7065,
      "inado</w>": 7066,
      "over": 7067,
      "ulação</w>": 7068,
      "bloque": 7069,
      "Oli": 7070,
      "Conselho</w>": 7071,
      "azul": 7072,
      "entrega</w>": 7073,
      "jur": 7074,
      "Coloque</w>": 7075,
      "refeição</w>": 7076,
      "4)</w>": 7077,
      "Rus": 7078,
      "humana</w>": 7079,
      "fazê-l": 7080,
      "definir</w>": 7081,
      "igualdade</w>": 7082,
      "Outro</w>": 7083,
      "abrir</w>": 7084,
      "pista</w>": 7085,
      "comentário</w>": 7086,
      "vindo</w>": 7087,
      "lápis</w>": 7088,
      "zação</w>": 7089,
      "amigos,</w>": 7090,
      "ys</w>": 7091,
      "melhor.</w>": 7092,
      "transmitir</w>": 7093,
      "queim": 7094,
      "espírito</w>": 7095,
      "t:</w>": 7096,
      "ene</w>": 7097,
      "cresci": 7098,
      "\\):</w>": 7099,
      "reflex": 7100,
      "price": 7101,
      "presid": 7102,
      "ânia</w>": 7103,
      "espectadores</w>": 7104,
      "al\".</w>": 7105,
      "cursos</w>": 7106,
      "Dev": 7107,
      "sobren": 7108,
      "agens.</w>": 7109,
      "campos</w>": 7110,
      "ger</w>": 7111,
      "cogni": 7112,
      "aden": 7113,
      "Ram": 7114,
      "Oce": 7115,
      "oras</w>": 7116,
      "criado</w>": 7117,
      "ato,</w>": 7118,
      "Mic": 7119,
      "Del": 7120,
      "Pr": 7121,
      "fascin": 7122,
      "humor</w>": 7123,
      "eta.</w>": 7124,
      "cas,</w>": 7125,
      "exc": 7126,
      "determinação</w>": 7127,
      "b-</w>": 7128,
      "cola</w>": 7129,
      "trata</w>": 7130,
      "Mart": 7131,
      "regulament": 7132,
      "ES": 7133,
      "afri": 7134,
      "Departamento</w>": 7135,
      "rum": 7136,
      "ates</w>": 7137,
      "traz</w>": 7138,
      "aniversário</w>": 7139,
      "criou</w>": 7140,
      "pássaro</w>": 7141,
      "tá": 7142,
      "gerenciamento</w>": 7143,
      "resposta\".</w>": 7144,
      ".Para</w>": 7145,
      "petróleo</w>": 7146,
      "Far": 7147,
      "mer</w>": 7148,
      "Charles</w>": 7149,
      "Arti": 7150,
      "ício,</w>": 7151,
      "ward": 7152,
      "ingressos</w>": 7153,
      "mais,</w>": 7154,
      "assuntos</w>": 7155,
      "devemos</w>": 7156,
      "terrâne": 7157,
      "%,</w>": 7158,
      "nação</w>": 7159,
      "(M": 7160,
      "espiri": 7161,
      "numa</w>": 7162,
      "b,</w>": 7163,
      "erva</w>": 7164,
      "US$</w>": 7165,
      "sapatos</w>": 7166,
      "divertido</w>": 7167,
      "receitas</w>": 7168,
      "tribunal</w>": 7169,
      "alcan": 7170,
      "ine,</w>": 7171,
      "australi": 7172,
      "Jes": 7173,
      "obra</w>": 7174,
      "forneceu</w>": 7175,
      "Der": 7176,
      "tiva.</w>": 7177,
      "Arm": 7178,
      "Terra.</w>": 7179,
      "id</w>": 7180,
      "R:</w>": 7181,
      "instalação</w>": 7182,
      "II</w>": 7183,
      "percent": 7184,
      "ou:</w>": 7185,
      "pist": 7186,
      "Comece</w>": 7187,
      "pesquisar</w>": 7188,
      "errad": 7189,
      "Primeira</w>": 7190,
      "violência</w>": 7191,
      "consistente</w>": 7192,
      "alí": 7193,
      "queda</w>": 7194,
      "anti-": 7195,
      "realidade</w>": 7196,
      "doce</w>": 7197,
      "Bre": 7198,
      "máximo</w>": 7199,
      "Ac": 7200,
      "impres": 7201,
      "preç": 7202,
      "ster</w>": 7203,
      "quantidades</w>": 7204,
      "2000</w>": 7205,
      "doenç": 7206,
      "atriz</w>": 7207,
      "tente</w>": 7208,
      "Assim</w>": 7209,
      "ramos</w>": 7210,
      "onças</w>": 7211,
      "Window": 7212,
      "comé": 7213,
      "ncipe</w>": 7214,
      "como:</w>": 7215,
      "lago</w>": 7216,
      "inha,</w>": 7217,
      "ay,</w>": 7218,
      "enfatiza</w>": 7219,
      "ato.</w>": 7220,
      "energias</w>": 7221,
      "superi": 7222,
      "referência</w>": 7223,
      "(\\</w>": 7224,
      "átom": 7225,
      "ês.</w>": 7226,
      "anha,</w>": 7227,
      "idos.</w>": 7228,
      "combustível</w>": 7229,
      "27": 7230,
      "emprést": 7231,
      "férias</w>": 7232,
      "panela</w>": 7233,
      "paixão</w>": 7234,
      "passeio</w>": 7235,
      "idade:</w>": 7236,
      "duí": 7237,
      "ências.</w>": 7238,
      "-a</w>": 7239,
      "Ru": 7240,
      "irmãos</w>": 7241,
      "poderá</w>": 7242,
      "declínio</w>": 7243,
      "800</w>": 7244,
      "camadas</w>": 7245,
      "amigo,</w>": 7246,
      "up</w>": 7247,
      "hts</w>": 7248,
      "regularmente</w>": 7249,
      "agentes</w>": 7250,
      "sequência</w>": 7251,
      "Lev": 7252,
      "destes</w>": 7253,
      "trilha</w>": 7254,
      "mara</w>": 7255,
      "semana.</w>": 7256,
      "céu</w>": 7257,
      "\"um</w>": 7258,
      "recebendo</w>": 7259,
      "orçamento</w>": 7260,
      "BC</w>": 7261,
      "provínci": 7262,
      "lançou</w>": 7263,
      "sw": 7264,
      "afast": 7265,
      "praia</w>": 7266,
      "segund": 7267,
      "tuais</w>": 7268,
      "gir</w>": 7269,
      "disput": 7270,
      "inúmeros</w>": 7271,
      "situação.</w>": 7272,
      "bun": 7273,
      "hipótese:</w>": 7274,
      "brem</w>": 7275,
      "estimação</w>": 7276,
      "metas</w>": 7277,
      "Dem": 7278,
      "suponha</w>": 7279,
      "peixe</w>": 7280,
      "adult": 7281,
      "coorden": 7282,
      "rando": 7283,
      "fazend": 7284,
      "contribuições</w>": 7285,
      "paisagem</w>": 7286,
      "ências,</w>": 7287,
      "gico</w>": 7288,
      "?Como</w>": 7289,
      "pessoais.</w>": 7290,
      "dados,</w>": 7291,
      "incorpor": 7292,
      "Lan": 7293,
      "but": 7294,
      "indicar</w>": 7295,
      "cadeira</w>": 7296,
      "corridas</w>": 7297,
      "3.": 7298,
      "aparece</w>": 7299,
      "?Não</w>": 7300,
      "(F": 7301,
      "36": 7302,
      "o).</w>": 7303,
      "modific": 7304,
      "estabilidade</w>": 7305,
      "aberto</w>": 7306,
      "Hum": 7307,
      "universi": 7308,
      "lição</w>": 7309,
      "românt": 7310,
      "águas</w>": 7311,
      "dro": 7312,
      "olha</w>": 7313,
      "Espero</w>": 7314,
      "borbol": 7315,
      "al\"</w>": 7316,
      "gasto</w>": 7317,
      "Gru": 7318,
      "olho</w>": 7319,
      "naquela</w>": 7320,
      "quei</w>": 7321,
      "garrafa</w>": 7322,
      "Hav": 7323,
      "gram": 7324,
      "(por</w>": 7325,
      "má</w>": 7326,
      "bebidas</w>": 7327,
      "realizado</w>": 7328,
      "minutos.</w>": 7329,
      "--": 7330,
      "ek</w>": 7331,
      "Cin": 7332,
      "energia.</w>": 7333,
      "Aut": 7334,
      "Lis": 7335,
      "á.</w>": 7336,
      "recomendação</w>": 7337,
      "ária,</w>": 7338,
      "negativamente</w>": 7339,
      "revisão,</w>": 7340,
      "um.</w>": 7341,
      "responder": 7342,
      "(em</w>": 7343,
      "ivos</w>": 7344,
      "pode-se</w>": 7345,
      "Tre": 7346,
      "autoriz": 7347,
      "voo</w>": 7348,
      "frio</w>": 7349,
      "aborda</w>": 7350,
      "Cro": 7351,
      "AP": 7352,
      "vemos</w>": 7353,
      "Colleg": 7354,
      "máquinas</w>": 7355,
      "(0,": 7356,
      "habilidade</w>": 7357,
      "letras</w>": 7358,
      "recomendações</w>": 7359,
      "procedi": 7360,
      "mencionam</w>": 7361,
      "necessário.</w>": 7362,
      "Possíveis</w>": 7363,
      "dinheiro.</w>": 7364,
      "arquivos</w>": 7365,
      "pagamento</w>": 7366,
      "atrair</w>": 7367,
      "emocionante</w>": 7368,
      "Cre": 7369,
      "maravilh": 7370,
      "representação</w>": 7371,
      "processo.</w>": 7372,
      "barrei": 7373,
      "piloto</w>": 7374,
      "inimig": 7375,
      "vej": 7376,
      "Neg": 7377,
      "ocu": 7378,
      "Três</w>": 7379,
      "nomeado</w>": 7380,
      "Mul": 7381,
      "família,</w>": 7382,
      "Copa</w>": 7383,
      "au,</w>": 7384,
      "físi": 7385,
      "Sout": 7386,
      "cópi": 7387,
      "compras</w>": 7388,
      "XV": 7389,
      "equipe.</w>": 7390,
      "aulas</w>": 7391,
      "priceRange</w>": 7392,
      "pai,</w>": 7393,
      "Clu": 7394,
      "governament": 7395,
      "derram": 7396,
      "(E": 7397,
      "tida</w>": 7398,
      "policial</w>": 7399,
      "atl": 7400,
      "eck": 7401,
      "verbo</w>": 7402,
      "retornar</w>": 7403,
      "cula</w>": 7404,
      "cavalo</w>": 7405,
      "ferro": 7406,
      "Alemanha</w>": 7407,
      "funcionário</w>": 7408,
      "gh": 7409,
      "enz": 7410,
      "Combine</w>": 7411,
      "psicol": 7412,
      "cirur": 7413,
      "Não": 7414,
      "sanduí": 7415,
      "Porcentagem</w>": 7416,
      "possivelmente</w>": 7417,
      "gica</w>": 7418,
      "ível,</w>": 7419,
      "apri": 7420,
      "cerim": 7421,
      "1000</w>": 7422,
      "retorn": 7423,
      "escrito,</w>": 7424,
      "Dia</w>": 7425,
      "Leg": 7426,
      "ri</w>": 7427,
      "bons</w>": 7428,
      "Washington</w>": 7429,
      "óp": 7430,
      "fusão</w>": 7431,
      "artigos</w>": 7432,
      "críticas</w>": 7433,
      "hoje.</w>": 7434,
      "renováveis</w>": 7435,
      "ons</w>": 7436,
      "positiva.</w>": 7437,
      "sons</w>": 7438,
      "omb": 7439,
      "terminou</w>": 7440,
      "memor": 7441,
      "refriger": 7442,
      "afirmação</w>": 7443,
      "empregos</w>": 7444,
      "Austrália</w>": 7445,
      "estudar</w>": 7446,
      "Internacional</w>": 7447,
      "9999": 7448,
      "reforç": 7449,
      "ônico</w>": 7450,
      "dificuldade</w>": 7451,
      "acamp": 7452,
      "agricultura</w>": 7453,
      "manteiga</w>": 7454,
      "complexa</w>": 7455,
      "discrimin": 7456,
      "compostos</w>": 7457,
      "od,</w>": 7458,
      "óculos</w>": 7459,
      "au</w>": 7460,
      "sa,</w>": 7461,
      "Claro!</w>": 7462,
      "sínt": 7463,
      "sever": 7464,
      "ilust": 7465,
      "assino</w>": 7466,
      "revisão.</w>": 7467,
      "abraç": 7468,
      "Atra": 7469,
      "Preço</w>": 7470,
      "vital</w>": 7471,
      "gira</w>": 7472,
      "bande": 7473,
      "danific": 7474,
      "10%</w>": 7475,
      "rist": 7476,
      "praticar</w>": 7477,
      "terras</w>": 7478,
      "regulamentos</w>": 7479,
      "dirigido</w>": 7480,
      "favorit": 7481,
      "manif": 7482,
      "Mill": 7483,
      "Camer": 7484,
      "exib": 7485,
      "tendências</w>": 7486,
      "cartas</w>": 7487,
      "acreditam</w>": 7488,
      "ansiedade</w>": 7489,
      "Flóri": 7490,
      "-me</w>": 7491,
      "Mar</w>": 7492,
      "izado</w>": 7493,
      "caminhão</w>": 7494,
      "invent": 7495,
      "medicamentos</w>": 7496,
      "conhec": 7497,
      "ches</w>": 7498,
      "faculdade</w>": 7499,
      "formato</w>": 7500,
      "hu": 7501,
      "íg": 7502,
      "informações,</w>": 7503,
      "ganhos</w>": 7504,
      "ignor": 7505,
      "princípios</w>": 7506,
      "Custo</w>": 7507,
      "fundos</w>": 7508,
      "bater</w>": 7509,
      "gastou</w>": 7510,
      "ace</w>": 7511,
      "envolvid": 7512,
      "República</w>": 7513,
      "B)</w>": 7514,
      "sexta-fei": 7515,
      "nessas</w>": 7516,
      "circunstâncias</w>": 7517,
      "cionais</w>": 7518,
      "interpretado</w>": 7519,
      "manip": 7520,
      "Matt</w>": 7521,
      "Escóci": 7522,
      "viaja</w>": 7523,
      "cadas</w>": 7524,
      "tamente.</w>": 7525,
      "Unit": 7526,
      "dormir</w>": 7527,
      "\"a</w>": 7528,
      "possibilidade</w>": 7529,
      "ader": 7530,
      "rat": 7531,
      "recentes</w>": 7532,
      "motorista</w>": 7533,
      "corrig": 7534,
      "varej": 7535,
      "voltou</w>": 7536,
      "venceu</w>": 7537,
      "revista</w>": 7538,
      "artin</w>": 7539,
      "tomando</w>": 7540,
      "clam": 7541,
      "exploração</w>": 7542,
      "rai": 7543,
      "conceit": 7544,
      "dividir</w>": 7545,
      "prosper": 7546,
      "utilizar</w>": 7547,
      "advogado</w>": 7548,
      "vez.</w>": 7549,
      "Hist": 7550,
      "engraç": 7551,
      "previ": 7552,
      "caiu</w>": 7553,
      "contribui</w>": 7554,
      "entes:</w>": 7555,
      "paredes</w>": 7556,
      "assent": 7557,
      "desast": 7558,
      "cartões</w>": 7559,
      "(T": 7560,
      "vermelha</w>": 7561,
      "dado.</w>": 7562,
      "tadas</w>": 7563,
      "norte-": 7564,
      "valoriz": 7565,
      "coisa.</w>": 7566,
      "colocado</w>": 7567,
      "urg": 7568,
      "verdade.</w>": 7569,
      "receberá</w>": 7570,
      "brilhante</w>": 7571,
      "acadê": 7572,
      "políti": 7573,
      "comerciais</w>": 7574,
      "tigela</w>": 7575,
      "plá": 7576,
      "desempenham</w>": 7577,
      "Eg": 7578,
      "Talvez</w>": 7579,
      "ek": 7580,
      "assistente</w>": 7581,
      "bené": 7582,
      "dio,</w>": 7583,
      "nota</w>": 7584,
      "ticas</w>": 7585,
      "vende</w>": 7586,
      "Vin": 7587,
      "pedaço</w>": 7588,
      "Sec": 7589,
      "rá</w>": 7590,
      "tor,</w>": 7591,
      "flutu": 7592,
      "amigos.</w>": 7593,
      "4,": 7594,
      "profundo</w>": 7595,
      "éli": 7596,
      "reún": 7597,
      "esporte</w>": 7598,
      "conforme</w>": 7599,
      "mídias</w>": 7600,
      "disponíveis:</w>": 7601,
      "sugestão</w>": 7602,
      "\"Você</w>": 7603,
      "respostas:</w>": 7604,
      "conhecidas</w>": 7605,
      "ar?</w>": 7606,
      "League</w>": 7607,
      "jornal</w>": 7608,
      "lutando</w>": 7609,
      "Universit": 7610,
      "interação</w>": 7611,
      "encontrada</w>": 7612,
      "pudesse</w>": 7613,
      "West</w>": 7614,
      "lac": 7615,
      "diag": 7616,
      "45": 7617,
      "último,</w>": 7618,
      "únicas</w>": 7619,
      "perguntar</w>": 7620,
      "osos,</w>": 7621,
      "latas</w>": 7622,
      "Soci": 7623,
      "subtraímos</w>": 7624,
      "Dra": 7625,
      "Super": 7626,
      "boca</w>": 7627,
      "ário:</w>": 7628,
      "saudáveis</w>": 7629,
      "York,</w>": 7630,
      "estações</w>": 7631,
      "produz</w>": 7632,
      "rach": 7633,
      "veter": 7634,
      "original.</w>": 7635,
      "saco</w>": 7636,
      "ala</w>": 7637,
      "problema,</w>": 7638,
      "lam": 7639,
      "manu": 7640,
      "álcool</w>": 7641,
      "escola.</w>": 7642,
      "ância,</w>": 7643,
      "Proces": 7644,
      "desenvolve": 7645,
      "Extraia</w>": 7646,
      "Facebo": 7647,
      "oa</w>": 7648,
      "work": 7649,
      "seguinte.</w>": 7650,
      "Infeliz": 7651,
      "tol": 7652,
      "interior</w>": 7653,
      "deriv": 7654,
      "insatisfação</w>": 7655,
      "bios</w>": 7656,
      "Star": 7657,
      "ração.</w>": 7658,
      "(1).</w>": 7659,
      "julgamento</w>": 7660,
      "inferior</w>": 7661,
      "abast": 7662,
      "vitam": 7663,
      "frases,</w>": 7664,
      "factu": 7665,
      "luxo</w>": 7666,
      "segurança.</w>": 7667,
      "períodos</w>": 7668,
      "subsequ": 7669,
      "placas</w>": 7670,
      "pobre": 7671,
      "primeiro-": 7672,
      "armazenar</w>": 7673,
      "rgu": 7674,
      "rey</w>": 7675,
      "lutar</w>": 7676,
      "mistur": 7677,
      "rique": 7678,
      "chi": 7679,
      "terre": 7680,
      "00.</w>": 7681,
      "Probl": 7682,
      "Solu": 7683,
      "vidro</w>": 7684,
      "acaba</w>": 7685,
      "monte</w>": 7686,
      "ência:</w>": 7687,
      "são?</w>": 7688,
      "fazenda</w>": 7689,
      "expansão</w>": 7690,
      "bati": 7691,
      "apresentado</w>": 7692,
      "Outros</w>": 7693,
      "3333": 7694,
      "circul": 7695,
      "p,</w>": 7696,
      "brid": 7697,
      "vírgu": 7698,
      "dri": 7699,
      "interessado</w>": 7700,
      "World</w>": 7701,
      "interações</w>": 7702,
      "Pesquisa</w>": 7703,
      "suspen": 7704,
      "cheia</w>": 7705,
      "Count": 7706,
      "pertence</w>": 7707,
      "pegou</w>": 7708,
      "emporâne": 7709,
      "Quin": 7710,
      "quia</w>": 7711,
      "trama</w>": 7712,
      "descobr": 7713,
      "ób": 7714,
      "onato</w>": 7715,
      "área.</w>": 7716,
      "milhares</w>": 7717,
      "Mai": 7718,
      "republic": 7719,
      "ung</w>": 7720,
      "perspectivas</w>": 7721,
      "Bet": 7722,
      "st</w>": 7723,
      "responsáveis</w>": 7724,
      "NF": 7725,
      "Fornec": 7726,
      "biscoitos</w>": 7727,
      "trouxe</w>": 7728,
      "cm</w>": 7729,
      "6:</w>": 7730,
      "oceano</w>": 7731,
      "carn": 7732,
      "plen": 7733,
      "sugerindo</w>": 7734,
      "garrafas</w>": 7735,
      "conversas</w>": 7736,
      "bomb": 7737,
      "Sol": 7738,
      "fio</w>": 7739,
      "ambiental</w>": 7740,
      "frases.</w>": 7741,
      "reprodução</w>": 7742,
      "acumul": 7743,
      "machu": 7744,
      "vice-": 7745,
      "grafo:</w>": 7746,
      "!!": 7747,
      "ce,</w>": 7748,
      "-os</w>": 7749,
      "aplicar</w>": 7750,
      "afirmando</w>": 7751,
      "\"L": 7752,
      "ente:</w>": 7753,
      "veria</w>": 7754,
      "matéria</w>": 7755,
      "palavras:</w>": 7756,
      "telh": 7757,
      "resgat": 7758,
      "frango</w>": 7759,
      "irrit": 7760,
      "categorias</w>": 7761,
      "mata</w>": 7762,
      "Ryan</w>": 7763,
      "sustentabilidade</w>": 7764,
      "Pat": 7765,
      "ental</w>": 7766,
      "teoria</w>": 7767,
      "universidade</w>": 7768,
      "on-line</w>": 7769,
      "predad": 7770,
      "areia</w>": 7771,
      "entusias": 7772,
      "Liga</w>": 7773,
      "errado</w>": 7774,
      "leitores</w>": 7775,
      "ulman": 7776,
      "\"H": 7777,
      "pessoa.</w>": 7778,
      "química</w>": 7779,
      "Processo:</w>": 7780,
      "gh</w>": 7781,
      "multidão</w>": 7782,
      "colega</w>": 7783,
      "aspi": 7784,
      "ench": 7785,
      "gravidade</w>": 7786,
      "Adicionar</w>": 7787,
      "lentamente</w>": 7788,
      "(H": 7789,
      "cereb": 7790,
      "çulman": 7791,
      "ficaram</w>": 7792,
      "balanç": 7793,
      "lid": 7794,
      "x,</w>": 7795,
      "crime</w>": 7796,
      "áu": 7797,
      "eres</w>": 7798,
      "considere</w>": 7799,
      "Deus</w>": 7800,
      "algorit": 7801,
      "levado</w>": 7802,
      "dele.</w>": 7803,
      "We": 7804,
      "es-chave</w>": 7805,
      "sociais,</w>": 7806,
      "animado</w>": 7807,
      "escra": 7808,
      "genu": 7809,
      "Resumir</w>": 7810,
      "transição</w>": 7811,
      "ração,</w>": 7812,
      "tiva,</w>": 7813,
      "biliz": 7814,
      "rantes</w>": 7815,
      "palco</w>": 7816,
      "estufa</w>": 7817,
      "pernas</w>": 7818,
      "perfeito</w>": 7819,
      "Jose": 7820,
      "seja,</w>": 7821,
      "úm": 7822,
      "levam</w>": 7823,
      "tripl": 7824,
      "éticos</w>": 7825,
      "incentivar</w>": 7826,
      "subi": 7827,
      "des,</w>": 7828,
      "Steve</w>": 7829,
      "dica</w>": 7830,
      "35": 7831,
      "dispar": 7832,
      "senhora</w>": 7833,
      "letra</w>": 7834,
      "Dou": 7835,
      "úti": 7836,
      "que:</w>": 7837,
      "terç": 7838,
      "Henry</w>": 7839,
      "Lei</w>": 7840,
      "osos.</w>": 7841,
      "essem</w>": 7842,
      "alternativas</w>": 7843,
      "Ros": 7844,
      "complexo</w>": 7845,
      "amiga</w>": 7846,
      "vide": 7847,
      "rendi": 7848,
      "abaixo:</w>": 7849,
      "comum.</w>": 7850,
      "al?</w>": 7851,
      "pintura</w>": 7852,
      "cento</w>": 7853,
      "Lor": 7854,
      "Rach": 7855,
      "mental.</w>": 7856,
      "fest": 7857,
      "celular</w>": 7858,
      "ball</w>": 7859,
      "William": 7860,
      "TV": 7861,
      "usuário.</w>": 7862,
      "ológicos</w>": 7863,
      "filt": 7864,
      "comet": 7865,
      "tornaram</w>": 7866,
      "substant": 7867,
      "Aer": 7868,
      "```</w>": 7869,
      "clientes.</w>": 7870,
      "Martin</w>": 7871,
      "empreen": 7872,
      "compartilham</w>": 7873,
      "indústrias</w>": 7874,
      "organizar</w>": 7875,
      "políci": 7876,
      "g,</w>": 7877,
      "segui": 7878,
      "estere": 7879,
      "ográfica</w>": 7880,
      "correta": 7881,
      "minimizar</w>": 7882,
      "érios</w>": 7883,
      "AC": 7884,
      "contêm</w>": 7885,
      "Outra</w>": 7886,
      "Meu</w>": 7887,
      "Organ": 7888,
      "plástico</w>": 7889,
      "encontro</w>": 7890,
      "dependência</w>": 7891,
      "intim": 7892,
      "fórmula</w>": 7893,
      "Stu": 7894,
      "ecossistemas</w>": 7895,
      "locais.</w>": 7896,
      "contemporâne": 7897,
      "\"F": 7898,
      "Veg": 7899,
      "sentindo</w>": 7900,
      "dirigir</w>": 7901,
      "Sho": 7902,
      "trav": 7903,
      "mostrou</w>": 7904,
      "didas</w>": 7905,
      "caram</w>": 7906,
      "apareceu</w>": 7907,
      "mencionados</w>": 7908,
      "Ash": 7909,
      "km</w>": 7910,
      "sa.</w>": 7911,
      "region": 7912,
      "sucesso.</w>": 7913,
      "\"In": 7914,
      "intest": 7915,
      "cidadãos</w>": 7916,
      "excesso</w>": 7917,
      "avaliações</w>": 7918,
      "refle": 7919,
      "alugu": 7920,
      "diplom": 7921,
      "acessível</w>": 7922,
      "planeja</w>": 7923,
      "Continue</w>": 7924,
      "suco</w>": 7925,
      "American</w>": 7926,
      "deixado</w>": 7927,
      "consi": 7928,
      "íti": 7929,
      "oferec": 7930,
      "reflete</w>": 7931,
      "eta,</w>": 7932,
      "comercial</w>": 7933,
      "conselhos</w>": 7934,
      "oferta</w>": 7935,
      "recipiente</w>": 7936,
      "dissol": 7937,
      "indiretamente</w>": 7938,
      "cy</w>": 7939,
      "seguido</w>": 7940,
      "ender": 7941,
      "provoc": 7942,
      "Appl": 7943,
      "Trans": 7944,
      "Cast": 7945,
      "situação:</w>": 7946,
      "(c": 7947,
      "combater</w>": 7948,
      "icí": 7949,
      "cír": 7950,
      "numer": 7951,
      "Gro": 7952,
      "discute</w>": 7953,
      "vê-l": 7954,
      "edor</w>": 7955,
      "salário</w>": 7956,
      "europe": 7957,
      "placa</w>": 7958,
      "realização</w>": 7959,
      "Porque</w>": 7960,
      "lip": 7961,
      "wbo": 7962,
      "mitigar</w>": 7963,
      "caça</w>": 7964,
      "food</w>": 7965,
      "cit": 7966,
      "vendido</w>": 7967,
      "legais</w>": 7968,
      "final.</w>": 7969,
      "regulares</w>": 7970,
      "son.</w>": 7971,
      "amplo</w>": 7972,
      "io": 7973,
      "pensou</w>": 7974,
      "execução</w>": 7975,
      "molh": 7976,
      "aver": 7977,
      "mand": 7978,
      "namorada</w>": 7979,
      "Nas": 7980,
      "[\\</w>": 7981,
      "ém,</w>": 7982,
      "lizab": 7983,
      "toma</w>": 7984,
      "insig": 7985,
      "familiares</w>": 7986,
      "cobre</w>": 7987,
      "lâmp": 7988,
      "endem</w>": 7989,
      "juntos,</w>": 7990,
      "condicion": 7991,
      "adivinh": 7992,
      "sexual</w>": 7993,
      "impressionante</w>": 7994,
      "zo": 7995,
      "\"É</w>": 7996,
      "capitão</w>": 7997,
      "Ok": 7998,
      "tivo,</w>": 7999,
      "sibilidade</w>": 8000,
      "fotos": 8001,
      "ragem</w>": 8002,
      "críticos</w>": 8003,
      "eu.</w>": 8004,
      "dificuldades</w>": 8005,
      "Mist": 8006,
      "mesmos</w>": 8007,
      "ibi": 8008,
      "estúdio</w>": 8009,
      "San": 8010,
      "veículo</w>": 8011,
      "turnê</w>": 8012,
      "Tony</w>": 8013,
      "crítica</w>": 8014,
      "dela</w>": 8015,
      "agora,</w>": 8016,
      "tropic": 8017,
      "tornando-o</w>": 8018,
      "Nick</w>": 8019,
      "sociais.</w>": 8020,
      "You": 8021,
      "forneça</w>": 8022,
      "divul": 8023,
      "certamente</w>": 8024,
      "31</w>": 8025,
      "man,</w>": 8026,
      "representar</w>": 8027,
      "Tim</w>": 8028,
      "quantia</w>": 8029,
      "diferente.</w>": 8030,
      "Gri": 8031,
      "esportes</w>": 8032,
      "Din": 8033,
      "adot": 8034,
      "riv": 8035,
      "sia,</w>": 8036,
      "núcleo</w>": 8037,
      "beber</w>": 8038,
      "ar\"</w>": 8039,
      "cio</w>": 8040,
      "edição</w>": 8041,
      "escapar</w>": 8042,
      "vontade</w>": 8043,
      "tranquil": 8044,
      "pacotes</w>": 8045,
      "mercados</w>": 8046,
      "percentual</w>": 8047,
      "realizada</w>": 8048,
      "ila</w>": 8049,
      "campanhas</w>": 8050,
      "entrada,</w>": 8051,
      "resulta</w>": 8052,
      "costas</w>": 8053,
      "persist": 8054,
      "desliz": 8055,
      "tenção</w>": 8056,
      "construção,</w>": 8057,
      "prí": 8058,
      "apropriado</w>": 8059,
      "Bel": 8060,
      "proporcionando</w>": 8061,
      "O'": 8062,
      "onia</w>": 8063,
      "dedicação</w>": 8064,
      "D)</w>": 8065,
      "oli": 8066,
      "estudante</w>": 8067,
      "terrí": 8068,
      "pendu": 8069,
      "endendo</w>": 8070,
      "Robin</w>": 8071,
      "memórias</w>": 8072,
      "é?</w>": 8073,
      "financeira</w>": 8074,
      "National</w>": 8075,
      "rão</w>": 8076,
      "considerados</w>": 8077,
      "patro": 8078,
      "X,</w>": 8079,
      "tocando</w>": 8080,
      "agricultores</w>": 8081,
      "Tem</w>": 8082,
      "encaix": 8083,
      "discurso</w>": 8084,
      "aust": 8085,
      "XI": 8086,
      "mesmo.</w>": 8087,
      "culinária</w>": 8088,
      "Bem,</w>": 8089,
      "urn": 8090,
      "inflam": 8091,
      "prêmio</w>": 8092,
      "ER": 8093,
      "deus</w>": 8094,
      "fisc": 8095,
      "ritmo</w>": 8096,
      "agrícolas</w>": 8097,
      "192": 8098,
      "Junt": 8099,
      "bairro</w>": 8100,
      "the": 8101,
      "atraente</w>": 8102,
      "produzido</w>": 8103,
      "desist": 8104,
      "lament": 8105,
      "prestes</w>": 8106,
      "radiação</w>": 8107,
      "eficaz.</w>": 8108,
      "Evite</w>": 8109,
      "gros": 8110,
      "especialistas</w>": 8111,
      "poucos</w>": 8112,
      "alizado</w>": 8113,
      "Kan": 8114,
      "selvagem</w>": 8115,
      "chamou</w>": 8116,
      "mostram</w>": 8117,
      "concentra</w>": 8118,
      "estará</w>": 8119,
      "Ilha</w>": 8120,
      "Max</w>": 8121,
      "alum": 8122,
      "edifício,</w>": 8123,
      "bela</w>": 8124,
      "vê": 8125,
      "EUA,</w>": 8126,
      "a?\"</w>": 8127,
      "way</w>": 8128,
      "apresentou</w>": 8129,
      "Manch": 8130,
      "perfeitamente</w>": 8131,
      "come</w>": 8132,
      "elhos</w>": 8133,
      "aberta</w>": 8134,
      "jos</w>": 8135,
      "alto": 8136,
      "roid": 8137,
      "empati": 8138,
      "flex": 8139,
      "morr": 8140,
      "ativo,</w>": 8141,
      "Bai": 8142,
      "Af": 8143,
      "ferro</w>": 8144,
      "ância.</w>": 8145,
      "ado.": 8146,
      "Case": 8147,
      "esclar": 8148,
      "sey</w>": 8149,
      "ante": 8150,
      "eiros,</w>": 8151,
      "beisebol</w>": 8152,
      "ituto</w>": 8153,
      "segundos</w>": 8154,
      "baixos</w>": 8155,
      "podia</w>": 8156,
      "aventura</w>": 8157,
      "ION": 8158,
      "eletricidade</w>": 8159,
      "região.</w>": 8160,
      "preparação</w>": 8161,
      "apre": 8162,
      "prision": 8163,
      "legum": 8164,
      "cura</w>": 8165,
      "termina</w>": 8166,
      "brinqued": 8167,
      "vencedor</w>": 8168,
      "preench": 8169,
      "(A)</w>": 8170,
      "últimas</w>": 8171,
      "agar": 8172,
      "personalidade</w>": 8173,
      "ponte</w>": 8174,
      "idos,</w>": 8175,
      "positivas</w>": 8176,
      "convidados</w>": 8177,
      "tradições</w>": 8178,
      "cido</w>": 8179,
      "morte.</w>": 8180,
      "primeiro,</w>": 8181,
      "Steph": 8182,
      "extra</w>": 8183,
      "Er": 8184,
      "Smith</w>": 8185,
      "Através</w>": 8186,
      "verdes</w>": 8187,
      "bateri": 8188,
      "Johnny</w>": 8189,
      "Caf": 8190,
      "Tw": 8191,
      "corpo,</w>": 8192,
      "democra": 8193,
      "et,</w>": 8194,
      "\"Como</w>": 8195,
      "Teste</w>": 8196,
      "Campe": 8197,
      "enfrentam</w>": 8198,
      "mencionada</w>": 8199,
      "anteci": 8200,
      "energia,</w>": 8201,
      "social.</w>": 8202,
      "aproveitar</w>": 8203,
      "Jess": 8204,
      "ser:</w>": 8205,
      "Water": 8206,
      "in.</w>": 8207,
      "locais,</w>": 8208,
      "damente</w>": 8209,
      "proporcionar</w>": 8210,
      "complement": 8211,
      "Infelizmente,</w>": 8212,
      "ângulo</w>": 8213,
      "citação</w>": 8214,
      "música,</w>": 8215,
      "fita</w>": 8216,
      "texto:</w>": 8217,
      "Amaz": 8218,
      "atualizações</w>": 8219,
      "zonas</w>": 8220,
      "express": 8221,
      "constantemente</w>": 8222,
      "ke": 8223,
      "velha</w>": 8224,
      "rios</w>": 8225,
      "respondível\".</w>": 8226,
      "dimen": 8227,
      "zas</w>": 8228,
      "tentam</w>": 8229,
      "Formul": 8230,
      "comand": 8231,
      "(K": 8232,
      "har": 8233,
      "cos:</w>": 8234,
      "moradores</w>": 8235,
      "Feder": 8236,
      "\"Dois</w>": 8237,
      "autoridade</w>": 8238,
      "muçulman": 8239,
      "as/": 8240,
      "pronto</w>": 8241,
      "levantar</w>": 8242,
      "Londres,</w>": 8243,
      "der.</w>": 8244,
      "Windows</w>": 8245,
      "graus</w>": 8246,
      "acia</w>": 8247,
      "bron": 8248,
      "evidente</w>": 8249,
      "ista.</w>": 8250,
      "jaqu": 8251,
      "habitats</w>": 8252,
      "tráfego</w>": 8253,
      "real.</w>": 8254,
      "plique</w>": 8255,
      "Servi": 8256,
      "popularidade</w>": 8257,
      "energ": 8258,
      "frequent": 8259,
      "rebro</w>": 8260,
      "Bol": 8261,
      "prever</w>": 8262,
      "palavras,</w>": 8263,
      "concorda</w>": 8264,
      "valid": 8265,
      "cobrir</w>": 8266,
      "ff</w>": 8267,
      "ving": 8268,
      "contendo</w>": 8269,
      "cérebro</w>": 8270,
      "Sand": 8271,
      "fer</w>": 8272,
      "úteis</w>": 8273,
      "cozinhar</w>": 8274,
      "quebra</w>": 8275,
      "Sw": 8276,
      "solo,</w>": 8277,
      "indo.</w>": 8278,
      "Jogos</w>": 8279,
      "vín": 8280,
      "ta-se</w>": 8281,
      "80": 8282,
      "a...</w>": 8283,
      "rogênio</w>": 8284,
      "deixe</w>": 8285,
      "duro</w>": 8286,
      "Emily</w>": 8287,
      "observar</w>": 8288,
      "Seja</w>": 8289,
      "comportament": 8290,
      ".Qual</w>": 8291,
      "saiu</w>": 8292,
      "Jesse</w>": 8293,
      "direcion": 8294,
      "exigir</w>": 8295,
      "eiros.</w>": 8296,
      "passagem,</w>": 8297,
      "Tow": 8298,
      "Cub": 8299,
      "tropas</w>": 8300,
      "quentes</w>": 8301,
      "DN": 8302,
      "iriam</w>": 8303,
      "-nos</w>": 8304,
      "cujo</w>": 8305,
      "caminhada</w>": 8306,
      "ão\".</w>": 8307,
      "recomendar</w>": 8308,
      "(B)</w>": 8309,
      "recrut": 8310,
      "performance</w>": 8311,
      "proteínas</w>": 8312,
      "descrevem</w>": 8313,
      "quartos</w>": 8314,
      "75": 8315,
      "Raci": 8316,
      "Sir</w>": 8317,
      "dren": 8318,
      "Sky": 8319,
      "conter</w>": 8320,
      "desesper": 8321,
      "jov": 8322,
      "sujeito</w>": 8323,
      "33</w>": 8324,
      "estade</w>": 8325,
      "alf": 8326,
      "(e</w>": 8327,
      "Elizab": 8328,
      "diretrizes</w>": 8329,
      "ajustar</w>": 8330,
      "cál": 8331,
      "negativa?</w>": 8332,
      "Frank": 8333,
      "recuperação</w>": 8334,
      "Billy</w>": 8335,
      "/100)</w>": 8336,
      "Kend": 8337,
      "Vol": 8338,
      "fogu": 8339,
      "patri": 8340,
      "períod": 8341,
      "dour": 8342,
      "-lr": 8343,
      "significam</w>": 8344,
      "circund": 8345,
      "escola,</w>": 8346,
      "Não.</w>": 8347,
      "-rr": 8348,
      "Wat": 8349,
      "p.</w>": 8350,
      "preender</w>": 8351,
      "tórios</w>": 8352,
      "comédia</w>": 8353,
      "am-se</w>": 8354,
      "The": 8355,
      "ry,</w>": 8356,
      "científic": 8357,
      "sessão</w>": 8358,
      "notáveis</w>": 8359,
      "positivo,</w>": 8360,
      "ilhas</w>": 8361,
      "abre</w>": 8362,
      "om</w>": 8363,
      "turismo</w>": 8364,
      "ligação</w>": 8365,
      "La": 8366,
      "ven</w>": 8367,
      "apresentação</w>": 8368,
      "absolut": 8369,
      "sabores</w>": 8370,
      "produzem</w>": 8371,
      "xícaras</w>": 8372,
      "alinha</w>": 8373,
      "consumidores</w>": 8374,
      "eleições</w>": 8375,
      "tidão</w>": 8376,
      "cardíac": 8377,
      "pessoa,</w>": 8378,
      "Bob": 8379,
      "ern": 8380,
      "recusa</w>": 8381,
      "diferentes,</w>": 8382,
      "facilitar</w>": 8383,
      "ps</w>": 8384,
      "vistas</w>": 8385,
      "intern": 8386,
      "Big</w>": 8387,
      "contradi": 8388,
      "estabeleceu</w>": 8389,
      "da:</w>": 8390,
      "linh": 8391,
      "esgo": 8392,
      "hosped": 8393,
      "\"?</w>": 8394,
      "raízes</w>": 8395,
      "as?": 8396,
      "piscina</w>": 8397,
      "procuram</w>": 8398,
      "forno</w>": 8399,
      "terrest": 8400,
      "buraco</w>": 8401,
      "rom</w>": 8402,
      "pesquisadores</w>": 8403,
      "umidade</w>": 8404,
      "vítimas</w>": 8405,
      "restrições</w>": 8406,
      "Not": 8407,
      "canto</w>": 8408,
      "acontecer</w>": 8409,
      "comb": 8410,
      "Hu": 8411,
      "ta:</w>": 8412,
      "ígenas</w>": 8413,
      "ps": 8414,
      "inund": 8415,
      "títulos</w>": 8416,
      "Ari": 8417,
      "anha.</w>": 8418,
      "artes</w>": 8419,
      "tamente,</w>": 8420,
      "20.</w>": 8421,
      "clá": 8422,
      "social,</w>": 8423,
      "ajudando</w>": 8424,
      "revolu": 8425,
      "amento:</w>": 8426,
      "vídeos</w>": 8427,
      "imas</w>": 8428,
      "antigos</w>": 8429,
      "Bon": 8430,
      "Preci": 8431,
      "Ven": 8432,
      "ane": 8433,
      "conser": 8434,
      "prazer</w>": 8435,
      "gradualmente</w>": 8436,
      "ólica</w>": 8437,
      "naquele</w>": 8438,
      "ômag": 8439,
      "lix": 8440,
      "haviam</w>": 8441,
      "Charlie</w>": 8442,
      "desapont": 8443,
      "ândia</w>": 8444,
      "França</w>": 8445,
      "fundada</w>": 8446,
      "interface</w>": 8447,
      "comunicar</w>": 8448,
      "harm": 8449,
      "Raz": 8450,
      "gs</w>": 8451,
      "van</w>": 8452,
      "ação.": 8453,
      "internacionais</w>": 8454,
      "agência</w>": 8455,
      "integração</w>": 8456,
      "natural.</w>": 8457,
      "Revisão:</w>": 8458,
      "capturar</w>": 8459,
      "carro.</w>": 8460,
      "mast": 8461,
      "ventu": 8462,
      "discussão</w>": 8463,
      "Dor": 8464,
      "tidos</w>": 8465,
      "recebem</w>": 8466,
      "Micro": 8467,
      "os;</w>": 8468,
      "eletrôni": 8469,
      "hy": 8470,
      "estômag": 8471,
      "pessoal.</w>": 8472,
      "dio.</w>": 8473,
      "restaurantes</w>": 8474,
      "s\",</w>": 8475,
      "pesca</w>": 8476,
      "bateria</w>": 8477,
      "nascimento:</w>": 8478,
      "adeira</w>": 8479,
      "célula</w>": 8480,
      "acessíveis</w>": 8481,
      "ot</w>": 8482,
      "reduz</w>": 8483,
      "destas</w>": 8484,
      "independentemente</w>": 8485,
      "Taylor</w>": 8486,
      "seguros</w>": 8487,
      "ante:</w>": 8488,
      "cláusu": 8489,
      "ribei": 8490,
      "permaneceu</w>": 8491,
      "limpa</w>": 8492,
      "euros</w>": 8493,
      "verem</w>": 8494,
      "filtra": 8495,
      "lucra": 8496,
      "perfeita</w>": 8497,
      "vam</w>": 8498,
      "fabricação</w>": 8499,
      "abran": 8500,
      "duras</w>": 8501,
      "adolescentes</w>": 8502,
      "idas.</w>": 8503,
      "batatas</w>": 8504,
      "elenco</w>": 8505,
      "Resposta:Para</w>": 8506,
      "desperd": 8507,
      "Rod": 8508,
      "Racioc": 8509,
      "envolvente</w>": 8510,
      "cau": 8511,
      "ribeir": 8512,
      "incapaz</w>": 8513,
      "visuais</w>": 8514,
      "influenciar</w>": 8515,
      "ro:</w>": 8516,
      "rosa</w>": 8517,
      "astas</w>": 8518,
      "substâncias</w>": 8519,
      "insights</w>": 8520,
      "gramas</w>": 8521,
      "web": 8522,
      "Ra": 8523,
      "tor.</w>": 8524,
      "ores": 8525,
      "símbolo</w>": 8526,
      "jud": 8527,
      "engan": 8528,
      "Tempo</w>": 8529,
      "extensão</w>": 8530,
      "insetos</w>": 8531,
      "Ener": 8532,
      "....": 8533,
      "Park</w>": 8534,
      "Pu": 8535,
      "ima</w>": 8536,
      "acer": 8537,
[...]
