{
  "version": "1.0",
  "truncation": null,
  "padding": null,
  "added_tokens": [
    {
      "id": 0,
      "content": "[UNK]",
      "single_word": false,
      "lstrip": false,
      "rstrip": false,
      "normalized": false,
      "special": true
    },
    {
      "id": 1,
      "content": "[PAD]",
      "single_word": false,
      "lstrip": false,
      "rstrip": false,
      "normalized": false,
      "special": true
    },
    {
      "id": 2,
      "content": "[EOS]",
      "single_word": false,
      "lstrip": false,
      "rstrip": false,
      "normalized": false,
      "special": true
    },
    {
      "id": 3,
      "content": "<|SYSTEM|>",
      "single_word": false,
      "lstrip": false,
      "rstrip": false,
      "normalized": false,
      "special": true
    },
    {
      "id": 4,
      "content": "<|USER|>",
      "single_word": false,
      "lstrip": false,
      "rstrip": false,
      "normalized": false,
      "special": true
    },
    {
      "id": 5,
      "content": "<|ASSISTANT|>",
      "single_word": false,
      "lstrip": false,
      "rstrip": false,
      "normalized": false,
      "special": true
    },
    {
      "id": 6,
      "content": "<|END|>",
      "single_word": false,
      "lstrip": false,
      "rstrip": false,
      "normalized": false,
      "special": true
    },
    {
      "id": 7,
      "content": "<|SEP|>",
      "single_word": false,
      "lstrip": false,
      "rstrip": false,
      "normalized": false,
      "special": true
    },
    {
      "id": 8,
      "content": "<|EOT|>",
      "single_word": false,
      "lstrip": false,
      "rstrip": false,
      "normalized": false,
      "special": true
    }
  ],
  "normalizer": null,
  "pre_tokenizer": {
    "type": "WhitespaceSplit"
  },
  "post_processor": null,
  "decoder": {
    "type": "BPEDecoder",
    "suffix": "</w>"
  },
  "model": {
    "type": "BPE",
    "dropout": null,
    "unk_token": "[UNK]",
    "continuing_subword_prefix": "",
    "end_of_word_suffix": "</w>",
    "fuse_unk": false,
    "byte_fallback": false,
    "ignore_merges": false,
    "vocab": {
      "[UNK]": 0,
      "[PAD]": 1,
      "[EOS]": 2,
      "<|SYSTEM|>": 3,
      "<|USER|>": 4,
      "<|ASSISTANT|>": 5,
      "<|END|>": 6,
      "<|SEP|>": 7,
      "<|EOT|>": 8,
      "\u0014": 9,
      "!": 10,
      "\"": 11,
      "#": 12,
      "$": 13,
      "%": 14,
      "&": 15,
      "'": 16,
      "(": 17,
      ")": 18,
      "*": 19,
      "+": 20,
      ",": 21,
      "-": 22,
      ".": 23,
      "/": 24,
      "0": 25,
      "1": 26,
      "2": 27,
      "3": 28,
      "4": 29,
      "5": 30,
      "6": 31,
      "7": 32,
      "8": 33,
      "9": 34,
      ":": 35,
      ";": 36,
      "<": 37,
      "=": 38,
      ">": 39,
      "?": 40,
      "@": 41,
      "A": 42,
      "B": 43,
      "C": 44,
      "D": 45,
      "E": 46,
      "F": 47,
      "G": 48,
      "H": 49,
      "I": 50,
      "J": 51,
      "K": 52,
      "L": 53,
      "M": 54,
      "N": 55,
      "O": 56,
      "P": 57,
      "Q": 58,
      "R": 59,
      "S": 60,
      "T": 61,
      "U": 62,
      "V": 63,
      "W": 64,
      "X": 65,
      "Y": 66,
      "Z": 67,
      "[": 68,
      "\\": 69,
      "]": 70,
      "^": 71,
      "_": 72,
      "`": 73,
      "a": 74,
      "b": 75,
      "c": 76,
      "d": 77,
      "e": 78,
      "f": 79,
      "g": 80,
      "h": 81,
      "i": 82,
      "j": 83,
      "k": 84,
      "l": 85,
      "m": 86,
      "n": 87,
      "o": 88,
      "p": 89,
      "q": 90,
      "r": 91,
      "s": 92,
      "t": 93,
      "u": 94,
      "v": 95,
      "w": 96,
      "x": 97,
      "y": 98,
      "z": 99,
      "{": 100,
      "|": 101,
      "}": 102,
      "~": 103,
      "¡": 104,
      "¢": 105,
      "£": 106,
      "¤": 107,
      "¥": 108,
      "§": 109,
      "¨": 110,
      "©": 111,
      "ª": 112,
      "«": 113,
      "­": 114,
      "®": 115,
      "°": 116,
      "±": 117,
      "²": 118,
      "³": 119,
      "´": 120,
      "µ": 121,
      "·": 122,
      "º": 123,
      "»": 124,
      "¼": 125,
      "½": 126,
      "¾": 127,
      "¿": 128,
      "À": 129,
      "Á": 130,
      "Â": 131,
      "Ã": 132,
      "Ä": 133,
      "Å": 134,
      "Æ": 135,
      "Ç": 136,
      "É": 137,
      "Ê": 138,
      "Í": 139,
      "Î": 140,
      "Ñ": 141,
      "Ò": 142,
      "Ó": 143,
      "Ô": 144,
      "Õ": 145,
      "Ö": 146,
      "×": 147,
      "Ø": 148,
      "Ú": 149,
      "Ü": 150,
      "Þ": 151,
      "ß": 152,
      "à": 153,
      "á": 154,
      "â": 155,
      "ã": 156,
      "ä": 157,
      "å": 158,
      "æ": 159,
      "ç": 160,
      "è": 161,
      "é": 162,
      "ê": 163,
      "ë": 164,
      "ì": 165,
      "í": 166,
      "î": 167,
      "ï": 168,
      "ð": 169,
      "ñ": 170,
      "ò": 171,
      "ó": 172,
      "ô": 173,
      "õ": 174,
      "ö": 175,
      "÷": 176,
      "ø": 177,
      "ù": 178,
      "ú": 179,
      "‐": 180,
      "–": 181,
      "—": 182,
      "‘": 183,
      "’": 184,
      "“": 185,
      "”": 186,
      "‹": 187,
      "›": 188,
      "⁄": 189,
      "⁰": 190,
      "s</w>": 191,
      ".</w>": 192,
      "o</w>": 193,
      "0</w>": 194,
      ",</w>": 195,
      "!</w>": 196,
      "a</w>": 197,
      "t</w>": 198,
      ":</w>": 199,
      ")</w>": 200,
      "c</w>": 201,
      "r</w>": 202,
      "\"</w>": 203,
      "n</w>": 204,
      "A</w>": 205,
      "O</w>": 206,
      "z</w>": 207,
      "l</w>": 208,
      ";</w>": 209,
      "e</w>": 210,
      "y</w>": 211,
      "m</w>": 212,
      "u</w>": 213,
      "2</w>": 214,
      "/</w>": 215,
      "J</w>": 216,
      "?</w>": 217,
      "k</w>": 218,
      "h</w>": 219,
      "1</w>": 220,
      "></w>": 221,
      "”</w>": 222,
      "6</w>": 223,
      "d</w>": 224,
      "g</w>": 225,
      "'</w>": 226,
      "}</w>": 227,
      "x</w>": 228,
      "É</w>": 229,
      "i</w>": 230,
      "ê</w>": 231,
      "8</w>": 232,
      "7</w>": 233,
      "R</w>": 234,
      "9</w>": 235,
      "é</w>": 236,
      "U</w>": 237,
      "B</w>": 238,
      "C</w>": 239,
      "(</w>": 240,
      "`</w>": 241,
      "K</w>": 242,
      "q</w>": 243,
      "E</w>": 244,
      "4</w>": 245,
      "b</w>": 246,
      "F</w>": 247,
      "%</w>": 248,
      "×</w>": 249,
      "5</w>": 250,
      "S</w>": 251,
      "N</w>": 252,
      "’</w>": 253,
      "3</w>": 254,
      "M</w>": 255,
      "w</w>": 256,
      "°</w>": 257,
      "P</w>": 258,
      "p</w>": 259,
      "á</w>": 260,
      "]</w>": 261,
      "*</w>": 262,
      "T</w>": 263,
      "{</w>": 264,
      "º</w>": 265,
      "L</w>": 266,
      "X</w>": 267,
      "D</w>": 268,
      "f</w>": 269,
      "ô</w>": 270,
      "I</w>": 271,
      "G</w>": 272,
      "v</w>": 273,
      "j</w>": 274,
      "-</w>": 275,
      "Y</w>": 276,
      "H</w>": 277,
      "\\</w>": 278,
      "ã</w>": 279,
      "+</w>": 280,
      "#</w>": 281,
      "V</w>": 282,
      "®</w>": 283,
      "W</w>": 284,
      "í</w>": 285,
      "Z</w>": 286,
      "À</w>": 287,
      "Q</w>": 288,
      "|</w>": 289,
      "¼</w>": 290,
      "ó</w>": 291,
      "$</w>": 292,
      "_</w>": 293,
      "ª</w>": 294,
      "ú</w>": 295,
      "â</w>": 296,
      "—</w>": 297,
      "[</w>": 298,
      "ö</w>": 299,
      "à</w>": 300,
      "=</w>": 301,
      "÷</w>": 302,
      "»</w>": 303,
      "&</w>": 304,
      "³</w>": 305,
      "ù</w>": 306,
      "²</w>": 307,
      "ø</w>": 308,
      "¢</w>": 309,
      "Ã</w>": 310,
      "ë</w>": 311,
      "Á</w>": 312,
      "–</w>": 313,
      "ò</w>": 314,
      "^</w>": 315,
      "@</w>": 316,
      "è</w>": 317,
      "½</w>": 318,
      "\u0014</w>": 319,
      "“</w>": 320,
      "Ó</w>": 321,
      "ß</w>": 322,
      "‹</w>": 323,
      "¥</w>": 324,
      "·</w>": 325,
      "æ</w>": 326,
      "ì</w>": 327,
      "ð</w>": 328,
      "§</w>": 329,
      "ç</w>": 330,
      "Ø</w>": 331,
      "£</w>": 332,
      "¨</w>": 333,
      "<</w>": 334,
      "©</w>": 335,
      "ä</w>": 336,
      "Ü</w>": 337,
      "⁄</w>": 338,
      "ï</w>": 339,
      "~</w>": 340,
      "¤</w>": 341,
      "Ê</w>": 342,
      "¾</w>": 343,
      "Ô</w>": 344,
      "«</w>": 345,
      "±</w>": 346,
      "›</w>": 347,
      "Å</w>": 348,
      "Ö</w>": 349,
      "nt": 350,
      "es": 351,
      "de</w>": 352,
      "co": 353,
      "er": 354,
      "ar": 355,
      "os</w>": 356,
      "as</w>": 357,
      "qu": 358,
      "ent": 359,
      "ad": 360,
      "or": 361,
      "in": 362,
      "an": 363,
      "re": 364,
      "ão</w>": 365,
      "po": 366,
      "en": 367,
      "ci": 368,
      "do</w>": 369,
      "es</w>": 370,
      "al": 371,
      "em</w>": 372,
      "que</w>": 373,
      "is": 374,
      "ar</w>": 375,
      "ri": 376,
      "par": 377,
      "as": 378,
      "am": 379,
      "ti": 380,
      "el": 381,
      "um": 382,
      "se": 383,
      "est": 384,
      "ro": 385,
      "da</w>": 386,
      "aç": 387,
      "di": 388,
      "para</w>": 389,
      "um</w>": 390,
      "com": 391,
      "em": 392,
      "at": 393,
      "so": 394,
      "ant": 395,
      "is</w>": 396,
      "ic": 397,
      "uma</w>": 398,
      "it": 399,
      "gu": 400,
      "st": 401,
      "id": 402,
      "on": 403,
      "er</w>": 404,
      "su": 405,
      "im": 406,
      "ra": 407,
      "res": 408,
      "ente</w>": 409,
      "os": 410,
      "per": 411,
      "o,</w>": 412,
      "con": 413,
      "ou</w>": 414,
      "de": 415,
      "ais</w>": 416,
      "se</w>": 417,
      "pro": 418,
      "com</w>": 419,
      "for": 420,
      "al</w>": 421,
      "ação</w>": 422,
      "ex": 423,
      "ec": 424,
      "ul": 425,
      "ei": 426,
      "am</w>": 427,
      "ut": 428,
      "a,</w>": 429,
      "oc": 430,
      "ur": 431,
      "ado</w>": 432,
      "ol": 433,
      "il": 434,
      "o.</w>": 435,
      "ve": 436,
      "ap": 437,
      "ões</w>": 438,
      "ando</w>": 439,
      "ist": 440,
      "a.</w>": 441,
      "un": 442,
      "tiv": 443,
      "si": 444,
      "na</w>": 445,
      "br": 446,
      "et": 447,
      "des": 448,
      "om": 449,
      "no</w>": 450,
      "av": 451,
      "cont": 452,
      "ada</w>": 453,
      "como</w>": 454,
      "pl": 455,
      "or</w>": 456,
      "ag": 457,
      "ia</w>": 458,
      "ac": 459,
      "cl": 460,
      "ab": 461,
      "so</w>": 462,
      "não</w>": 463,
      "ade</w>": 464,
      "pre": 465,
      "vi": 466,
      "fic": 467,
      "mais</w>": 468,
      "ento</w>": 469,
      "por</w>": 470,
      "us": 471,
      "dos</w>": 472,
      "e,</w>": 473,
      "ra</w>": 474,
      "ver": 475,
      "int": 476,
      "cion": 477,
      "ção</w>": 478,
      "ch": 479,
      "por": 480,
      "ro</w>": 481,
      "sua</w>": 482,
      "to": 483,
      "iz": 484,
      "nci": 485,
      "ári": 486,
      "seu</w>": 487,
      "post": 488,
      "form": 489,
      "fi": 490,
      "cor": 491,
      "segu": 492,
      "são</w>": 493,
      "ev": 494,
      "ados</w>": 495,
      "pode</w>": 496,
      "pr": 497,
      "ig": 498,
      "pod": 499,
      "ocê</w>": 500,
      "eg": 501,
      "fer": 502,
      "ha</w>": 503,
      "ov": 504,
      "das</w>": 505,
      "du": 506,
      "e.</w>": 507,
      "ações</w>": 508,
      "pes": 509,
      "bre</w>": 510,
      "ran": 511,
      "ess": 512,
      "fo": 513,
      "ir</w>": 514,
      "to</w>": 515,
      "col": 516,
      "ter": 517,
      "pe": 518,
      "ênci": 519,
      "sobre</w>": 520,
      "ni": 521,
      "ativ": 522,
      "og": 523,
      "tic": 524,
      "gunt": 525,
      "amente</w>": 526,
      "idade</w>": 527,
      "pri": 528,
      "mente</w>": 529,
      "amb": 530,
      "a:</w>": 531,
      "ça</w>": 532,
      "ém</w>": 533,
      "ud": 534,
      "ai": 535,
      "ante</w>": 536,
      "li": 537,
      "ela</w>": 538,
      "cri": 539,
      "pres": 540,
      "fr": 541,
      "ser</w>": 542,
      "ao</w>": 543,
      "está</w>": 544,
      "us</w>": 545,
      "ho</w>": 546,
      "dis": 547,
      "as,</w>": 548,
      "ele</w>": 549,
      "car": 550,
      "El": 551,
      "out": 552,
      "as.</w>": 553,
      "ores</w>": 554,
      "do": 555,
      "min": 556,
      "ass": 557,
      "az": 558,
      "mo": 559,
      "ru": 560,
      "os,</w>": 561,
      "você</w>": 562,
      "tem": 563,
      "foi</w>": 564,
      "os.</w>": 565,
      "ce": 566,
      "Est": 567,
      "ta</w>": 568,
      "idad": 569,
      "pergunt": 570,
      "cid": 571,
      "pos": 572,
      "tra": 573,
      "pesso": 574,
      "men": 575,
      "cul": 576,
      "lu": 577,
      "vol": 578,
      "po</w>": 579,
      "uit": 580,
      "ament": 581,
      "ser": 582,
      "pon": 583,
      "port": 584,
      "rev": 585,
      "elh": 586,
      "ão,</w>": 587,
      "entes</w>": 588,
      "ma</w>": 589,
      "mas</w>": 590,
      "eu</w>": 591,
      "ase</w>": 592,
      "vel</w>": 593,
      "ob": 594,
      "rel": 595,
      "almente</w>": 596,
      "tor": 597,
      "o:</w>": 598,
      "aj": 599,
      "adas</w>": 600,
      "es,</w>": 601,
      "Qu": 602,
      "muit": 603,
      "fil": 604,
      "ros</w>": 605,
      "es.</w>": 606,
      "nec": 607,
      "mei": 608,
      "end": 609,
      "ência</w>": 610,
      "quant": 611,
      "ger": 612,
      "endo</w>": 613,
      "man": 614,
      "bal": 615,
      "estão</w>": 616,
      "respost": 617,
      "óri": 618,
      "cas": 619,
      "clu": 620,
      "seus</w>": 621,
      "te</w>": 622,
      "eles</w>": 623,
      "ip": 624,
      "re</w>": 625,
      "\".</w>": 626,
      "ais": 627,
      "amento</w>": 628,
      "tr": 629,
      "mer": 630,
      "podem</w>": 631,
      "ens": 632,
      "eit": 633,
      "ot": 634,
      "inform": 635,
      "indo</w>": 636,
      "esp": 637,
      "cos</w>": 638,
      "ambém</w>": 639,
      "-l": 640,
      "ir": 641,
      "antes</w>": 642,
      "melh": 643,
      "ão.</w>": 644,
      "agem</w>": 645,
      "eci": 646,
      "ef": 647,
      "alg": 648,
      "anç": 649,
      "ica</w>": 650,
      "Res": 651,
      "sa</w>": 652,
      "me</w>": 653,
      "íci": 654,
      "cu": 655,
      "inh": 656,
      "Al": 657,
      "aliz": 658,
      "também</w>": 659,
      "ções</w>": 660,
      "op": 661,
      "Com": 662,
      "ed": 663,
      "mo</w>": 664,
      "sent": 665,
      "ras</w>": 666,
      "inter": 667,
      "tem</w>": 668,
      "fun": 669,
      "ca</w>": 670,
      "trabal": 671,
      "esta</w>": 672,
      "ura</w>": 673,
      "equ": 674,
      "mes": 675,
      "envol": 676,
      "suas</w>": 677,
      "-se</w>": 678,
      "ten": 679,
      "faz": 680,
      "nov": 681,
      "ou": 682,
      "tu": 683,
      "pel": 684,
      "co</w>": 685,
      "cons": 686,
      "amos</w>": 687,
      "este</w>": 688,
      "cer": 689,
      "ora</w>": 690,
      "fin": 691,
      "ment": 692,
      "quanto</w>": 693,
      "bl": 694,
      "00": 695,
      "resposta</w>": 696,
      "ter</w>": 697,
      "sa": 698,
      "cam": 699,
      "respon": 700,
      "aram</w>": 701,
      "anto,</w>": 702,
      "gi": 703,
      "sig": 704,
      "cent": 705,
      "seguint": 706,
      "Os</w>": 707,
      "mar": 708,
      "primei": 709,
      "jog": 710,
      "al,</w>": 711,
      "encont": 712,
      "19": 713,
      "No</w>": 714,
      "til": 715,
      "me": 716,
      "ces": 717,
      "cur": 718,
      "Par": 719,
      "nos</w>": 720,
      "go</w>": 721,
      "Es": 722,
      "posi": 723,
      "acion": 724,
      "nific": 725,
      "lev": 726,
      "Em</w>": 727,
      "pa": 728,
      "envolv": 729,
      ").</w>": 730,
      "signific": 731,
      "ários</w>": 732,
      "mis": 733,
      "iment": 734,
      "idades</w>": 735,
      "emos</w>": 736,
      "gan": 737,
      "pois</w>": 738,
      "dad": 739,
      "rar</w>": 740,
      "adi": 741,
      "Respost": 742,
      "As</w>": 743,
      "ajud": 744,
      "s,</w>": 745,
      "inclu": 746,
      "vel": 747,
      "loc": 748,
      "cip": 749,
      "gr": 750,
      "go": 751,
      "cial</w>": 752,
      "ível</w>": 753,
      "conh": 754,
      "an</w>": 755,
      "úmer": 756,
      "Você</w>": 757,
      "al.</w>": 758,
      "aix": 759,
      "ren": 760,
      "ava</w>": 761,
      "torn": 762,
      "ret": 763,
      "pessoas</w>": 764,
      "gar": 765,
      "fornec": 766,
      "eri": 767,
      "cap": 768,
      "veis</w>": 769,
      "ico</w>": 770,
      "ing": 771,
      "entre</w>": 772,
      "impl": 773,
      "Co": 774,
      "ca": 775,
      "s.</w>": 776,
      "indi": 777,
      "preci": 778,
      "vis": 779,
      "ns</w>": 780,
      "informações</w>": 781,
      "tran": 782,
      "ens</w>": 783,
      "quando</w>": 784,
      "urante</w>": 785,
      "algu": 786,
      "cada</w>": 787,
      "and": 788,
      "difer": 789,
      "ário</w>": 790,
      "pas": 791,
      "bri": 792,
      "Ele</w>": 793,
      "he</w>": 794,
      "ort": 795,
      "poss": 796,
      "1.</w>": 797,
      "mento</w>": 798,
      "ju": 799,
      "aqu": 800,
      "escol": 801,
      "tes": 802,
      "2.</w>": 803,
      "ja</w>": 804,
      "bo": 805,
      "eira</w>": 806,
      "pela</w>": 807,
      "inha</w>": 808,
      "ve</w>": 809,
      "númer": 810,
      "muito</w>": 811,
      "cidade</w>": 812,
      "pol": 813,
      "enas</w>": 814,
      "quer</w>": 815,
      "nas</w>": 816,
      "seguinte</w>": 817,
      "hom": 818,
      "vez</w>": 819,
      "frase</w>": 820,
      "hist": 821,
      "imento</w>": 822,
      "atu": 823,
      "que": 824,
      "ne": 825,
      "mai": 826,
      "ider": 827,
      "mi": 828,
      "ven": 829,
      "so,</w>": 830,
      "anos</w>": 831,
      "exper": 832,
      "rav": 833,
      "Per": 834,
      "bi": 835,
      "fl": 836,
      "sab": 837,
      "imp": 838,
      "ano</w>": 839,
      "te": 840,
      "ina</w>": 841,
      "esti": 842,
      "neg": 843,
      "a:": 844,
      "ber": 845,
      "val": 846,
      "clar": 847,
      "ador</w>": 848,
      "eiro</w>": 849,
      "pergunta</w>": 850,
      "Is": 851,
      "pass": 852,
      "éri": 853,
      "el</w>": 854,
      "mul": 855,
      "vid": 856,
      "Um</w>": 857,
      "ipó": 858,
      "tar": 859,
      "pelo</w>": 860,
      "ipótes": 861,
      "3.</w>": 862,
      "históri": 863,
      "á-l": 864,
      "Con": 865,
      "Ch": 866,
      "enh": 867,
      "águ": 868,
      "ific": 869,
      "apa</w>": 870,
      "Como</w>": 871,
      "fal": 872,
      "ável</w>": 873,
      "son": 874,
      "20": 875,
      "trans": 876,
      "ista</w>": 877,
      "le": 878,
      "\",</w>": 879,
      "diz": 880,
      "ece</w>": 881,
      "mov": 882,
      "soci": 883,
      "duz": 884,
      "ver</w>": 885,
      "gran": 886,
      "ari": 887,
      "ato</w>": 888,
      "vers": 889,
      "prin": 890,
      "tot": 891,
      "base</w>": 892,
      "número</w>": 893,
      "fazer</w>": 894,
      "ão:</w>": 895,
      "pró": 896,
      "lon": 897,
      "qual": 898,
      "ís": 899,
      "dia</w>": 900,
      "trabalh": 901,
      "afi": 902,
      "pal": 903,
      "ál": 904,
      "umas</w>": 905,
      "In": 906,
      "ença</w>": 907,
      "bu": 908,
      "tempo</w>": 909,
      "Para</w>": 910,
      "cal": 911,
      "Por</w>": 912,
      "tos</w>": 913,
      "comun": 914,
      "revis": 915,
      "pi": 916,
      "pont": 917,
      "ço</w>": 918,
      "cesso</w>": 919,
      "adicion": 920,
      "crev": 921,
      "Resposta:": 922,
      "Isso</w>": 923,
      "pul": 924,
      "import": 925,
      "Et": 926,
      "der": 927,
      "or,</w>": 928,
      "vez": 929,
      "átic": 930,
      "Se</w>": 931,
      "dei": 932,
      "parti": 933,
      "ví": 934,
      "entanto,</w>": 935,
      "todos</w>": 936,
      "ão": 937,
      "poder": 938,
      "cham": 939,
      "enquanto</w>": 940,
      "vida</w>": 941,
      "Etapa</w>": 942,
      "fras": 943,
      "rece": 944,
      "sit": 945,
      "princip": 946,
      "fam": 947,
      "necess": 948,
      "dut": 949,
      "sub": 950,
      "fa": 951,
      "durante</w>": 952,
      "dent": 953,
      "adores</w>": 954,
      "Uma</w>": 955,
      "positiv": 956,
      "hipótes": 957,
      "espe": 958,
      "outros</w>": 959,
      "come": 960,
      "alguns</w>": 961,
      "ument": 962,
      "tri": 963,
      "mant": 964,
      "der</w>": 965,
      "sol": 966,
      "premis": 967,
      "onde</w>": 968,
      "ord": 969,
      "conheci": 970,
      "fici": 971,
      "Pergunt": 972,
      "estr": 973,
      "on</w>": 974,
      "4.</w>": 975,
      "empl": 976,
      "ini": 977,
      "met": 978,
      "tal": 979,
      "ado,</w>": 980,
      "tur": 981,
      "forma</w>": 982,
      "exto</w>": 983,
      "anh": 984,
      "até</w>": 985,
      "és</w>": 986,
      "Eles</w>": 987,
      "sist": 988,
      "aut": 989,
      "termin": 990,
      "up": 991,
      "Não</w>": 992,
      "mé": 993,
      "reg": 994,
      "comp": 995,
      "ido</w>": 996,
      "produt": 997,
      "rest": 998,
      "Eu</w>": 999,
      "mos</w>": 1000,
      "ult": 1001,
      "ain": 1002,
      "apenas</w>": 1003,
      "e:</w>": 1004,
      "del": 1005,
      "ança</w>": 1006,
      "espec": 1007,
      "xim": 1008,
      "aos</w>": 1009,
      "era</w>": 1010,
      "ram</w>": 1011,
      "exempl": 1012,
      "ós</w>": 1013,
      "00</w>": 1014,
      "Re": 1015,
      "estava</w>": 1016,
      "êm</w>": 1017,
      "sem</w>": 1018,
      "stru": 1019,
      "ências</w>": 1020,
      "foram</w>": 1021,
      "isso</w>": 1022,
      "es:</w>": 1023,
      "cr": 1024,
      "Esta</w>": 1025,
      "ener": 1026,
      "compl": 1027,
      "fav": 1028,
      "ali": 1029,
      "expl": 1030,
      "ast": 1031,
      "empres": 1032,
      "mun": 1033,
      "ús": 1034,
      "jet": 1035,
      "experi": 1036,
      "algumas</w>": 1037,
      "sos</w>": 1038,
      "anc": 1039,
      "lin": 1040,
      "mesmo</w>": 1041,
      "sto</w>": 1042,
      "An": 1043,
      "iv": 1044,
      "lar": 1045,
      "mud": 1046,
      "mor": 1047,
      "),</w>": 1048,
      "medi": 1049,
      "filme</w>": 1050,
      "af": 1051,
      "há</w>": 1052,
      "bol": 1053,
      "ema</w>": 1054,
      "amig": 1055,
      "nom": 1056,
      "mat": 1057,
      "lic": 1058,
      "her": 1059,
      "feit": 1060,
      "especi": 1061,
      "art": 1062,
      "ação.</w>": 1063,
      "gram": 1064,
      "liv": 1065,
      "enci": 1066,
      "ado.</w>": 1067,
      "equip": 1068,
      "De": 1069,
      "Pergunta:</w>": 1070,
      "podemos</w>": 1071,
      "ação,</w>": 1072,
      "junt": 1073,
      "ofer": 1074,
      "ânci": 1075,
      "no": 1076,
      "mil": 1077,
      "total</w>": 1078,
      "quis": 1079,
      "segun": 1080,
      "palav": 1081,
      "ambi": 1082,
      "abil": 1083,
      "dois</w>": 1084,
      "ês</w>": 1085,
      "áre": 1086,
      "inf": 1087,
      "arti": 1088,
      "ític": 1089,
      "ite</w>": 1090,
      "ais.</w>": 1091,
      "ais,</w>": 1092,
      "tent": 1093,
      "ino</w>": 1094,
      "ças</w>": 1095,
      "eia</w>": 1096,
      "ativo</w>": 1097,
      "água</w>": 1098,
      "inv": 1099,
      "Su": 1100,
      "duas</w>": 1101,
      "za</w>": 1102,
      "íveis</w>": 1103,
      "dire": 1104,
      "aria</w>": 1105,
      "tom": 1106,
      "corre": 1107,
      "deix": 1108,
      "im,</w>": 1109,
      "menos</w>": 1110,
      "desco": 1111,
      "sal": 1112,
      "ar.</w>": 1113,
      "tul": 1114,
      "especí": 1115,
      "encontrar</w>": 1116,
      "prov": 1117,
      "têm</w>": 1118,
      "ador": 1119,
      "hor": 1120,
      "usar</w>": 1121,
      "pergunta:</w>": 1122,
      "então</w>": 1123,
      "consider": 1124,
      "Ent": 1125,
      "ing</w>": 1126,
      "bem</w>": 1127,
      "dest": 1128,
      "impac": 1129,
      "Com</w>": 1130,
      "grande</w>": 1131,
      "ajudar</w>": 1132,
      "tre": 1133,
      "bre": 1134,
      "str": 1135,
      "melhor</w>": 1136,
      "çõ": 1137,
      "trabalho</w>": 1138,
      "ra,</w>": 1139,
      "5.</w>": 1140,
      "pen": 1141,
      "disso,</w>": 1142,
      "apo": 1143,
      "Ag": 1144,
      "can": 1145,
      "parte</w>": 1146,
      "ra.</w>": 1147,
      "ele": 1148,
      "gra": 1149,
      "depois</w>": 1150,
      "porque</w>": 1151,
      "En": 1152,
      "compar": 1153,
      "ainda</w>": 1154,
      "fíci": 1155,
      "ement": 1156,
      "às</w>": 1157,
      "árias</w>": 1158,
      "lo": 1159,
      "ân": 1160,
      "hum": 1161,
      "embr": 1162,
      "sti": 1163,
      "Jo": 1164,
      "possível</w>": 1165,
      "atrav": 1166,
      "tar</w>": 1167,
      "relacion": 1168,
      "desenvolv": 1169,
      "deci": 1170,
      "hipótese</w>": 1171,
      "eram</w>": 1172,
      "gru": 1173,
      "saú": 1174,
      "deve</w>": 1175,
      "vezes</w>": 1176,
      "inu": 1177,
      "sion": 1178,
      "Qual</w>": 1179,
      "ecer</w>": 1180,
      "has</w>": 1181,
      "result": 1182,
      "as:</w>": 1183,
      "ta": 1184,
      "bar": 1185,
      "ban": 1186,
      "fornecer</w>": 1187,
      "Ex": 1188,
      "começ": 1189,
      "nos": 1190,
      "outras</w>": 1191,
      "gar</w>": 1192,
      "pens": 1193,
      "US</w>": 1194,
      "icas</w>": 1195,
      "melhor": 1196,
      "pú": 1197,
      "precis": 1198,
      "istas</w>": 1199,
      "anim": 1200,
      "pec": 1201,
      "Além</w>": 1202,
      "mús": 1203,
      "rá": 1204,
      "tec": 1205,
      "aci": 1206,
      "muitas</w>": 1207,
      "aplic": 1208,
      "organ": 1209,
      "úl": 1210,
      "apoi": 1211,
      "her</w>": 1212,
      "através</w>": 1213,
      "vido</w>": 1214,
      "confi": 1215,
      "od": 1216,
      "esse</w>": 1217,
      "cres": 1218,
      "pap": 1219,
      "últi": 1220,
      "ribu": 1221,
      "cidad": 1222,
      "pequ": 1223,
      "cois": 1224,
      "gia</w>": 1225,
      "Este</w>": 1226,
      "estar</w>": 1227,
      "ro,</w>": 1228,
      "cin": 1229,
      "anças</w>": 1230,
      "ej": 1231,
      "declar": 1232,
      "homem</w>": 1233,
      "diferentes</w>": 1234,
      "ito</w>": 1235,
      "esper": 1236,
      "determin": 1237,
      "au": 1238,
      "ho": 1239,
      "super": 1240,
      "edi": 1241,
      "bora</w>": 1242,
      "agens</w>": 1243,
      "primeiro</w>": 1244,
      "ar,</w>": 1245,
      "incluindo</w>": 1246,
      "ín": 1247,
      "va": 1248,
      "mencion": 1249,
      "poderia</w>": 1250,
      "Pas": 1251,
      "fe": 1252,
      "ind": 1253,
      "ificar</w>": 1254,
      "processo</w>": 1255,
      "primeira</w>": 1256,
      "cli": 1257,
      "bat": 1258,
      "pos</w>": 1259,
      "servi": 1260,
      "emente</w>": 1261,
      "olog": 1262,
      "garant": 1263,
      "ição</w>": 1264,
      "vários</w>": 1265,
      "Port": 1266,
      "longo</w>": 1267,
      "funcion": 1268,
      "popul": 1269,
      "apar": 1270,
      "tinha</w>": 1271,
      "pessoa</w>": 1272,
      "lim": 1273,
      "ria</w>": 1274,
      "ços</w>": 1275,
      "idos</w>": 1276,
      "itar</w>": 1277,
      "revisão</w>": 1278,
      "continu": 1279,
      "qualquer</w>": 1280,
      "ay": 1281,
      "os:</w>": 1282,
      "prof": 1283,
      "aument": 1284,
      "bil": 1285,
      "probl": 1286,
      "Ela</w>": 1287,
      "apres": 1288,
      "gul": 1289,
      "assi": 1290,
      "Pro": 1291,
      "fut": 1292,
      "ítul": 1293,
      "Passo</w>": 1294,
      "verdad": 1295,
      "person": 1296,
      "abel": 1297,
      "itos</w>": 1298,
      "le</w>": 1299,
      "amentos</w>": 1300,
      "a.": 1301,
      "program": 1302,
      "veis": 1303,
      "2:</w>": 1304,
      "dade</w>": 1305,
      "história</w>": 1306,
      "Portanto,</w>": 1307,
      "emo": 1308,
      "1:</w>": 1309,
      "quer": 1310,
      "raz": 1311,
      "alis": 1312,
      "Aqu": 1313,
      "gover": 1314,
      "constru": 1315,
      "famí": 1316,
      "maior</w>": 1317,
      "emas</w>": 1318,
      "ori": 1319,
      "red": 1320,
      "eve</w>": 1321,
      "premissa</w>": 1322,
      "apresent": 1323,
      "clus": 1324,
      "açõ": 1325,
      "tura</w>": 1326,
      "rig": 1327,
      "acor": 1328,
      "investi": 1329,
      "criar</w>": 1330,
      "201": 1331,
      "escri": 1332,
      "nio</w>": 1333,
      "vem</w>": 1334,
      "eta</w>": 1335,
      "detal": 1336,
      "0,": 1337,
      "aju": 1338,
      "receb": 1339,
      "apren": 1340,
      "ida</w>": 1341,
      "poten": 1342,
      "co,</w>": 1343,
      "co.</w>": 1344,
      "passo</w>": 1345,
      "baix": 1346,
      "Mar": 1347,
      "iu</w>": 1348,
      "apro": 1349,
      "capa": 1350,
      "saúde</w>": 1351,
      "pu": 1352,
      "casa</w>": 1353,
      "redi": 1354,
      "pesquis": 1355,
      "dist": 1356,
      "sem": 1357,
      "usu": 1358,
      "ender</w>": 1359,
      "dem": 1360,
      "mã": 1361,
      "be": 1362,
      "Ao</w>": 1363,
      "ro.</w>": 1364,
      "200": 1365,
      "ún": 1366,
      "Quando</w>": 1367,
      "polític": 1368,
      "aliment": 1369,
      "cad": 1370,
      "The</w>": 1371,
      "tiliz": 1372,
      "ris": 1373,
      "negativ": 1374,
      "ando": 1375,
      "detalh": 1376,
      "not": 1377,
      "contexto</w>": 1378,
      "a-": 1379,
      "Se": 1380,
      "ident": 1381,
      "áveis</w>": 1382,
      "ável": 1383,
      "ora,</w>": 1384,
      "ará</w>": 1385,
      "esses</w>": 1386,
      "oso</w>": 1387,
      "afir": 1388,
      "a?</w>": 1389,
      "rad": 1390,
      "As": 1391,
      "Em": 1392,
      "film": 1393,
      "edade</w>": 1394,
      "recur": 1395,
      "ás": 1396,
      "ância</w>": 1397,
      "fre": 1398,
      "uni": 1399,
      "siv": 1400,
      "essas</w>": 1401,
      "desem": 1402,
      "etiv": 1403,
      "ral</w>": 1404,
      "Aqui</w>": 1405,
      "Ar": 1406,
      "favor,</w>": 1407,
      "organiz": 1408,
      "e-": 1409,
      "ares</w>": 1410,
      "gl": 1411,
      "própri": 1412,
      "dep": 1413,
      "dados</w>": 1414,
      "importante</w>": 1415,
      "projet": 1416,
      "..": 1417,
      "Un": 1418,
      "plant": 1419,
      "trat": 1420,
      "outro</w>": 1421,
      "pequen": 1422,
      "experiência</w>": 1423,
      "orig": 1424,
      "duzir</w>": 1425,
      "cas</w>": 1426,
      "taref": 1427,
      "dução</w>": 1428,
      "ita</w>": 1429,
      "ati": 1430,
      "ação:</w>": 1431,
      "uso</w>": 1432,
      "har</w>": 1433,
      "situ": 1434,
      "fat": 1435,
      "tel": 1436,
      "quest": 1437,
      "arm": 1438,
      "dentro</w>": 1439,
      "próxim": 1440,
      "vamos</w>": 1441,
      "dizer</w>": 1442,
      "sas</w>": 1443,
      "vo": 1444,
      "econ": 1445,
      "nor": 1446,
      "natu": 1447,
      "so.</w>": 1448,
      "energia</w>": 1449,
      "tecn": 1450,
      "vídu": 1451,
      "avam</w>": 1452,
      "present": 1453,
      "agem": 1454,
      "áci": 1455,
      "sendo</w>": 1456,
      "contra</w>": 1457,
      "Sent": 1458,
      "efeit": 1459,
      "específic": 1460,
      "disse</w>": 1461,
      "cheg": 1462,
      "papel</w>": 1463,
      "20</w>": 1464,
      "event": 1465,
      "Am": 1466,
      "indivídu": 1467,
      "responda</w>": 1468,
      "cen": 1469,
      "ado": 1470,
      "usando</w>": 1471,
      "médi": 1472,
      "ada.</w>": 1473,
      "á-lo</w>": 1474,
      "várias</w>": 1475,
      "todo</w>": 1476,
      "localiz": 1477,
      "serv": 1478,
      "part": 1479,
      "y,</w>": 1480,
      "usa</w>": 1481,
      "desafi": 1482,
      "ana</w>": 1483,
      "ins": 1484,
      "ga</w>": 1485,
      "diret": 1486,
      "erra</w>": 1487,
      "tas</w>": 1488,
      "ard": 1489,
      "seman": 1490,
      "anto</w>": 1491,
      "10</w>": 1492,
      "após</w>": 1493,
      "já</w>": 1494,
      "sistema</w>": 1495,
      "tir</w>": 1496,
      "nome</w>": 1497,
      "significativ": 1498,
      "impacto</w>": 1499,
      "tro": 1500,
      "três</w>": 1501,
      "ang": 1502,
      "lut": 1503,
      "inici": 1504,
      "significa</w>": 1505,
      "Agora,</w>": 1506,
      "pou": 1507,
      "oria</w>": 1508,
      "ras": 1509,
      "contro": 1510,
      "ili": 1511,
      "avi": 1512,
      "pan": 1513,
      "ak": 1514,
      "bon": 1515,
      "gost": 1516,
      "sido</w>": 1517,
      "bas": 1518,
      "públ": 1519,
      "ên": 1520,
      "equipe</w>": 1521,
      "ei</w>": 1522,
      "conclu": 1523,
      "ocup": 1524,
      "realiz": 1525,
      "manter</w>": 1526,
      "vai</w>": 1527,
      "compr": 1528,
      "tão</w>": 1529,
      "fund": 1530,
      "seguran": 1531,
      "suger": 1532,
      "Na</w>": 1533,
      "ente.</w>": 1534,
      "exist": 1535,
      "grupo</w>": 1536,
      "sust": 1537,
      "mente,</w>": 1538,
      "pir": 1539,
      "garantir</w>": 1540,
      "ada,</w>": 1541,
      "ções:</w>": 1542,
      "utiliz": 1543,
      "adr": 1544,
      "fri": 1545,
      "contribu": 1546,
      "atos</w>": 1547,
      "étic": 1548,
      "acordo</w>": 1549,
      "ave</w>": 1550,
      "rou</w>": 1551,
      "depend": 1552,
      "adequ": 1553,
      "simpl": 1554,
      "ce</w>": 1555,
      "faz</w>": 1556,
      "vari": 1557,
      "leg": 1558,
      "declaração</w>": 1559,
      "cou</w>": 1560,
      "bem": 1561,
      "hi": 1562,
      "descobri": 1563,
      "lugar</w>": 1564,
      "ext": 1565,
      "prátic": 1566,
      "mist": 1567,
      "amer": 1568,
      "tecnolog": 1569,
      "cé": 1570,
      "refer": 1571,
      "teve</w>": 1572,
      "tipo</w>": 1573,
      "qual</w>": 1574,
      "perm": 1575,
      "car</w>": 1576,
      "bli": 1577,
      "3:</w>": 1578,
      "ício</w>": 1579,
      "mundo</w>": 1580,
      "plan": 1581,
      "complet": 1582,
      "Joh": 1583,
      "lig": 1584,
      "ach": 1585,
      "uras</w>": 1586,
      "cat": 1587,
      "área</w>": 1588,
      "seja</w>": 1589,
      "sou</w>": 1590,
      "ível": 1591,
      "000</w>": 1592,
      "dinh": 1593,
      "ór": 1594,
      "estud": 1595,
      "compre": 1596,
      "Mo": 1597,
      "18": 1598,
      "stitu": 1599,
      "opções</w>": 1600,
      "10": 1601,
      "séri": 1602,
      "olh": 1603,
      "devido</w>": 1604,
      "muitos</w>": 1605,
      "alun": 1606,
      "bin": 1607,
      "local</w>": 1608,
      "jetiv": 1609,
      "hav": 1610,
      "abor": 1611,
      "nacion": 1612,
      "má": 1613,
      "alter": 1614,
      "fra": 1615,
      "Car": 1616,
      "frent": 1617,
      "pag": 1618,
      "fac": 1619,
      "resol": 1620,
      "corret": 1621,
      "umento</w>": 1622,
      "esc": 1623,
      "cicl": 1624,
      "Escol": 1625,
      "To": 1626,
      "fei": 1627,
      "estrut": 1628,
      "prot": 1629,
      "seria</w>": 1630,
      "Sim,</w>": 1631,
      "informação</w>": 1632,
      "a\".</w>": 1633,
      "deu</w>": 1634,
      "Resposta:</w>": 1635,
      "todas</w>": 1636,
      "duc": 1637,
      "Depois</w>": 1638,
      "coloc": 1639,
      "ata</w>": 1640,
      "pre</w>": 1641,
      "tempo": 1642,
      "inho</w>": 1643,
      "condi": 1644,
      "essa</w>": 1645,
      "Então,</w>": 1646,
      "posição</w>": 1647,
      "responder</w>": 1648,
      "font": 1649,
      "final</w>": 1650,
      "Embora</w>": 1651,
      "espaç": 1652,
      "graf": 1653,
      "preço</w>": 1654,
      "minut": 1655,
      "osa</w>": 1656,
      "diz</w>": 1657,
      "sufici": 1658,
      "lí": 1659,
      "tax": 1660,
      "abri": 1661,
      "en</w>": 1662,
      "ér": 1663,
      "erv": 1664,
      "acont": 1665,
      "resta": 1666,
      "ben": 1667,
      "nenh": 1668,
      "ajuda</w>": 1669,
      "mover</w>": 1670,
      "origin": 1671,
      "novo</w>": 1672,
      "efic": 1673,
      "uro": 1674,
      "realmente</w>": 1675,
      "des</w>": 1676,
      "idade.</w>": 1677,
      "ida,</w>": 1678,
      "recursos</w>": 1679,
      "ias</w>": 1680,
      "abord": 1681,
      "profis": 1682,
      "questão</w>": 1683,
      "Vamos</w>": 1684,
      "encontr": 1685,
      "Pre": 1686,
      "defin": 1687,
      "influ": 1688,
      "dar</w>": 1689,
      "mon": 1690,
      "segunda</w>": 1691,
      "compartil": 1692,
      "ístic": 1693,
      "ária</w>": 1694,
      "atóri": 1695,
      "gel": 1696,
      "conclus": 1697,
      "música</w>": 1698,
      "orn": 1699,
      "chamado</w>": 1700,
      "eiros</w>": 1701,
      "fort": 1702,
      "do.</w>": 1703,
      "Le": 1704,
      "ge</w>": 1705,
      "sur": 1706,
      "americ": 1707,
      "contr": 1708,
      "Di": 1709,
      "6.</w>": 1710,
      "óg": 1711,
      "lia</w>": 1712,
      "caminh": 1713,
      "fora</w>": 1714,
      "enfrent": 1715,
      "valor</w>": 1716,
      "habil": 1717,
      "estu": 1718,
      "cimento</w>": 1719,
      "Bo": 1720,
      "posso</w>": 1721,
      "rit": 1722,
      "empre": 1723,
      "represent": 1724,
      "ata": 1725,
      "ados.</w>": 1726,
      "Des": 1727,
      "fornece</w>": 1728,
      "a?": 1729,
      "membr": 1730,
      "partir</w>": 1731,
      "desenvolvimento</w>": 1732,
      "exemplo,</w>": 1733,
      "Sh": 1734,
      "sustent": 1735,
      "50</w>": 1736,
      "classi": 1737,
      "creva</w>": 1738,
      "enção</w>": 1739,
      "jov": 1740,
      "alguma</w>": 1741,
      "ciais</w>": 1742,
      "usti": 1743,
      "ich": 1744,
      "estiv": 1745,
      "aça</w>": 1746,
      "ram": 1747,
      "minha</w>": 1748,
      "artigo</w>": 1749,
      "most": 1750,
      "ente,</w>": 1751,
      "jogo</w>": 1752,
      "san": 1753,
      "texto</w>": 1754,
      "expres": 1755,
      "Sentença</w>": 1756,
      "s.": 1757,
      "ôn": 1758,
      "eiras</w>": 1759,
      "Enquanto</w>": 1760,
      "uro</w>": 1761,
      "Mas</w>": 1762,
      "Col": 1763,
      "forn": 1764,
      "melhorar</w>": 1765,
      "opção</w>": 1766,
      "er,</w>": 1767,
      "nova</w>": 1768,
      "culo</w>": 1769,
      "pedi": 1770,
      "objetiv": 1771,
      "cru": 1772,
      "ill": 1773,
      "ális": 1774,
      "materi": 1775,
      "meu</w>": 1776,
      "transport": 1777,
      "Ident": 1778,
      "profission": 1779,
      "sentimento</w>": 1780,
      "dio</w>": 1781,
      "éc": 1782,
      "oper": 1783,
      "sempre</w>": 1784,
      "esfor": 1785,
      "regi": 1786,
      "classific": 1787,
      "fel": 1788,
      "dias</w>": 1789,
      "inas</w>": 1790,
      "Uni": 1791,
      "anos,</w>": 1792,
      "estil": 1793,
      "comunic": 1794,
      "Gu": 1795,
      "principal</w>": 1796,
      "viv": 1797,
      "nto</w>": 1798,
      "cos,</w>": 1799,
      "educ": 1800,
      "descrev": 1801,
      "levar</w>": 1802,
      "recom": 1803,
      "Nov": 1804,
      "or.</w>": 1805,
      "família</w>": 1806,
      "sões</w>": 1807,
      "idade,</w>": 1808,
      "ár": 1809,
      "obter</w>": 1810,
      "ave": 1811,
      "is,</w>": 1812,
      "rei": 1813,
      "Estados</w>": 1814,
      "cab": 1815,
      "ampl": 1816,
      "determinar</w>": 1817,
      "gen": 1818,
      "precisa</w>": 1819,
      "custo</w>": 1820,
      "escrit": 1821,
      "lanç": 1822,
      "nas": 1823,
      "forneci": 1824,
      "er.</w>": 1825,
      "avel": 1826,
      "segurança</w>": 1827,
      "ção,</w>": 1828,
      "éci": 1829,
      "entemente</w>": 1830,
      "idas</w>": 1831,
      "lingu": 1832,
      "relação</w>": 1833,
      "concluir</w>": 1834,
      "mont": 1835,
      "empresas</w>": 1836,
      "estes</w>": 1837,
      "model": 1838,
      "sequ": 1839,
      "inst": 1840,
      "paí": 1841,
      "avali": 1842,
      "áveis": 1843,
      "fez</w>": 1844,
      "sim": 1845,
      "conce": 1846,
      "gue</w>": 1847,
      "estabel": 1848,
      "Int": 1849,
      "ê-l": 1850,
      "algo</w>": 1851,
      "preocup": 1852,
      "pouco</w>": 1853,
      "anális": 1854,
      "palavras</w>": 1855,
      "res</w>": 1856,
      "diver": 1857,
      "mesma</w>": 1858,
      "meio</w>": 1859,
      "ticos</w>": 1860,
      "r.</w>": 1861,
      "cost": 1862,
      "caix": 1863,
      "implic": 1864,
      "pra": 1865,
      "cel": 1866,
      "dom": 1867,
      "sor": 1868,
      "ped": 1869,
      "ativas</w>": 1870,
      "arr": 1871,
      "bac": 1872,
      "im</w>": 1873,
      "mag": 1874,
      "produtos</w>": 1875,
      "consegu": 1876,
      "lado</w>": 1877,
      "ção.</w>": 1878,
      "ativa</w>": 1879,
      "oport": 1880,
      "doc": 1881,
      "mom": 1882,
      "ados,</w>": 1883,
      "divers": 1884,
      "experiment": 1885,
      "did": 1886,
      "frequ": 1887,
      "30</w>": 1888,
      "ambiente</w>": 1889,
      "dada</w>": 1890,
      "propri": 1891,
      "só</w>": 1892,
      "son</w>": 1893,
      "alc": 1894,
      "parece</w>": 1895,
      "perto</w>": 1896,
      "perman": 1897,
      "forne": 1898,
      "ficar</w>": 1899,
      "den": 1900,
      "geral</w>": 1901,
      "ine</w>": 1902,
      "cust": 1903,
      "outra</w>": 1904,
      "ismo</w>": 1905,
      "interess": 1906,
      "capacidade</w>": 1907,
      "particip": 1908,
      "Po": 1909,
      "grav": 1910,
      "trein": 1911,
      "ganh": 1912,
      "o.": 1913,
      "descri": 1914,
      "milh": 1915,
      "feito</w>": 1916,
      "mulher": 1917,
      "reduzir</w>": 1918,
      "eix": 1919,
      "agora</w>": 1920,
      "resum": 1921,
      "corpor": 1922,
      "eú": 1923,
      "sim</w>": 1924,
      "tenho</w>": 1925,
      "arqu": 1926,
      "EU": 1927,
      "mulher</w>": 1928,
      "100</w>": 1929,
      "sen": 1930,
      "afet": 1931,
      "cultu": 1932,
      "ual</w>": 1933,
      "coisas</w>": 1934,
      "frases</w>": 1935,
      "ron": 1936,
      "principais</w>": 1937,
      "Fran": 1938,
      "dispon": 1939,
      "solu": 1940,
      "ete</w>": 1941,
      "avelmente</w>": 1942,
      "sul": 1943,
      "emocion": 1944,
      "óci": 1945,
      "dinheiro</w>": 1946,
      "liber": 1947,
      "corpo</w>": 1948,
      "conhecido</w>": 1949,
      "úst": 1950,
      "Cont": 1951,
      "ert": 1952,
      "conteú": 1953,
      "Dada</w>": 1954,
      "rais</w>": 1955,
      "até": 1956,
      "sucesso</w>": 1957,
      "foc": 1958,
      "let": 1959,
      "explor": 1960,
      "For": 1961,
      "alguém</w>": 1962,
      "tiva</w>": 1963,
      "devem</w>": 1964,
      "sex": 1965,
      "série</w>": 1966,
      "ecem</w>": 1967,
      "assu": 1968,
      "perí": 1969,
      "descobrir</w>": 1970,
      "indúst": 1971,
      "alt": 1972,
      "eceu</w>": 1973,
      "...</w>": 1974,
      "almente,</w>": 1975,
      "temper": 1976,
      "indivíduos</w>": 1977,
      "propor": 1978,
      "ebo": 1979,
      "efici": 1980,
      "volta</w>": 1981,
      "enças</w>": 1982,
      "pará": 1983,
      "atro</w>": 1984,
      "ícios</w>": 1985,
      "desde</w>": 1986,
      "atis": 1987,
      "sobre": 1988,
      "oportun": 1989,
      "uv": 1990,
      "trá": 1991,
      "recomend": 1992,
      "alidade</w>": 1993,
      "igu": 1994,
      "pid": 1995,
      "caso</w>": 1996,
      "leit": 1997,
      "maneira</w>": 1998,
      "fica</w>": 1999,
      "amente.</w>": 2000,
      "é:": 2001,
      "crianças</w>": 2002,
      "199": 2003,
      "voc": 2004,
      "opções:</w>": 2005,
      "coz": 2006,
      "Cor": 2007,
      "Fo": 2008,
      "acter": 2009,
      "sin": 2010,
      "oriz": 2011,
      "Identificar</w>": 2012,
      "he": 2013,
      "geralmente</w>": 2014,
      "proc": 2015,
      "amente,</w>": 2016,
      "cient": 2017,
      "pelos</w>": 2018,
      "semelh": 2019,
      "acredi": 2020,
      "rot": 2021,
      "aces": 2022,
      "clim": 2023,
      "beb": 2024,
      "St": 2025,
      "corr": 2026,
      "algum</w>": 2027,
      "ítulo</w>": 2028,
      "bem-": 2029,
      "lan": 2030,
      "escolha</w>": 2031,
      "cant": 2032,
      "cit": 2033,
      "cos.</w>": 2034,
      "abr": 2035,
      "assin": 2036,
      "anteri": 2037,
      "aumento</w>": 2038,
      "eir": 2039,
      "mol": 2040,
      "empresa</w>": 2041,
      "vit": 2042,
      "anos.</w>": 2043,
      "osos</w>": 2044,
      "merc": 2045,
      "tornar</w>": 2046,
      "in</w>": 2047,
      "governo</w>": 2048,
      "ôni": 2049,
      "segundo</w>": 2050,
      "A,</w>": 2051,
      "Ger": 2052,
      "caracter": 2053,
      "a\"</w>": 2054,
      "idente</w>": 2055,
      "detalhes</w>": 2056,
      "ínio</w>": 2057,
      "aspec": 2058,
      "ses</w>": 2059,
      "sentença</w>": 2060,
      "\"Um</w>": 2061,
      "miti": 2062,
      "problemas</w>": 2063,
      "compro": 2064,
      "Respon": 2065,
      "Escreva</w>": 2066,
      "que,</w>": 2067,
      "-ch": 2068,
      "usado</w>": 2069,
      "cuid": 2070,
      "flor": 2071,
      "lugar": 2072,
      "imentos</w>": 2073,
      "ub": 2074,
      "é:</w>": 2075,
      "atura</w>": 2076,
      "lit": 2077,
      "De</w>": 2078,
      "oferece</w>": 2079,
      "e.": 2080,
      "concent": 2081,
      "ros": 2082,
      "cre": 2083,
      "12</w>": 2084,
      "alunos</w>": 2085,
      "sel": 2086,
      "correta</w>": 2087,
      "und": 2088,
      "eja</w>": 2089,
      "sob</w>": 2090,
      "premiss": 2091,
      "quar": 2092,
      "quantidade</w>": 2093,
      "fazendo</w>": 2094,
      "antig": 2095,
      "perce": 2096,
      "encial</w>": 2097,
      "dig": 2098,
      "mort": 2099,
      "Escolha</w>": 2100,
      "limit": 2101,
      "exig": 2102,
      "ros.</w>": 2103,
      "bus": 2104,
      "Ad": 2105,
      "mentos</w>": 2106,
      "jar": 2107,
      "produto</w>": 2108,
      "estado</w>": 2109,
      "procur": 2110,
      "rament": 2111,
      "ate</w>": 2112,
      "arem</w>": 2113,
      "sof": 2114,
      "téc": 2115,
      "def": 2116,
      "qualidade</w>": 2117,
      "estavam</w>": 2118,
      "erc": 2119,
      ".000</w>": 2120,
      "combin": 2121,
      "ando-": 2122,
      "entes.</w>": 2123,
      "quem</w>": 2124,
      "álb": 2125,
      "comida</w>": 2126,
      "exemplos</w>": 2127,
      "aplicativo</w>": 2128,
      "dado</w>": 2129,
      "adas.</w>": 2130,
      "raci": 2131,
      "tor</w>": 2132,
      "novas</w>": 2133,
      "torno</w>": 2134,
      "frut": 2135,
      "seguida,</w>": 2136,
      "log": 2137,
      "gas": 2138,
      "afirma</w>": 2139,
      "apoio</w>": 2140,
      "enç": 2141,
      "\".": 2142,
      "ticul": 2143,
      "Pri": 2144,
      "vou</w>": 2145,
      "de,</w>": 2146,
      "tecnologia</w>": 2147,
      "brin": 2148,
      "desig": 2149,
      "tam": 2150,
      "\"O</w>": 2151,
      "ação": 2152,
      "formas</w>": 2153,
      "sens": 2154,
      "pontos</w>": 2155,
      "eter": 2156,
      "possa</w>": 2157,
      "luz</w>": 2158,
      "crescimento</w>": 2159,
      "óti": 2160,
      "k,</w>": 2161,
      "acab": 2162,
      "\\]</w>": 2163,
      "ante.</w>": 2164,
      "mens": 2165,
      "tempor": 2166,
      "nun": 2167,
      "exec": 2168,
      "país": 2169,
      "__": 2170,
      "ama</w>": 2171,
      "flu": 2172,
      "corri": 2173,
      "tid": 2174,
      "bilidade</w>": 2175,
      "John</w>": 2176,
      "eventos</w>": 2177,
      "pressão</w>": 2178,
      "fu": 2179,
      "ay</w>": 2180,
      "relev": 2181,
      "atra": 2182,
      "amigos</w>": 2183,
      "Responda</w>": 2184,
      "peg": 2185,
      "prepar": 2186,
      "abilidade</w>": 2187,
      "bom</w>": 2188,
      "alta</w>": 2189,
      "7.</w>": 2190,
      "práticas</w>": 2191,
      "parágraf": 2192,
      "exto": 2193,
      "4:</w>": 2194,
      "ham</w>": 2195,
      "base": 2196,
      "específi": 2197,
      "fornecid": 2198,
      "estrel": 2199,
      "cultura</w>": 2200,
      "nível</w>": 2201,
      "dific": 2202,
      "war": 2203,
      "40</w>": 2204,
      "mos": 2205,
      "cir": 2206,
      "culos</w>": 2207,
      "padr": 2208,
      "evitar</w>": 2209,
      "analis": 2210,
      "efeito</w>": 2211,
      "geral,</w>": 2212,
      "regul": 2213,
      "quais</w>": 2214,
      "consum": 2215,
      "ne</w>": 2216,
      "animais</w>": 2217,
      "associ": 2218,
      "ax": 2219,
      "ferrament": 2220,
      "será</w>": 2221,
      "estraté": 2222,
      "penh": 2223,
      "taxa</w>": 2224,
      "os.": 2225,
      "pelas</w>": 2226,
      "calcul": 2227,
      "tradicion": 2228,
      "o?</w>": 2229,
      "fís": 2230,
      "lider": 2231,
      "espéci": 2232,
      "objet": 2233,
      "15</w>": 2234,
      "companh": 2235,
      "artig": 2236,
      "sociais</w>": 2237,
      "lh": 2238,
      "luc": 2239,
      "\\)</w>": 2240,
      "hab": 2241,
      "Nova</w>": 2242,
      "eça</w>": 2243,
      "ante,</w>": 2244,
      "ell": 2245,
      "compreen": 2246,
      "mu": 2247,
      "Ne": 2248,
      "edad": 2249,
      "campo</w>": 2250,
      "atividades</w>": 2251,
      "proteg": 2252,
      "observ": 2253,
      "explic": 2254,
      "adicionar</w>": 2255,
      "áreas</w>": 2256,
      "nat": 2257,
      "as.": 2258,
      "mic": 2259,
      "escrev": 2260,
      "ambient": 2261,
      "público</w>": 2262,
      "programa</w>": 2263,
      "moder": 2264,
      "60</w>": 2265,
      "seguintes</w>": 2266,
      "alcanç": 2267,
      "afirm": 2268,
      "ração</w>": 2269,
      "jorn": 2270,
      "linguagem</w>": 2271,
      "favor": 2272,
      "horas</w>": 2273,
      "conver": 2274,
      "visão</w>": 2275,
      "quebr": 2276,
      "Clar": 2277,
      "perío": 2278,
      "Ro": 2279,
      "árv": 2280,
      "Ap": 2281,
      "norm": 2282,
      "passo": 2283,
      "produção</w>": 2284,
      "err": 2285,
      "complex": 2286,
      "promover</w>": 2287,
      "conteúdo</w>": 2288,
      "rec": 2289,
      "mí": 2290,
      "ge": 2291,
      "comport": 2292,
      "resolver</w>": 2293,
      "técn": 2294,
      "desempen": 2295,
      "A.</w>": 2296,
      "antes.</w>": 2297,
      "Sua</w>": 2298,
      "II": 2299,
      "lá": 2300,
      "element": 2301,
      "tanto</w>": 2302,
      "raf": 2303,
      "cos": 2304,
      "on,</w>": 2305,
      "mudanças</w>": 2306,
      "categ": 2307,
      "mp": 2308,
      "we": 2309,
      "al:</w>": 2310,
      "adas,</w>": 2311,
      "capit": 2312,
      "havia</w>": 2313,
      "desej": 2314,
      "faci": 2315,
      "locais</w>": 2316,
      "of</w>": 2317,
      "bras</w>": 2318,
      "aisquer</w>": 2319,
      "prefer": 2320,
      "mus": 2321,
      "questões</w>": 2322,
      "sé": 2323,
      "grandes</w>": 2324,
      "mão</w>": 2325,
      "Unid": 2326,
      "atri": 2327,
      "eng": 2328,
      "acesso</w>": 2329,
      "olu": 2330,
      "nunca</w>": 2331,
      "em,</w>": 2332,
      "existem</w>": 2333,
      "sej": 2334,
      "difíci": 2335,
      "livro</w>": 2336,
      "serviços</w>": 2337,
      "habit": 2338,
      "indic": 2339,
      "qui": 2340,
      "aqui</w>": 2341,
      "quaisquer</w>": 2342,
      "ma": 2343,
      "não": 2344,
      "implement": 2345,
      "saí": 2346,
      "força</w>": 2347,
      "aul": 2348,
      "clientes</w>": 2349,
      "Seu</w>": 2350,
      "econom": 2351,
      "xo</w>": 2352,
      "tido</w>": 2353,
      "Ant": 2354,
      "all": 2355,
      "aumentar</w>": 2356,
      "famíli": 2357,
      "igi": 2358,
      "filh": 2359,
      "Go": 2360,
      "sistemas</w>": 2361,
      "conhecimento</w>": 2362,
      "estilo</w>": 2363,
      "pa</w>": 2364,
      "negóci": 2365,
      "essencial</w>": 2366,
      "pic": 2367,
      "ton</w>": 2368,
      "am.</w>": 2369,
      "habilidades</w>": 2370,
      "ável.</w>": 2371,
      "cerca</w>": 2372,
      "Wil": 2373,
      "ós": 2374,
      "be</w>": 2375,
      "provavelmente</w>": 2376,
      "embora</w>": 2377,
      "human": 2378,
      "medida</w>": 2379,
      "deste</w>": 2380,
      "o-": 2381,
      "pesquisa</w>": 2382,
      "sh": 2383,
      "caf": 2384,
      "envi": 2385,
      "quatro</w>": 2386,
      "enda</w>": 2387,
      "entr": 2388,
      "miss": 2389,
      "uros</w>": 2390,
      "do,</w>": 2391,
      "novos</w>": 2392,
      "benef": 2393,
      "bro</w>": 2394,
      "ambos</w>": 2395,
      "amento.</w>": 2396,
      "minu": 2397,
      "of": 2398,
      "desta</w>": 2399,
      "saber</w>": 2400,
      "y.</w>": 2401,
      "saud": 2402,
      "tenha</w>": 2403,
      "bor": 2404,
      "começou</w>": 2405,
      "última</w>": 2406,
      "roup": 2407,
      "recu": 2408,
      "dor</w>": 2409,
      "especific": 2410,
      "conec": 2411,
      "a)</w>": 2412,
      "fro": 2413,
      "comprar</w>": 2414,
      "unt": 2415,
      "carro</w>": 2416,
      "Tr": 2417,
      "elet": 2418,
      "elas</w>": 2419,
      "minist": 2420,
      "maioria</w>": 2421,
      "ox": 2422,
      "diretamente</w>": 2423,
      "is.</w>": 2424,
      "leva</w>": 2425,
      "homens</w>": 2426,
      "início</w>": 2427,
      "ógi": 2428,
      "ebol</w>": 2429,
      "desempenh": 2430,
      "peti": 2431,
      "mãe</w>": 2432,
      "visit": 2433,
      "praz": 2434,
      "12": 2435,
      "estas</w>": 2436,
      "ações.</w>": 2437,
      "izar</w>": 2438,
      "Use</w>": 2439,
      "hos": 2440,
      "membros</w>": 2441,
      "15": 2442,
      "glob": 2443,
      "sim,</w>": 2444,
      "ah": 2445,
      "plata": 2446,
      "tomar</w>": 2447,
      "trabalhar</w>": 2448,
      "implica</w>": 2449,
      "dido</w>": 2450,
      "diminu": 2451,
      "formação</w>": 2452,
      "profun": 2453,
      "veu</w>": 2454,
      "neste</w>": 2455,
      "públi": 2456,
      "começa</w>": 2457,
      "ações,</w>": 2458,
      "?\"</w>": 2459,
      "evis": 2460,
      "separ": 2461,
      "perguntas</w>": 2462,
      "Lu": 2463,
      "adap": 2464,
      "am,</w>": 2465,
      "minutos</w>": 2466,
      "pai</w>": 2467,
      "mem": 2468,
      "u.</w>": 2469,
      "198": 2470,
      "govern": 2471,
      "Que</w>": 2472,
      "lul": 2473,
      "ater": 2474,
      "edifíci": 2475,
      "lid": 2476,
      "tim": 2477,
      "acess": 2478,
      "exerc": 2479,
      "io</w>": 2480,
      "modelo</w>": 2481,
      "pá": 2482,
      "única</w>": 2483,
      "poder</w>": 2484,
      "arg": 2485,
      "mulheres</w>": 2486,
      "0,</w>": 2487,
      "avanç": 2488,
      "a-se</w>": 2489,
      "tudo</w>": 2490,
      "tipos</w>": 2491,
      "gres": 2492,
      "íveis": 2493,
      "ey</w>": 2494,
      "consist": 2495,
      "entes,</w>": 2496,
      "viol": 2497,
      "for</w>": 2498,
      "situação</w>": 2499,
      "mica</w>": 2500,
      "conex": 2501,
      "ítulo:</w>": 2502,
      "fáci": 2503,
      "ik": 2504,
      "ack": 2505,
      "carreg": 2506,
      "produz": 2507,
      "particul": 2508,
      "ler</w>": 2509,
      "tarefa</w>": 2510,
      "restaur": 2511,
      "amente": 2512,
      "mit": 2513,
      "país</w>": 2514,
      "cav": 2515,
      "posta</w>": 2516,
      "pis": 2517,
      "chamada</w>": 2518,
      "sec": 2519,
      "usuário</w>": 2520,
      "antes,</w>": 2521,
      "Out": 2522,
      "principalmente</w>": 2523,
      "ol</w>": 2524,
      "zes</w>": 2525,
      "divi": 2526,
      "reci": 2527,
      "dor": 2528,
      "cultur": 2529,
      "financ": 2530,
      "et</w>": 2531,
      "enn": 2532,
      "carrei": 2533,
      "nossa</w>": 2534,
      "aber": 2535,
      "evento</w>": 2536,
      "mel": 2537,
      "enre": 2538,
      "compreensão</w>": 2539,
      "carbon": 2540,
      "ros,</w>": 2541,
      "boa</w>": 2542,
      "ame": 2543,
      "ativos</w>": 2544,
      "asse</w>": 2545,
      "positivo</w>": 2546,
      "amento,</w>": 2547,
      "ência.</w>": 2548,
      "toda</w>": 2549,
      "ouvi": 2550,
      "dir</w>": 2551,
      "Rs.": 2552,
      "sugere</w>": 2553,
      "influenci": 2554,
      "osas</w>": 2555,
      "iz</w>": 2556,
      "exi": 2557,
      "u,</w>": 2558,
      "desafios</w>": 2559,
      "inar</w>": 2560,
      "sele": 2561,
      "refl": 2562,
      "0.</w>": 2563,
      "partes</w>": 2564,
      "bra</w>": 2565,
      "políticas</w>": 2566,
      "plantas</w>": 2567,
      "control": 2568,
      "aw": 2569,
      "sus": 2570,
      "ído</w>": 2571,
      "possam</w>": 2572,
      "indústria</w>": 2573,
      "pit": 2574,
      "ustr": 2575,
      "ok": 2576,
      "viaj": 2577,
      "especialmente</w>": 2578,
      "programas</w>": 2579,
      "cresc": 2580,
      "atenção</w>": 2581,
      "fati": 2582,
      "Op": 2583,
      "alimentos</w>": 2584,
      "nenhuma</w>": 2585,
      "ência,</w>": 2586,
      "Estas</w>": 2587,
      "ers</w>": 2588,
      "ica,</w>": 2589,
      "entender</w>": 2590,
      "érci": 2591,
      "Algu": 2592,
      "famili": 2593,
      "centagem</w>": 2594,
      "experiências</w>": 2595,
      "eriam</w>": 2596,
      "exto:</w>": 2597,
      "torna</w>": 2598,
      "one</w>": 2599,
      "tivo</w>": 2600,
      "título</w>": 2601,
      "conclusão,</w>": 2602,
      "implicada</w>": 2603,
      "opini": 2604,
      "test": 2605,
      "social</w>": 2606,
      "armaz": 2607,
      "quí": 2608,
      "limp": 2609,
      "jogos</w>": 2610,
      "destac": 2611,
      "ém": 2612,
      "assum": 2613,
      "plic": 2614,
      "palavra</w>": 2615,
      "25</w>": 2616,
      "forç": 2617,
      "pontu": 2618,
      "bran": 2619,
      "ponto</w>": 2620,
      "process": 2621,
      "linha</w>": 2622,
      "apropri": 2623,
      "indo": 2624,
      "fim</w>": 2625,
      "100": 2626,
      "cão</w>": 2627,
      "potencial</w>": 2628,
      "nesta</w>": 2629,
      "ideia</w>": 2630,
      "Inter": 2631,
      "comum</w>": 2632,
      "quil": 2633,
      "áss": 2634,
      "-lhe</w>": 2635,
      "gias</w>": 2636,
      "get": 2637,
      "Título:</w>": 2638,
      "forte</w>": 2639,
      "variedade</w>": 2640,
      "possu": 2641,
      "Do": 2642,
      "alto</w>": 2643,
      "entu": 2644,
      "turb": 2645,
      "e-se</w>": 2646,
      "baixo</w>": 2647,
      "precisamos</w>": 2648,
      "classificação</w>": 2649,
      "dé": 2650,
      "permit": 2651,
      "prote": 2652,
      "efeitos</w>": 2653,
      "incent": 2654,
      "Be": 2655,
      "aprender</w>": 2656,
      "ambas</w>": 2657,
      "óle": 2658,
      "Há</w>": 2659,
      "significativo</w>": 2660,
      "satis": 2661,
      "ket": 2662,
      "ário.</w>": 2663,
      "descreve</w>": 2664,
      "máqu": 2665,
      "Rob": 2666,
      "ícia</w>": 2667,
      "disc": 2668,
      "có": 2669,
      "empreg": 2670,
      "ou-se</w>": 2671,
      "estrutura</w>": 2672,
      "blic": 2673,
      "i,</w>": 2674,
      "ion": 2675,
      "th": 2676,
      "jan": 2677,
      "integ": 2678,
      "esa</w>": 2679,
      "amigo</w>": 2680,
      "pret": 2681,
      "atividade</w>": 2682,
      "produ": 2683,
      "Neste</w>": 2684,
      "posto</w>": 2685,
      "gular": 2686,
      "conjunt": 2687,
      "ide": 2688,
      "-chave</w>": 2689,
      "mad": 2690,
      "fontes</w>": 2691,
      "período</w>": 2692,
      "'s</w>": 2693,
      "permite</w>": 2694,
      "adamente</w>": 2695,
      "centro</w>": 2696,
      "Isto</w>": 2697,
      "ização</w>": 2698,
      "arte</w>": 2699,
      "ond": 2700,
      "Quant": 2701,
      "parágrafo</w>": 2702,
      "nature": 2703,
      "eio</w>": 2704,
      "ance</w>": 2705,
      "recebe</w>": 2706,
      "assist": 2707,
      "197": 2708,
      "Estes</w>": 2709,
      "gal": 2710,
      "nosso</w>": 2711,
      "hou": 2712,
      "respe": 2713,
      "proporcion": 2714,
      "causa</w>": 2715,
      "religi": 2716,
      "níveis</w>": 2717,
      "ior</w>": 2718,
      "menciona</w>": 2719,
      "célul": 2720,
      "reconh": 2721,
      "termos</w>": 2722,
      "fique": 2723,
      "):</w>": 2724,
      "racioc": 2725,
      "dia,</w>": 2726,
      "âni": 2727,
      "instal": 2728,
      "jul": 2729,
      "pint": 2730,
      "ero</w>": 2731,
      "telef": 2732,
      "comer": 2733,
      "entos</w>": 2734,
      "conven": 2735,
      "ash": 2736,
      "vo</w>": 2737,
      "Analis": 2738,
      "Bar": 2739,
      "Segu": 2740,
      "lista</w>": 2741,
      "vão</w>": 2742,
      "dur": 2743,
      "Primei": 2744,
      "superfíci": 2745,
      "noit": 2746,
      "roch": 2747,
      "verdadei": 2748,
      "tarde</w>": 2749,
      "sejam</w>": 2750,
      "cabel": 2751,
      "rapid": 2752,
      "tores</w>": 2753,
      "espaço</w>": 2754,
      "toc": 2755,
      "fique</w>": 2756,
      "armazen": 2757,
      "difícil</w>": 2758,
      "ênio</w>": 2759,
      "es.": 2760,
      "infer": 2761,
      "hoj": 2762,
      "fatores</w>": 2763,
      "países</w>": 2764,
      "víde": 2765,
      "investig": 2766,
      "falta</w>": 2767,
      "movimento</w>": 2768,
      "caminho</w>": 2769,
      "pers": 2770,
      "levando</w>": 2771,
      "ecimento</w>": 2772,
      "desempenho</w>": 2773,
      "aqueles</w>": 2774,
      "tó": 2775,
      "dic": 2776,
      "ória</w>": 2777,
      "revisor</w>": 2778,
      "terc": 2779,
      "iam</w>": 2780,
      "respons": 2781,
      "facil": 2782,
      "public": 2783,
      "acim": 2784,
      "aproxim": 2785,
      "inos</w>": 2786,
      "vist": 2787,
      "remo": 2788,
      "Alguns</w>": 2789,
      "ani": 2790,
      "e\"</w>": 2791,
      "ores,</w>": 2792,
      "Deter": 2793,
      "fí": 2794,
      "si</w>": 2795,
      "importância</w>": 2796,
      "aleg": 2797,
      "jovem</w>": 2798,
      "consci": 2799,
      "sentir</w>": 2800,
      "identificar</w>": 2801,
      "crític": 2802,
      "Determin": 2803,
      "rog": 2804,
      "\"S": 2805,
      "ica.</w>": 2806,
      "coment": 2807,
      "aceit": 2808,
      "anti": 2809,
      "capaz</w>": 2810,
      "suficiente</w>": 2811,
      "cho": 2812,
      "seguir</w>": 2813,
      "Yor": 2814,
      "em.</w>": 2815,
      "pergunta.</w>": 2816,
      "pat": 2817,
      "embre": 2818,
      "noite</w>": 2819,
      "agem.</w>": 2820,
      "Cons": 2821,
      "Pr": 2822,
      "mo,</w>": 2823,
      "vul": 2824,
      "long": 2825,
      "som": 2826,
      "cione</w>": 2827,
      "corre</w>": 2828,
      "utri": 2829,
      "eias</w>": 2830,
      "fol": 2831,
      "melhores</w>": 2832,
      "cinco</w>": 2833,
      "compartilh": 2834,
      "fácil</w>": 2835,
      "estre": 2836,
      "ualmente</w>": 2837,
      "justi": 2838,
      "pression": 2839,
      "demon": 2840,
      "levou</w>": 2841,
      "presidente</w>": 2842,
      "assim</w>": 2843,
      "recuper": 2844,
      "abaix": 2845,
      "otar</w>": 2846,
      "Muit": 2847,
      "tempo,</w>": 2848,
      "atualiz": 2849,
      "ário,</w>": 2850,
      "16": 2851,
      "á-los</w>": 2852,
      "comput": 2853,
      "benefícios</w>": 2854,
      "Jam": 2855,
      "17": 2856,
      "incluem</w>": 2857,
      "Leia</w>": 2858,
      "potenci": 2859,
      "mudança</w>": 2860,
      "esqu": 2861,
      "condições</w>": 2862,
      "isso,</w>": 2863,
      "frente</w>": 2864,
      "comunidade</w>": 2865,
      "milhões</w>": 2866,
      "materiais</w>": 2867,
      "próxima</w>": 2868,
      "comunicação</w>": 2869,
      "ano,</w>": 2870,
      "espos": 2871,
      "Cl": 2872,
      "reduz": 2873,
      "escolh": 2874,
      "intel": 2875,
      "calcular</w>": 2876,
      "onlin": 2877,
      "ável,</w>": 2878,
      "se,</w>": 2879,
      "Mich": 2880,
      "serviço</w>": 2881,
      "velo": 2882,
      "chuv": 2883,
      "enredo</w>": 2884,
      "significado</w>": 2885,
      "1,": 2886,
      "anho</w>": 2887,
      "Ge": 2888,
      "cober": 2889,
      "analisar</w>": 2890,
      "ack</w>": 2891,
      "incorpor": 2892,
      "ísticas</w>": 2893,
      "Univers": 2894,
      "amor": 2895,
      "dí": 2896,
      "ph": 2897,
      "substitu": 2898,
      "elementos</w>": 2899,
      "Quem</w>": 2900,
      "compri": 2901,
      "ed</w>": 2902,
      "iria</w>": 2903,
      "8.</w>": 2904,
      "sint": 2905,
      "esso": 2906,
      "usada</w>": 2907,
      "incentiv": 2908,
      "inclui</w>": 2909,
      "escola</w>": 2910,
      "envolve</w>": 2911,
      "redes</w>": 2912,
      "ecendo</w>": 2913,
      "vali": 2914,
      "medidas</w>": 2915,
      "evolu": 2916,
      "rápi": 2917,
      "conhecida</w>": 2918,
      "ia,</w>": 2919,
      "certe": 2920,
      "assunto</w>": 2921,
      "atmos": 2922,
      "passagem</w>": 2923,
      "mal": 2924,
      "nacional</w>": 2925,
      "cep": 2926,
      "mar</w>": 2927,
      "emin": 2928,
      "Premiss": 2929,
      "orient": 2930,
      "de.</w>": 2931,
      "Premissa:</w>": 2932,
      "verdade</w>": 2933,
      "respond": 2934,
      "Nesta</w>": 2935,
      "problem": 2936,
      "rep": 2937,
      "Durante</w>": 2938,
      "sabil": 2939,
      "eficaz": 2940,
      "escritóri": 2941,
      "Fin": 2942,
      "Bro": 2943,
      "filme.</w>": 2944,
      "va</w>": 2945,
      "Tim": 2946,
      "morte</w>": 2947,
      "nutri": 2948,
      "escal": 2949,
      "elev": 2950,
      "esforços</w>": 2951,
      "coisa</w>": 2952,
      "semana</w>": 2953,
      "ceu</w>": 2954,
      "dicas</w>": 2955,
      "colabor": 2956,
      "music": 2957,
      "acional</w>": 2958,
      "trás</w>": 2959,
      "o\".</w>": 2960,
      "\"A</w>": 2961,
      "perda</w>": 2962,
      "bom": 2963,
      "Hipótes": 2964,
      "inhas</w>": 2965,
      "Nor": 2966,
      "fran": 2967,
      "Assim,</w>": 2968,
      "peix": 2969,
      "sí": 2970,
      "ajudá-lo</w>": 2971,
      "oxig": 2972,
      "tentar</w>": 2973,
      "univers": 2974,
      "ãs</w>": 2975,
      "potenciais</w>": 2976,
      "196": 2977,
      "mass": 2978,
      "solução</w>": 2979,
      "agrad": 2980,
      "grad": 2981,
      "multi": 2982,
      "paci": 2983,
      "Por": 2984,
      "elé": 2985,
      "sala</w>": 2986,
      "Euro": 2987,
      "apoiar</w>": 2988,
      "o\"</w>": 2989,
      "Agora</w>": 2990,
      "século</w>": 2991,
      "pe</w>": 2992,
      "the</w>": 2993,
      "fór": 2994,
      "ht": 2995,
      "confort": 2996,
      "ética</w>": 2997,
      "Ter": 2998,
      "ard</w>": 2999,
      "pequena</w>": 3000,
      "So": 3001,
      "regular": 3002,
      "at</w>": 3003,
      "planej": 3004,
      "Can": 3005,
      "bust": 3006,
      "resultado</w>": 3007,
      "lhe</w>": 3008,
      "objetivo</w>": 3009,
      "funcionários</w>": 3010,
      "veget": 3011,
      "atas</w>": 3012,
      "1,</w>": 3013,
      "peso</w>": 3014,
      "aspectos</w>": 3015,
      "nave": 3016,
      "descont": 3017,
      "controle</w>": 3018,
      "sho": 3019,
      "natur": 3020,
      "tig": 3021,
      "tivos</w>": 3022,
      "jo</w>": 3023,
      "individ": 3024,
      "pris": 3025,
      "Compar": 3026,
      "institu": 3027,
      "nu": 3028,
      "frase,</w>": 3029,
      "caixa</w>": 3030,
      "filho</w>": 3031,
      "confl": 3032,
      "responsabil": 3033,
      "metros</w>": 3034,
      "EUA</w>": 3035,
      "s:</w>": 3036,
      "menor</w>": 3037,
      "gên": 3038,
      "loja</w>": 3039,
      "plano</w>": 3040,
      "ck": 3041,
      "perturb": 3042,
      "e?</w>": 3043,
      "política</w>": 3044,
      "renov": 3045,
      "estres": 3046,
      "não.</w>": 3047,
      "original</w>": 3048,
      "nenhum</w>": 3049,
      "cliente</w>": 3050,
      "usuários</w>": 3051,
      "restaurante</w>": 3052,
      "desenvolver</w>": 3053,
      "tando</w>": 3054,
      "mistura</w>": 3055,
      "Pl": 3056,
      "Exist": 3057,
      "decisão</w>": 3058,
      "assassin": 3059,
      "Mc": 3060,
      "competi": 3061,
      "rí": 3062,
      "frac</w>": 3063,
      "ansi": 3064,
      "provável</w>": 3065,
      "agem,</w>": 3066,
      "momento</w>": 3067,
      "Foi</w>": 3068,
      "especificamente</w>": 3069,
      "aço</w>": 3070,
      "futebol</w>": 3071,
      "oportunidades</w>": 3072,
      "acima</w>": 3073,
      "livros</w>": 3074,
      "escolher</w>": 3075,
      "Alg": 3076,
      "grupos</w>": 3077,
      "cident": 3078,
      "caso,</w>": 3079,
      "usados</w>": 3080,
      "cidades</w>": 3081,
      "tex": 3082,
      "interesse</w>": 3083,
      "estran": 3084,
      "front": 3085,
      "ore</w>": 3086,
      "polu": 3087,
      "mas": 3088,
      "5,</w>": 3089,
      "resultados</w>": 3090,
      "tifique": 3091,
      "and</w>": 3092,
      "vesti": 3093,
      "lag": 3094,
      "proces": 3095,
      "roman": 3096,
      "eç": 3097,
      "Cri": 3098,
      "C.</w>": 3099,
      "ecido</w>": 3100,
      "independ": 3101,
      "normalmente</w>": 3102,
      "uais</w>": 3103,
      "Or": 3104,
      "banda</w>": 3105,
      "camis": 3106,
      "perig": 3107,
      "apreci": 3108,
      "tifique-se</w>": 3109,
      "Dado</w>": 3110,
      "possíveis</w>": 3111,
      "arão</w>": 3112,
      "so:</w>": 3113,
      "filme": 3114,
      "Man": 3115,
      "ck</w>": 3116,
      "frase.</w>": 3117,
      "ca.</w>": 3118,
      "ton": 3119,
      "comum": 3120,
      "Gran": 3121,
      "cle": 3122,
      "quase</w>": 3123,
      "mercado</w>": 3124,
      "Guerra</w>": 3125,
      "regist": 3126,
      "exam": 3127,
      "gestão</w>": 3128,
      "comparação</w>": 3129,
      "construção</w>": 3130,
      "seis</w>": 3131,
      "pré": 3132,
      "gado</w>": 3133,
      "adora</w>": 3134,
      "ca,</w>": 3135,
      "\"Uma</w>": 3136,
      "considerar</w>": 3137,
      "necessidades</w>": 3138,
      "além</w>": 3139,
      "ena</w>": 3140,
      "inspir": 3141,
      "único</w>": 3142,
      "você": 3143,
      "mídia</w>": 3144,
      "elo</w>": 3145,
      "lembr": 3146,
      "deixar</w>": 3147,
      "inação</w>": 3148,
      "cí": 3149,
      "ick": 3150,
      "tivas</w>": 3151,
      "porcentagem</w>": 3152,
      "abrang": 3153,
      "ano.</w>": 3154,
      "ocorre": 3155,
      "pais</w>": 3156,
      "Mat": 3157,
      "terr": 3158,
      "pensar</w>": 3159,
      "pessoal</w>": 3160,
      "poderiam</w>": 3161,
      "estim": 3162,
      "foco</w>": 3163,
      "risco</w>": 3164,
      "ível.</w>": 3165,
      "Mun": 3166,
      "tend": 3167,
      "blo": 3168,
      "construir</w>": 3169,
      "14": 3170,
      "Har": 3171,
      "convers": 3172,
      "tint": 3173,
      "conta</w>": 3174,
      "positiva</w>": 3175,
      "Adi": 3176,
      "fato</w>": 3177,
      "Hipótese:</w>": 3178,
      "abordagem</w>": 3179,
      "autor": 3180,
      "localização</w>": 3181,
      "IA,</w>": 3182,
      "gol": 3183,
      "Consider": 3184,
      "pequeno</w>": 3185,
      "gerenci": 3186,
      "configu": 3187,
      "Estou</w>": 3188,
      "ech": 3189,
      "levant": 3190,
      "Ho": 3191,
      "site</w>": 3192,
      "rei</w>": 3193,
      "context": 3194,
      "Char": 3195,
      "alh": 3196,
      "intro": 3197,
      "próprio</w>": 3198,
      "ah</w>": 3199,
      "venda</w>": 3200,
      "pág": 3201,
      "brit": 3202,
      "az</w>": 3203,
      "aços</w>": 3204,
      "tamanho</w>": 3205,
      "ológ": 3206,
      "sensação</w>": 3207,
      "fres": 3208,
      "projeto</w>": 3209,
      "ating": 3210,
      "população</w>": 3211,
      "atório</w>": 3212,
      "éis</w>": 3213,
      "certo</w>": 3214,
      "man</w>": 3215,
      "áticas</w>": 3216,
      "organizações</w>": 3217,
      "aprendiz": 3218,
      "comunidades</w>": 3219,
      "educação</w>": 3220,
      "til</w>": 3221,
      "fonte</w>": 3222,
      "cren": 3223,
      "específicos</w>": 3224,
      "começar</w>": 3225,
      "anci": 3226,
      "o!</w>": 3227,
      "promo": 3228,
      "traz": 3229,
      "curso</w>": 3230,
      "2,</w>": 3231,
      "cidade.</w>": 3232,
      "trib": 3233,
      "ona</w>": 3234,
      "gre": 3235,
      "proteger</w>": 3236,
      "Fl": 3237,
      "nós</w>": 3238,
      "inov": 3239,
      "Tra": 3240,
      "própria</w>": 3241,
      "o?": 3242,
      "crucial</w>": 3243,
      "Não,</w>": 3244,
      "personagens</w>": 3245,
      "prim": 3246,
      "porta</w>": 3247,
      "consequ": 3248,
      "pó": 3249,
      "simples</w>": 3250,
      "h,</w>": 3251,
      "gast": 3252,
      "tempo.</w>": 3253,
      "altern": 3254,
      "osamente</w>": 3255,
      "Ver": 3256,
      "ex-": 3257,
      "manh": 3258,
      "escrever</w>": 3259,
      "cora": 3260,
      "ições</w>": 3261,
      "jas</w>": 3262,
      "ici": 3263,
      "personagem</w>": 3264,
      "Cas": 3265,
      "Também</w>": 3266,
      "criança</w>": 3267,
      "incluir</w>": 3268,
      "express": 3269,
      "ficou</w>": 3270,
      "Unidos</w>": 3271,
      "menina</w>": 3272,
      "êmi": 3273,
      "temperatura</w>": 3274,
      "senso</w>": 3275,
      "íbri": 3276,
      "perspec": 3277,
      "autom": 3278,
      "tific": 3279,
      "execut": 3280,
      "culas</w>": 3281,
      "natureza</w>": 3282,
      "po.</w>": 3283,
      "ões,</w>": 3284,
      "Amb": 3285,
      "const": 3286,
      "fos": 3287,
      "jardas</w>": 3288,
      "cot": 3289,
      "subst": 3290,
      "an,</w>": 3291,
      "reuni": 3292,
      "pil": 3293,
      "uns</w>": 3294,
      "(B": 3295,
      "álbum</w>": 3296,
      "positivos</w>": 3297,
      "ad</w>": 3298,
      "suport": 3299,
      "extra": 3300,
      "Du": 3301,
      "vil": 3302,
      "direitos</w>": 3303,
      "café</w>": 3304,
      "amar": 3305,
      "ões.</w>": 3306,
      "espécies</w>": 3307,
      "análise</w>": 3308,
      "encontra</w>": 3309,
      "oso": 3310,
      "lado,</w>": 3311,
      "vida.</w>": 3312,
      "temos</w>": 3313,
      "importantes</w>": 3314,
      "desenvol": 3315,
      "amor</w>": 3316,
      "ores.</w>": 3317,
      "Cer": 3318,
      "cidade,</w>": 3319,
      "respir": 3320,
      "alha</w>": 3321,
      "causar</w>": 3322,
      "conselh": 3323,
      "nada</w>": 3324,
      "áveis.</w>": 3325,
      "concor": 3326,
      "(A": 3327,
      "filmes</w>": 3328,
      "wn</w>": 3329,
      "vant": 3330,
      "natural</w>": 3331,
      "ia.</w>": 3332,
      "solo</w>": 3333,
      "mental</w>": 3334,
      "\"The</w>": 3335,
      "hora</w>": 3336,
      "compon": 3337,
      "air": 3338,
      "poli": 3339,
      "câ": 3340,
      "está": 3341,
      "agri": 3342,
      "carreira</w>": 3343,
      "estou</w>": 3344,
      "crimin": 3345,
      "interpret": 3346,
      "inham</w>": 3347,
      "ática</w>": 3348,
      "ãos</w>": 3349,
      "conexão</w>": 3350,
      "padrões</w>": 3351,
      "od</w>": 3352,
      "exter": 3353,
      "perten": 3354,
      "essenci": 3355,
      "alização</w>": 3356,
      "viagem</w>": 3357,
      "exemplo</w>": 3358,
      "ério</w>": 3359,
      "isti": 3360,
      "década</w>": 3361,
      "média</w>": 3362,
      "anha</w>": 3363,
      "arquiv": 3364,
      "lidar</w>": 3365,
      "maneiras</w>": 3366,
      "mundo.</w>": 3367,
      "comportamento</w>": 3368,
      "progres": 3369,
      "redução</w>": 3370,
      "Ab": 3371,
      "cart": 3372,
      "16</w>": 3373,
      "Pod": 3374,
      "extre": 3375,
      "B:</w>": 3376,
      "agens": 3377,
      "dessas</w>": 3378,
      "técnicas</w>": 3379,
      "intelig": 3380,
      "atmosfer": 3381,
      "transporte</w>": 3382,
      "menino</w>": 3383,
      "25": 3384,
      "termo</w>": 3385,
      "pergunta,</w>": 3386,
      "Li": 3387,
      "far": 3388,
      "etas</w>": 3389,
      "jogadores</w>": 3390,
      "pequenas</w>": 3391,
      "Ser": 3392,
      "ar-se</w>": 3393,
      "cele": 3394,
      "transform": 3395,
      "íngu": 3396,
      "próximo</w>": 3397,
      "lav": 3398,
      "contém</w>": 3399,
      "lucro</w>": 3400,
      "Algumas</w>": 3401,
      "identific": 3402,
      "And": 3403,
      "resist": 3404,
      "raciocínio</w>": 3405,
      "alcançar</w>": 3406,
      "econó": 3407,
      "cuidad": 3408,
      "feliz": 3409,
      "da.</w>": 3410,
      "permiti": 3411,
      "vir": 3412,
      "falar</w>": 3413,
      "mec": 3414,
      "embro</w>": 3415,
      "suce": 3416,
      "diferença</w>": 3417,
      "Reino</w>": 3418,
      "icamente</w>": 3419,
      "região</w>": 3420,
      "tornou</w>": 3421,
      "direção</w>": 3422,
      "Mu": 3423,
      "?Sim,</w>": 3424,
      "ele.</w>": 3425,
      "luta</w>": 3426,
      "ista,</w>": 3427,
      "certeza</w>": 3428,
      "ie</w>": 3429,
      "mico</w>": 3430,
      "áli": 3431,
      "inc": 3432,
      "fundament": 3433,
      "ganhou</w>": 3434,
      "33": 3435,
      "vest": 3436,
      "ferramentas</w>": 3437,
      "1.": 3438,
      "Existem</w>": 3439,
      "vermelh": 3440,
      "rol": 3441,
      "quarto</w>": 3442,
      "tentando</w>": 3443,
      "ley</w>": 3444,
      "itens</w>": 3445,
      "Hol": 3446,
      "org": 3447,
      "nome": 3448,
      "problema</w>": 3449,
      "contato</w>": 3450,
      "quint": 3451,
      "Sar": 3452,
      "B.</w>": 3453,
      "digit": 3454,
      "Pos": 3455,
      "cara</w>": 3456,
      "oce": 3457,
      "marca</w>": 3458,
      "específico</w>": 3459,
      "eto</w>": 3460,
      "back</w>": 3461,
      "nar": 3462,
      "estudo</w>": 3463,
      "24</w>": 3464,
      "criação</w>": 3465,
      "refei": 3466,
      "tico</w>": 3467,
      "profissional</w>": 3468,
      "dirig": 3469,
      "armente</w>": 3470,
      "ench": 3471,
      "mitir</w>": 3472,
      "cuidados</w>": 3473,
      "da,</w>": 3474,
      "hon": 3475,
      "Ob": 3476,
      "descober": 3477,
      "dia.</w>": 3478,
      "análise,</w>": 3479,
      "usam</w>": 3480,
      "nem</w>": 3481,
      "mostr": 3482,
      "continua</w>": 3483,
      "Justi": 3484,
      "fornecidas</w>": 3485,
      "expan": 3486,
      "rio</w>": 3487,
      "presente</w>": 3488,
      "Val": 3489,
      "domin": 3490,
      "fis": 3491,
      "desses</w>": 3492,
      "aer": 3493,
      "adapt": 3494,
      "perfeit": 3495,
      "dez": 3496,
      "sia</w>": 3497,
      "presença</w>": 3498,
      "tais</w>": 3499,
      "âne": 3500,
      "conjunto</w>": 3501,
      "equil": 3502,
      "judi": 3503,
      "língu": 3504,
      "Quais</w>": 3505,
      "circ": 3506,
      "ajust": 3507,
      "cort": 3508,
      "cert": 3509,
      "dores</w>": 3510,
      "específicas</w>": 3511,
      "dever": 3512,
      "mãos</w>": 3513,
      "óx": 3514,
      "rito</w>": 3515,
      "mo.</w>": 3516,
      "ances</w>": 3517,
      "superfície</w>": 3518,
      "emp": 3519,
      "conserv": 3520,
      "din": 3521,
      "figu": 3522,
      "zinh": 3523,
      "motiv": 3524,
      "volt": 3525,
      "unci": 3526,
      "0%</w>": 3527,
      "popular</w>": 3528,
      "var": 3529,
      "brilh": 3530,
      "e\".</w>": 3531,
      "Resposta:O</w>": 3532,
      "les": 3533,
      "jogador</w>": 3534,
      "evid": 3535,
      "simples": 3536,
      "óleo</w>": 3537,
      "último</w>": 3538,
      "design</w>": 3539,
      "Cam": 3540,
      "ução</w>": 3541,
      "ina,</w>": 3542,
      "istir</w>": 3543,
      "jeit": 3544,
      "ail": 3545,
      "sentimentos</w>": 3546,
      "Pol": 3547,
      "bola</w>": 3548,
      "hid": 3549,
      "guerra</w>": 3550,
      "nasci": 3551,
      "fas": 3552,
      "Gr": 3553,
      "bicicl": 3554,
      "passar</w>": 3555,
      "18</w>": 3556,
      "equilíbri": 3557,
      "nossos</w>": 3558,
      "coleg": 3559,
      "incr": 3560,
      "a).</w>": 3561,
      "rapidamente</w>": 3562,
      "80</w>": 3563,
      "jard": 3564,
      "cer</w>": 3565,
      "chegar</w>": 3566,
      "teria</w>": 3567,
      "i.</w>": 3568,
      "pesar</w>": 3569,
      "jogar</w>": 3570,
      "ográ": 3571,
      "verdadeira</w>": 3572,
      "atamente</w>": 3573,
      "respostas</w>": 3574,
      "rem</w>": 3575,
      "personaliz": 3576,
      "99": 3577,
      "coração</w>": 3578,
      "temporada</w>": 3579,
      "indica</w>": 3580,
      "denotar</w>": 3581,
      "ingredi": 3582,
      "velocidade</w>": 3583,
      "álog": 3584,
      "carbono</w>": 3585,
      "brev": 3586,
      "pés</w>": 3587,
      "refere-se</w>": 3588,
      "market": 3589,
      "á-la</w>": 3590,
      "consul": 3591,
      "particularmente</w>": 3592,
      "instru": 3593,
      "oxigênio</w>": 3594,
      "enfati": 3595,
      "data</w>": 3596,
      "missão</w>": 3597,
      "fazem</w>": 3598,
      "de:</w>": 3599,
      "rup": 3600,
      "itas</w>": 3601,
      "impression": 3602,
      "pratic": 3603,
      "acontec": 3604,
      "Ste": 3605,
      "serve</w>": 3606,
      "wn": 3607,
      "vidas</w>": 3608,
      "(2": 3609,
      "14</w>": 3610,
      "ando-se</w>": 3611,
      "terap": 3612,
      "Esses</w>": 3613,
      "células</w>": 3614,
      "valores</w>": 3615,
      "Bu": 3616,
      "ando.</w>": 3617,
      "pet": 3618,
      "amente!</w>": 3619,
      "cores</w>": 3620,
      "ânt": 3621,
      "emoções</w>": 3622,
      "acha</w>": 3623,
      "potencialmente</w>": 3624,
      "esport": 3625,
      "áveis,</w>": 3626,
      "ais:</w>": 3627,
      "corrida</w>": 3628,
      "Def": 3629,
      "ção:</w>": 3630,
      "cabeça</w>": 3631,
      "eiro,</w>": 3632,
      "ra-": 3633,
      "soft": 3634,
      "ch</w>": 3635,
      "crianç": 3636,
      "o)</w>": 3637,
      "ner": 3638,
      "quad": 3639,
      "revel": 3640,
      "estudantes</w>": 3641,
      "Mé": 3642,
      "calor</w>": 3643,
      "esposa</w>": 3644,
      "postos</w>": 3645,
      "cozinh": 3646,
      "Após</w>": 3647,
      "eder": 3648,
      "estratégias</w>": 3649,
      "áb": 3650,
      "micos</w>": 3651,
      "entrar</w>": 3652,
      "ções.</w>": 3653,
      "ível,</w>": 3654,
      "ry</w>": 3655,
      "tendo</w>": 3656,
      "faix": 3657,
      "gem</w>": 3658,
      "John": 3659,
      "alterações</w>": 3660,
      "grá": 3661,
      "ly": 3662,
      "ilh": 3663,
      "veí": 3664,
      "bur": 3665,
      "jant": 3666,
      "fluxo</w>": 3667,
      "candid": 3668,
      "cor</w>": 3669,
      "Davi": 3670,
      "feira</w>": 3671,
      "imedi": 3672,
      "bo</w>": 3673,
      "sangu": 3674,
      "televis": 3675,
      "acad": 3676,
      "At": 3677,
      "iri": 3678,
      "dá</w>": 3679,
      "frequentemente</w>": 3680,
      "versão</w>": 3681,
      "rando</w>": 3682,
      "vas": 3683,
      "simplesmente</w>": 3684,
      "ins</w>": 3685,
      "Essas</w>": 3686,
      "9.</w>": 3687,
      "roupas</w>": 3688,
      "envolver</w>": 3689,
      "premissa.</w>": 3690,
      "200</w>": 3691,
      "explorar</w>": 3692,
      "possi": 3693,
      "elho</w>": 3694,
      "Améri": 3695,
      "3,</w>": 3696,
      "sentido</w>": 3697,
      "gest": 3698,
      "fico</w>": 3699,
      "eiro.</w>": 3700,
      "combust": 3701,
      "\"Eu</w>": 3702,
      "sk": 3703,
      "finalmente</w>": 3704,
      "imagem</w>": 3705,
      "elétri": 3706,
      "fabri": 3707,
      "Ev": 3708,
      "cionar</w>": 3709,
      "tinham</w>": 3710,
      "tornando</w>": 3711,
      "milit": 3712,
      "ganhar</w>": 3713,
      "tratamento</w>": 3714,
      "camp": 3715,
      "enha</w>": 3716,
      "excel": 3717,
      "entreg": 3718,
      "aus": 3719,
      "tou": 3720,
      "pren": 3721,
      "sangue</w>": 3722,
      "pele</w>": 3723,
      "ill</w>": 3724,
      "mó": 3725,
      "James</w>": 3726,
      "conf": 3727,
      "bem-estar</w>": 3728,
      "____": 3729,
      "rist": 3730,
      "ismos</w>": 3731,
      "dida</w>": 3732,
      "exclu": 3733,
      "ingu": 3734,
      "recebeu</w>": 3735,
      "acompanh": 3736,
      "tenta</w>": 3737,
      "categoria</w>": 3738,
      "Gre": 3739,
      "fundo</w>": 3740,
      "Cu": 3741,
      "Apesar</w>": 3742,
      "vend": 3743,
      "polícia</w>": 3744,
      "Cent": 3745,
      "Mais</w>": 3746,
      "deles</w>": 3747,
      "ássar": 3748,
      "po,</w>": 3749,
      "corretamente</w>": 3750,
      "tiveram</w>": 3751,
      "endo": 3752,
      "épo": 3753,
      "promov": 3754,
      "ai</w>": 3755,
      "se.</w>": 3756,
      "ware</w>": 3757,
      "irá</w>": 3758,
      "cis": 3759,
      "Gerar</w>": 3760,
      "açú": 3761,
      "máquina</w>": 3762,
      "confir": 3763,
      "saída</w>": 3764,
      "la</w>": 3765,
      "195": 3766,
      "necessário</w>": 3767,
      "certa</w>": 3768,
      "rom": 3769,
      "gerar</w>": 3770,
      "Primeiro,</w>": 3771,
      "acima,</w>": 3772,
      "organização</w>": 3773,
      "caval": 3774,
      "só": 3775,
      "Micha": 3776,
      "real</w>": 3777,
      "Bi": 3778,
      "maiores</w>": 3779,
      "agu": 3780,
      "eria</w>": 3781,
      "precisam</w>": 3782,
      "relacionamento</w>": 3783,
      "acho</w>": 3784,
      "vin": 3785,
      "óxido</w>": 3786,
      "jun": 3787,
      "serem</w>": 3788,
      "Th": 3789,
      "parc": 3790,
      "terra</w>": 3791,
      "disponíveis</w>": 3792,
      "a\",</w>": 3793,
      "co-": 3794,
      "polí": 3795,
      "ére": 3796,
      "fiz": 3797,
      "ídu": 3798,
      "entrada</w>": 3799,
      "pássar": 3800,
      "mudar</w>": 3801,
      "Conclus": 3802,
      "ost": 3803,
      "ido.</w>": 3804,
      "claro</w>": 3805,
      "wo": 3806,
      "meses</w>": 3807,
      "sociedade</w>": 3808,
      "feliz</w>": 3809,
      "emis": 3810,
      "ro-": 3811,
      "queria</w>": 3812,
      "busca</w>": 3813,
      "erg": 3814,
      "par</w>": 3815,
      "oferecem</w>": 3816,
      "On": 3817,
      "Lond": 3818,
      "adicionais</w>": 3819,
      "ation": 3820,
      "Nat": 3821,
      "Lembre": 3822,
      "diu</w>": 3823,
      "panha</w>": 3824,
      "?Vamos</w>": 3825,
      "Cada</w>": 3826,
      "maç": 3827,
      "ular</w>": 3828,
      "Cert": 3829,
      "medic": 3830,
      "bot": 3831,
      "tornou-se</w>": 3832,
      "localizado</w>": 3833,
      "estiver</w>": 3834,
      "Podemos</w>": 3835,
      "necessidade</w>": 3836,
      "namor": 3837,
      "reun": 3838,
      "mensagem</w>": 3839,
      "eficaz</w>": 3840,
      "ez": 3841,
      "lados</w>": 3842,
      "confiança</w>": 3843,
      "depo": 3844,
      "juntos</w>": 3845,
      "assunt": 3846,
      "ções,</w>": 3847,
      "Sim": 3848,
      "âncias</w>": 3849,
      "usou</w>": 3850,
      "suficientes</w>": 3851,
      "longa</w>": 3852,
      "land": 3853,
      "peças</w>": 3854,
      "rid": 3855,
      "mencionado</w>": 3856,
      "mente.</w>": 3857,
      "(C": 3858,
      "vot": 3859,
      "comer</w>": 3860,
      "material</w>": 3861,
      "if": 3862,
      "US": 3863,
      "(1": 3864,
      "perd": 3865,
      "5:</w>": 3866,
      "ecos": 3867,
      "cum": 3868,
      "resídu": 3869,
      "entre": 3870,
      "navi": 3871,
      "sac": 3872,
      "premissa,</w>": 3873,
      "histórias</w>": 3874,
      "anhas</w>": 3875,
      "eb": 3876,
      "ong": 3877,
      "aten": 3878,
      "humanos</w>": 3879,
      "atual</w>": 3880,
      "euro": 3881,
      "ocorre</w>": 3882,
      "Universidade</w>": 3883,
      "distribu": 3884,
      "hot": 3885,
      "ção": 3886,
      "escre": 3887,
      "mostra</w>": 3888,
      "azu": 3889,
      "ome</w>": 3890,
      "casa.</w>": 3891,
      "ideias</w>": 3892,
      "marc": 3893,
      "tenham</w>": 3894,
      "real": 3895,
      "meus</w>": 3896,
      "Pres": 3897,
      "pontuação</w>": 3898,
      "imagens</w>": 3899,
      "sei</w>": 3900,
      "apresenta</w>": 3901,
      "Bl": 3902,
      "text": 3903,
      "quadr": 3904,
      "colet": 3905,
      "discu": 3906,
      "treinamento</w>": 3907,
      "monit": 3908,
      "futuro</w>": 3909,
      "líder</w>": 3910,
      "lent": 3911,
      "4,</w>": 3912,
      "chin": 3913,
      "isso": 3914,
      "trabalho.</w>": 3915,
      "um,</w>": 3916,
      "ficial</w>": 3917,
      "Willi": 3918,
      "distância</w>": 3919,
      "roub": 3920,
      "chef": 3921,
      "resposta:</w>": 3922,
      "avaliar</w>": 3923,
      "Nort": 3924,
      "Jan": 3925,
      "altamente</w>": 3926,
      "ly</w>": 3927,
      "administ": 3928,
      "defini": 3929,
      "realizar</w>": 3930,
      "argument": 3931,
      "aturas</w>": 3932,
      "vida,</w>": 3933,
      "ães</w>": 3934,
      "Ir": 3935,
      "cientí": 3936,
      "ann": 3937,
      "peça</w>": 3938,
      "cro": 3939,
      "hes</w>": 3940,
      "preocupações</w>": 3941,
      "194": 3942,
      "xí": 3943,
      "membro</w>": 3944,
      "fala</w>": 3945,
      "hospit": 3946,
      "quente</w>": 3947,
      "quantos</w>": 3948,
      "ity</w>": 3949,
      "Resposta:A</w>": 3950,
      "Sr.</w>": 3951,
      "objeto</w>": 3952,
      "sabe</w>": 3953,
      "atac": 3954,
      "sabemos</w>": 3955,
      "atrá": 3956,
      "ê-lo</w>": 3957,
      "diálog": 3958,
      "11</w>": 3959,
      "diversidade</w>": 3960,
      "envolvimento</w>": 3961,
      "preços</w>": 3962,
      "pequenos</w>": 3963,
      "conversa</w>": 3964,
      "Então</w>": 3965,
      "suces": 3966,
      "David</w>": 3967,
      "destru": 3968,
      "Don": 3969,
      "ilha</w>": 3970,
      "oci": 3971,
      "vír": 3972,
      "guer": 3973,
      "tivamente</w>": 3974,
      "especial</w>": 3975,
      "Claro,</w>": 3976,
      "plac": 3977,
      "vez,</w>": 3978,
      "cidente</w>": 3979,
      "estação</w>": 3980,
      "água.</w>": 3981,
      "ários.</w>": 3982,
      "relax": 3983,
      "by</w>": 3984,
      "emb": 3985,
      "visto</w>": 3986,
      "tema</w>": 3987,
      "idades.</w>": 3988,
      "dó": 3989,
      "pé</w>": 3990,
      "últimos</w>": 3991,
      "velh": 3992,
      "ínu": 3993,
      "Rom": 3994,
      "tirar</w>": 3995,
      "atlet": 3996,
      "lóg": 3997,
      "ameaç": 3998,
      "pot": 3999,
      "dú": 4000,
      "Mont": 4001,
      "dades</w>": 4002,
      "perform": 4003,
      "esteja</w>": 4004,
      "pública</w>": 4005,
      "taxas</w>": 4006,
      "\".?</w>": 4007,
      "lá</w>": 4008,
      "Ingl": 4009,
      "e)</w>": 4010,
      "Tom</w>": 4011,
      "conclusão</w>": 4012,
      "razão</w>": 4013,
      "Vi": 4014,
      "feed": 4015,
      "resumo,</w>": 4016,
      "características</w>": 4017,
      "métodos</w>": 4018,
      "viver</w>": 4019,
      "anterior": 4020,
      "fação</w>": 4021,
      "ensin": 4022,
      "document": 4023,
      "função</w>": 4024,
      "perceb": 4025,
      "contínu": 4026,
      "procurar</w>": 4027,
      "específica</w>": 4028,
      "Quanto</w>": 4029,
      "brinque": 4030,
      "primeiros</w>": 4031,
      "dificul": 4032,
      "ela.</w>": 4033,
      "som</w>": 4034,
      "imig": 4035,
      "No": 4036,
      "requer</w>": 4037,
      "He": 4038,
      "emun": 4039,
      "sito</w>": 4040,
      "13": 4041,
      "acredit": 4042,
      "consequências</w>": 4043,
      "notíci": 4044,
      "poluição</w>": 4045,
      "ick</w>": 4046,
      "ell</w>": 4047,
      "irmão</w>": 4048,
      "livre</w>": 4049,
      "didos</w>": 4050,
      "internacion": 4051,
      "tut": 4052,
      "dimento</w>": 4053,
      "all</w>": 4054,
      "casa,</w>": 4055,
      "danos</w>": 4056,
      "Determinar</w>": 4057,
      "pessoais</w>": 4058,
      "queim": 4059,
      "ina.</w>": 4060,
      "culturas</w>": 4061,
      "les</w>": 4062,
      "filme,</w>": 4063,
      "iram</w>": 4064,
      "colocar</w>": 4065,
      "cenário</w>": 4066,
      "\"M": 4067,
      "responde</w>": 4068,
      "equilíbrio</w>": 4069,
      "econô": 4070,
      "atmosfera</w>": 4071,
      "ug": 4072,
      "irm": 4073,
      "seguro</w>": 4074,
      "sicos</w>": 4075,
      "Il": 4076,
      "ester": 4077,
      "sai": 4078,
      "gá": 4079,
      "artistas</w>": 4080,
      "negativo</w>": 4081,
      "completamente</w>": 4082,
      "olhos</w>": 4083,
      "banh": 4084,
      "sol</w>": 4085,
      "logo</w>": 4086,
      "tarefa,</w>": 4087,
      "mir": 4088,
      "ecid": 4089,
      "Ed": 4090,
      "ída</w>": 4091,
      "ock": 4092,
      "forças</w>": 4093,
      "espaços</w>": 4094,
      "Hou": 4095,
      "Quantos</w>": 4096,
      "escolhas</w>": 4097,
      "êni": 4098,
      "inicial</w>": 4099,
      "ador.</w>": 4100,
      "aves</w>": 4101,
      "sivo</w>": 4102,
      "ney</w>": 4103,
      "filme:</w>": 4104,
      "cultural</w>": 4105,
      "outros.</w>": 4106,
      "experimentar</w>": 4107,
      "propriedade</w>": 4108,
      "Amer": 4109,
      "tamb": 4110,
      "palavr": 4111,
      "portanto,</w>": 4112,
      "rat": 4113,
      "6,</w>": 4114,
      "vestindo</w>": 4115,
      "Cap": 4116,
      "pé": 4117,
      "8,</w>": 4118,
      "convid": 4119,
      "dependendo</w>": 4120,
      "absor": 4121,
      "Dis": 4122,
      "isso.</w>": 4123,
      "Analise</w>": 4124,
      "quebrar</w>": 4125,
      "viu</w>": 4126,
      "ativamente</w>": 4127,
      "diversas</w>": 4128,
      "jovens</w>": 4129,
      "reserv": 4130,
      "doenças</w>": 4131,
      "ando,</w>": 4132,
      "IA</w>": 4133,
      "economia</w>": 4134,
      "Pes": 4135,
      "impul": 4136,
      "considerado</w>": 4137,
      "Tri": 4138,
      "desfrut": 4139,
      "continuar</w>": 4140,
      "chuva</w>": 4141,
      "oferecer</w>": 4142,
      "Sy": 4143,
      "Wh": 4144,
      "Sim</w>": 4145,
      "bis": 4146,
      "ra:</w>": 4147,
      "ris</w>": 4148,
      "prática</w>": 4149,
      "Mundi": 4150,
      "essor</w>": 4151,
      "Mon": 4152,
      "financi": 4153,
      "érias</w>": 4154,
      "orden": 4155,
      "preserv": 4156,
      "ouvir</w>": 4157,
      "ânico</w>": 4158,
      "imag": 4159,
      "hipótese.</w>": 4160,
      "Michael</w>": 4161,
      "teste</w>": 4162,
      "arquit": 4163,
      "Sab": 4164,
      "a;</w>": 4165,
      "ático</w>": 4166,
      "únci": 4167,
      "profess": 4168,
      "comprimento</w>": 4169,
      "e?": 4170,
      "terceiro</w>": 4171,
      "liter": 4172,
      "instr": 4173,
      "descobre</w>": 4174,
      "Austr": 4175,
      "via</w>": 4176,
      "propó": 4177,
      "chdo": 4178,
      "selv": 4179,
      "retrat": 4180,
      "vista</w>": 4181,
      "água,</w>": 4182,
      "diretor</w>": 4183,
      "rápido</w>": 4184,
      "Ty": 4185,
      "compartilhar</w>": 4186,
      "Im": 4187,
      "significativa</w>": 4188,
      "ídos</w>": 4189,
      "anas</w>": 4190,
      "plataformas</w>": 4191,
      "colo": 4192,
      "priv": 4193,
      "precisão</w>": 4194,
      "trabalhando</w>": 4195,
      "culin": 4196,
      "palavras": 4197,
      "edades</w>": 4198,
      "ador,</w>": 4199,
      "senh": 4200,
      "morre": 4201,
      "Gl": 4202,
      "D.</w>": 4203,
      "gri": 4204,
      "oportunidade</w>": 4205,
      "voz</w>": 4206,
      "resumo</w>": 4207,
      "relacionadas</w>": 4208,
      "online</w>": 4209,
      "ticamente</w>": 4210,
      "dios</w>": 4211,
      "possui</w>": 4212,
      "cabelo</w>": 4213,
      "ing,</w>": 4214,
      "passe": 4215,
      "usadas</w>": 4216,
      "Fil": 4217,
      "pais": 4218,
      "\"T": 4219,
      "captur": 4220,
      "(S": 4221,
      "compromis": 4222,
      "pico</w>": 4223,
      "esar</w>": 4224,
      "tica</w>": 4225,
      "espect": 4226,
      "abordar</w>": 4227,
      "enfrentar</w>": 4228,
      "ampla</w>": 4229,
      "ebol": 4230,
      "demonst": 4231,
      "-o</w>": 4232,
      "filha</w>": 4233,
      "líqu": 4234,
      "touchdo": 4235,
      "cena</w>": 4236,
      "eira.</w>": 4237,
      "acres": 4238,
      "íram</w>": 4239,
      "tom</w>": 4240,
      "fech": 4241,
      "energi": 4242,
      "números</w>": 4243,
      "audi": 4244,
      "pare": 4245,
      "alista</w>": 4246,
      "lei</w>": 4247,
      "ja": 4248,
      "fant": 4249,
      "Geor": 4250,
      "redor</w>": 4251,
      "emocional</w>": 4252,
      "adul": 4253,
      "ofici": 4254,
      "vermel": 4255,
      "trim": 4256,
      "marketing</w>": 4257,
      "tarefas</w>": 4258,
      "fortes</w>": 4259,
      "milhas</w>": 4260,
      "ariamente</w>": 4261,
      "ws</w>": 4262,
      "resid": 4263,
      "Esper": 4264,
      "classe</w>": 4265,
      "rendo</w>": 4266,
      "adol": 4267,
      "ensino</w>": 4268,
      "diferente</w>": 4269,
      "micas</w>": 4270,
      "significativamente</w>": 4271,
      "Certifique-se</w>": 4272,
      "Trum": 4273,
      "inten": 4274,
      "garraf": 4275,
      "contrat": 4276,
      "discut": 4277,
      "gat": 4278,
      "líder": 4279,
      "culp": 4280,
      "ido,</w>": 4281,
      "otec": 4282,
      "nossas</w>": 4283,
      "el,</w>": 4284,
      "delici": 4285,
      "dev": 4286,
      "Pet": 4287,
      "fabric": 4288,
      "prejudi": 4289,
      "cans": 4290,
      "desapar": 4291,
      "metade</w>": 4292,
      "relevantes</w>": 4293,
      "500</w>": 4294,
      "feitos</w>": 4295,
      "útil</w>": 4296,
      "Pal": 4297,
      "cân": 4298,
      "apesar</w>": 4299,
      "Min": 4300,
      "gama</w>": 4301,
      "sul</w>": 4302,
      "receber</w>": 4303,
      "inúmer": 4304,
      "madeira</w>": 4305,
      "projetos</w>": 4306,
      "Ma": 4307,
      "7,</w>": 4308,
      "ques</w>": 4309,
      "artigo:</w>": 4310,
      "Considere</w>": 4311,
      "Obri": 4312,
      "rede</w>": 4313,
      "mesa</w>": 4314,
      "est</w>": 4315,
      "bast": 4316,
      "sabia</w>": 4317,
      "ça.</w>": 4318,
      "ordem</w>": 4319,
      "fá": 4320,
      "juros</w>": 4321,
      "desen": 4322,
      "jo": 4323,
      "ologia</w>": 4324,
      "decisões</w>": 4325,
      "carros</w>": 4326,
      "investigação</w>": 4327,
      "design": 4328,
      "preferências</w>": 4329,
      "verificar</w>": 4330,
      "esforço</w>": 4331,
      "tradicionais</w>": 4332,
      "cinem": 4333,
      "ando-o</w>": 4334,
      "arre": 4335,
      "femin": 4336,
      "totalmente</w>": 4337,
      "quei": 4338,
      "terá</w>": 4339,
      "aprove": 4340,
      "soli": 4341,
      "Pode</w>": 4342,
      "arry</w>": 4343,
      "fum": 4344,
      "apont": 4345,
      "medo</w>": 4346,
      "extrem": 4347,
      "dióxido</w>": 4348,
      "gelo</w>": 4349,
      "bem-suce": 4350,
      "ar:</w>": 4351,
      "liderança</w>": 4352,
      "indivíduo</w>": 4353,
      "verific": 4354,
      "sific": 4355,
      "geral.</w>": 4356,
      "responsável</w>": 4357,
      "opiniões</w>": 4358,
      "mostrar</w>": 4359,
      "erá</w>": 4360,
      "custos</w>": 4361,
      "tual</w>": 4362,
      "tradi": 4363,
      "erem</w>": 4364,
      "ana,</w>": 4365,
      "66": 4366,
      "esco": 4367,
      "infec": 4368,
      "al.": 4369,
      "combat": 4370,
      "sobreviv": 4371,
      "Sal": 4372,
      "propriet": 4373,
      "os?": 4374,
      "sabor</w>": 4375,
      "produzir</w>": 4376,
      "testemun": 4377,
      "Terra</w>": 4378,
      "visu": 4379,
      "cole": 4380,
      "Resum": 4381,
      "árvores</w>": 4382,
      "isl": 4383,
      "ística</w>": 4384,
      "Goog": 4385,
      "-lhes</w>": 4386,
      "pareci": 4387,
      "ariam</w>": 4388,
      "úr": 4389,
      "ferramenta</w>": 4390,
      "massa</w>": 4391,
      "diferenças</w>": 4392,
      "etap": 4393,
      "estruturas</w>": 4394,
      "pati": 4395,
      "adequada</w>": 4396,
      "mal</w>": 4397,
      "parar</w>": 4398,
      "mistur": 4399,
      "compra</w>": 4400,
      "negoci": 4401,
      "culturais</w>": 4402,
      "13</w>": 4403,
      "Sa": 4404,
      "orias</w>": 4405,
      "profund": 4406,
      "médico</w>": 4407,
      "amp": 4408,
      "azes</w>": 4409,
      "..</w>": 4410,
      "câmer": 4411,
      "salv": 4412,
      "posit": 4413,
      "bele": 4414,
      "coraj": 4415,
      "longe</w>": 4416,
      "as?</w>": 4417,
      "solar</w>": 4418,
      "história.</w>": 4419,
      "investimento</w>": 4420,
      "americano</w>": 4421,
      "jornada</w>": 4422,
      "Segun": 4423,
      "att": 4424,
      "pena</w>": 4425,
      "igual": 4426,
      "objetivos</w>": 4427,
      "narra": 4428,
      "forme</w>": 4429,
      "ça,</w>": 4430,
      "profissionais</w>": 4431,
      "re,</w>": 4432,
      "relações</w>": 4433,
      "ida.</w>": 4434,
      "acrescent": 4435,
      "1/": 4436,
      "ajudou</w>": 4437,
      "danç": 4438,
      "sair</w>": 4439,
      "objetos</w>": 4440,
      "vale</w>": 4441,
      "digo</w>": 4442,
      "jogando</w>": 4443,
      "Ber": 4444,
      "sap": 4445,
      "Nacional</w>": 4446,
      "eletr": 4447,
      "gener": 4448,
      "úni": 4449,
      "do:</w>": 4450,
      "Pe": 4451,
      "ux": 4452,
      "Ph": 4453,
      "rast": 4454,
      "ório</w>": 4455,
      "us,</w>": 4456,
      "Jack</w>": 4457,
      "recent": 4458,
      "processos</w>": 4459,
      "\"N": 4460,
      "velmente</w>": 4461,
      "também": 4462,
      "auto": 4463,
      "adv": 4464,
      "parque</w>": 4465,
      "destin": 4466,
      "aquele</w>": 4467,
      "permitindo</w>": 4468,
      "tensão</w>": 4469,
      "direito</w>": 4470,
      "',</w>": 4471,
      "vê</w>": 4472,
      "Gol": 4473,
      "ército</w>": 4474,
      "asi": 4475,
      "ke</w>": 4476,
      "inhos</w>": 4477,
      "conceito</w>": 4478,
      "New</w>": 4479,
      "passado</w>": 4480,
      "crist": 4481,
      "segue</w>": 4482,
      "ecol": 4483,
      "(i": 4484,
      "estabelecer</w>": 4485,
      "passou</w>": 4486,
      "use</w>": 4487,
      "obras</w>": 4488,
      "Times</w>": 4489,
      "stri": 4490,
      "e-me</w>": 4491,
      "emerg": 4492,
      "crenças</w>": 4493,
      "pect": 4494,
      "Gar": 4495,
      "breve</w>": 4496,
      "influência</w>": 4497,
      "bul": 4498,
      "unidade</w>": 4499,
      "obrig": 4500,
      "Lembre-se</w>": 4501,
      "vídeo</w>": 4502,
      "a!</w>": 4503,
      "psi": 4504,
      "resto</w>": 4505,
      "eleit": 4506,
      "Fi": 4507,
      "Americ": 4508,
      "ok</w>": 4509,
      "trabalhadores</w>": 4510,
      "norte</w>": 4511,
      "aquela</w>": 4512,
      "ários,</w>": 4513,
      "limpe": 4514,
      "explicar</w>": 4515,
      "celebr": 4516,
      "Dr.</w>": 4517,
      "Cali": 4518,
      "inver": 4519,
      "pratos</w>": 4520,
      "alistas</w>": 4521,
      "autor</w>": 4522,
      "respeit": 4523,
      "vaz": 4524,
      "equação:</w>": 4525,
      "ingredientes</w>": 4526,
      "global</w>": 4527,
      "omas</w>": 4528,
      "deixou</w>": 4529,
      "mento.</w>": 4530,
      "motor": 4531,
      "diri": 4532,
      "temas</w>": 4533,
      "estad": 4534,
      "Faça</w>": 4535,
      "eira,</w>": 4536,
      "bolo</w>": 4537,
      "campanha</w>": 4538,
      "tação</w>": 4539,
      "ba</w>": 4540,
      "espor": 4541,
      "fe</w>": 4542,
      "necessárias</w>": 4543,
      "siva</w>": 4544,
      "lugar,</w>": 4545,
      "porto</w>": 4546,
      "ios</w>": 4547,
      "net": 4548,
      "soluções</w>": 4549,
      "colh": 4550,
      "apart": 4551,
      "razo": 4552,
      "quart": 4553,
      "boc": 4554,
      "cog": 4555,
      "orç": 4556,
      "dólar": 4557,
      "crí": 4558,
      "poleg": 4559,
      "plataforma</w>": 4560,
      "física</w>": 4561,
      "pedir</w>": 4562,
      "TV</w>": 4563,
      "dimentos</w>": 4564,
      "Contexto:</w>": 4565,
      "partí": 4566,
      "telefone</w>": 4567,
      "vig": 4568,
      "encontrou</w>": 4569,
      "novamente</w>": 4570,
      "eiramente</w>": 4571,
      "cruz": 4572,
      "serão</w>": 4573,
      "bilh": 4574,
      "engenh": 4575,
      "disse": 4576,
      "necessários</w>": 4577,
      "florest": 4578,
      "feedback</w>": 4579,
      "ans</w>": 4580,
      "contar</w>": 4581,
      "Mil": 4582,
      "ont": 4583,
      "ex</w>": 4584,
      "disponíveis": 4585,
      "ânica</w>": 4586,
      "professor</w>": 4587,
      "aprendizagem</w>": 4588,
      "participar</w>": 4589,
      "ON": 4590,
      "esquer": 4591,
      "naturais</w>": 4592,
      "tecnologias</w>": 4593,
      "moviment": 4594,
      "list": 4595,
      "estresse</w>": 4596,
      "giu</w>": 4597,
      "passa</w>": 4598,
      "baixa</w>": 4599,
      "fiel": 4600,
      "Antes</w>": 4601,
      "costum": 4602,
      "med": 4603,
      "subtra": 4604,
      "desconto</w>": 4605,
      "Lo": 4606,
      "estion": 4607,
      "expli": 4608,
      "ou.</w>": 4609,
      "York</w>": 4610,
      "famílias</w>": 4611,
      "vie</w>": 4612,
      "sil": 4613,
      "Tal": 4614,
      "método</w>": 4615,
      "desl": 4616,
      "ferência</w>": 4617,
      "Opções:</w>": 4618,
      "passe</w>": 4619,
      "receber": 4620,
      "ataque</w>": 4621,
      "humano</w>": 4622,
      "volunt": 4623,
      "ego</w>": 4624,
      "combinação</w>": 4625,
      "antemente</w>": 4626,
      "ológi": 4627,
      "Mad": 4628,
      "software</w>": 4629,
      "modern": 4630,
      "japon": 4631,
      "nucle": 4632,
      "formar</w>": 4633,
      "édi": 4634,
      "Certamente!</w>": 4635,
      "diverti": 4636,
      "Tu": 4637,
      "drog": 4638,
      ".Você</w>": 4639,
      "elim": 4640,
      "flores</w>": 4641,
      "descrição</w>": 4642,
      "preciso</w>": 4643,
      "em:</w>": 4644,
      "exercícios</w>": 4645,
      "ew": 4646,
      "é,</w>": 4647,
      "d,</w>": 4648,
      ");</w>": 4649,
      "put": 4650,
      "indústri": 4651,
      "aspecto</w>": 4652,
      "conqu": 4653,
      "escap": 4654,
      "voltar</w>": 4655,
      "alinh": 4656,
      "Sam": 4657,
      "tud": 4658,
      "rada</w>": 4659,
      "193": 4660,
      "preven": 4661,
      "ake</w>": 4662,
      "cac": 4663,
      "conseguiu</w>": 4664,
      "rado</w>": 4665,
      "ice</w>": 4666,
      "utilização</w>": 4667,
      "fosse</w>": 4668,
      "Tom": 4669,
      "trav": 4670,
      "21</w>": 4671,
      "Desde</w>": 4672,
      "alizar</w>": 4673,
      "conceitos</w>": 4674,
      "anunci": 4675,
      "Fal": 4676,
      "velho</w>": 4677,
      "emprego</w>": 4678,
      "mú": 4679,
      "Númer": 4680,
      "dada,</w>": 4681,
      "estat": 4682,
      "facilmente</w>": 4683,
      "açúcar</w>": 4684,
      "notar</w>": 4685,
      "comprou</w>": 4686,
      "idade:</w>": 4687,
      "Wal": 4688,
      "my</w>": 4689,
      "aram": 4690,
      "9,</w>": 4691,
      "mergul": 4692,
      "comerci": 4693,
      "dada.</w>": 4694,
      "entra</w>": 4695,
      "decidir</w>": 4696,
      "dedic": 4697,
      "equipes</w>": 4698,
      "gênero</w>": 4699,
      "festa</w>": 4700,
      "dizer": 4701,
      "rus": 4702,
      "mento,</w>": 4703,
      "instituição</w>": 4704,
      "ath": 4705,
      "prazo</w>": 4706,
      "k.</w>": 4707,
      "Jon": 4708,
      "cional</w>": 4709,
      "identidade</w>": 4710,
      "gin": 4711,
      "ou,</w>": 4712,
      "ib": 4713,
      "trist": 4714,
      "arquitet": 4715,
      "planos</w>": 4716,
      "Lin": 4717,
      "adequado</w>": 4718,
      "és": 4719,
      "expect": 4720,
      "resíduos</w>": 4721,
      "eleg": 4722,
      "press": 4723,
      "bliotec": 4724,
      "tidão</w>": 4725,
      "ares,</w>": 4726,
      "ensai": 4727,
      "pai": 4728,
      "posições</w>": 4729,
      "igre": 4730,
      "suspe": 4731,
      "Ac": 4732,
      "setem": 4733,
      "soma</w>": 4734,
      "e\",</w>": 4735,
      "Thom": 4736,
      "clara</w>": 4737,
      "jardi": 4738,
      "lugares</w>": 4739,
      "visitar</w>": 4740,
      "ilum": 4741,
      "anda</w>": 4742,
      "Áfri": 4743,
      "riscos</w>": 4744,
      "manhã</w>": 4745,
      "destaca</w>": 4746,
      "sta</w>": 4747,
      "gás</w>": 4748,
      "estamos</w>": 4749,
      "canção</w>": 4750,
      "xi": 4751,
      "forma,</w>": 4752,
      "fornecem</w>": 4753,
      "etes</w>": 4754,
      "oficial</w>": 4755,
      "?O</w>": 4756,
      "caus": 4757,
      "cando</w>": 4758,
      "bastante</w>": 4759,
      "doença</w>": 4760,
      "comérci": 4761,
      "wit": 4762,
      "esperar</w>": 4763,
      "entrev": 4764,
      "?Para</w>": 4765,
      "olhar</w>": 4766,
      "julg": 4767,
      "úte": 4768,
      "che": 4769,
      "tab": 4770,
      "edifício</w>": 4771,
      "volum": 4772,
      "facul": 4773,
      "ares.</w>": 4774,
      "filhos</w>": 4775,
      "íne": 4776,
      "Mik": 4777,
      "receita</w>": 4778,
      "carne</w>": 4779,
      "George</w>": 4780,
      "17</w>": 4781,
      "itali": 4782,
      "aumenta</w>": 4783,
      "per</w>": 4784,
      "dizer.</w>": 4785,
      "capazes</w>": 4786,
      "prêmi": 4787,
      "cai": 4788,
      "exces": 4789,
      "cho</w>": 4790,
      "produto.</w>": 4791,
      "alem": 4792,
      "televisão</w>": 4793,
      "festiv": 4794,
      "mes</w>": 4795,
      "\"B": 4796,
      "jogou</w>": 4797,
      "twe": 4798,
      "premissa": 4799,
      "América</w>": 4800,
      "Número</w>": 4801,
      "Jul": 4802,
      "19</w>": 4803,
      "dram": 4804,
      "naveg": 4805,
      "icas,</w>": 4806,
      "trabalho,</w>": 4807,
      "pagar</w>": 4808,
      "elei": 4809,
      "Ori": 4810,
      "Dois</w>": 4811,
      "elog": 4812,
      "criando</w>": 4813,
      "ashing": 4814,
      "desse</w>": 4815,
      "populares</w>": 4816,
      "radi": 4817,
      "agrí": 4818,
      "agrícol": 4819,
      "dan": 4820,
      "chefe</w>": 4821,
      "proporção</w>": 4822,
      "comuns</w>": 4823,
      "tiver</w>": 4824,
      "áti": 4825,
      "wor": 4826,
      "fundamental</w>": 4827,
      "isol": 4828,
      "fotos</w>": 4829,
      "anúnci": 4830,
      "atrás</w>": 4831,
      "democ": 4832,
      "gosta</w>": 4833,
      "baseada</w>": 4834,
      "dividi": 4835,
      "razões</w>": 4836,
      "conect": 4837,
      "exposição</w>": 4838,
      "impactos</w>": 4839,
      "insatis": 4840,
      "fins</w>": 4841,
      "manut": 4842,
      "consumo</w>": 4843,
      "Fac": 4844,
      "especializ": 4845,
      "laran": 4846,
      "Conclusão:</w>": 4847,
      "recicl": 4848,
      "haver</w>": 4849,
      "z,</w>": 4850,
      "eles.</w>": 4851,
      "dizendo</w>": 4852,
      "Sele": 4853,
      "Obrigado</w>": 4854,
      "são:</w>": 4855,
      "bel": 4856,
      "animal</w>": 4857,
      "proposta</w>": 4858,
      "ana.</w>": 4859,
      "afetar</w>": 4860,
      "Artig": 4861,
      "vent": 4862,
      "ácia</w>": 4863,
      "frase:</w>": 4864,
      "certos</w>": 4865,
      "Rich": 4866,
      "passos</w>": 4867,
      "juntamente</w>": 4868,
      "compens": 4869,
      "China</w>": 4870,
      "iniciativas</w>": 4871,
      "aprov": 4872,
      "estudos</w>": 4873,
      "apresentar</w>": 4874,
      "escolas</w>": 4875,
      "folhas</w>": 4876,
      "máxim": 4877,
      "Norte</w>": 4878,
      "pessoas.</w>": 4879,
      "urn": 4880,
      "en,</w>": 4881,
      "procura</w>": 4882,
      "comunit": 4883,
      "iva</w>": 4884,
      "gé": 4885,
      "equili": 4886,
      "ust": 4887,
      "show</w>": 4888,
      "cadeia</w>": 4889,
      "inicialmente</w>": 4890,
      "Indi": 4891,
      "remov": 4892,
      "rastre": 4893,
      "cha</w>": 4894,
      "in,</w>": 4895,
      "Essa</w>": 4896,
      "ht</w>": 4897,
      "color": 4898,
      "próprias</w>": 4899,
      "s)</w>": 4900,
      "baseado</w>": 4901,
      "face</w>": 4902,
      "idades,</w>": 4903,
      "picos</w>": 4904,
      "cães</w>": 4905,
      "land</w>": 4906,
      "contribuir</w>": 4907,
      "son,</w>": 4908,
      "dispositivos</w>": 4909,
      "ajudam</w>": 4910,
      "médio</w>": 4911,
      "talvez</w>": 4912,
      "rua</w>": 4913,
      "guit": 4914,
      "Mor": 4915,
      "den</w>": 4916,
      "usão</w>": 4917,
      "representa</w>": 4918,
      "língua</w>": 4919,
      "prat": 4920,
      "íni": 4921,
      "trabalha</w>": 4922,
      "reti": 4923,
      "atin": 4924,
      "guar": 4925,
      "definitivamente</w>": 4926,
      "75</w>": 4927,
      "adores.</w>": 4928,
      "trazer</w>": 4929,
      "escrita</w>": 4930,
      "Todos</w>": 4931,
      "eat": 4932,
      "componentes</w>": 4933,
      "ado:</w>": 4934,
      "ataqu": 4935,
      "50": 4936,
      "Justific": 4937,
      "noite,</w>": 4938,
      "\"Não</w>": 4939,
      "essenciais</w>": 4940,
      "assistir</w>": 4941,
      "resposta,</w>": 4942,
      "etapa</w>": 4943,
      "decidiu</w>": 4944,
      "adores,</w>": 4945,
      "(3": 4946,
      "consumid": 4947,
      "Finalmente,</w>": 4948,
      "amiz": 4949,
      "orar</w>": 4950,
      "yl": 4951,
      "desenh": 4952,
      "discus": 4953,
      "abaixo</w>": 4954,
      "indu": 4955,
      "to,</w>": 4956,
      "assumir</w>": 4957,
      "or:</w>": 4958,
      "prioriz": 4959,
      "alu": 4960,
      "Califór": 4961,
      "situações</w>": 4962,
      "aparência</w>": 4963,
      "remover</w>": 4964,
      "Washing": 4965,
      "Revis": 4966,
      "gases</w>": 4967,
      "banco</w>": 4968,
      "Artigo:</w>": 4969,
      "partamento</w>": 4970,
      "Mant": 4971,
      "enfatiz": 4972,
      "ir.</w>": 4973,
      "lançado</w>": 4974,
      "aldei": 4975,
      "Alem": 4976,
      "solut": 4977,
      "vitória</w>": 4978,
      "faixa</w>": 4979,
      "garantindo</w>": 4980,
      "iga</w>": 4981,
      "gent": 4982,
      "seg": 4983,
      "t,</w>": 4984,
      "últipl": 4985,
      "árvore</w>": 4986,
      "fornecida</w>": 4987,
      "advog": 4988,
      "on.</w>": 4989,
      "compreender</w>": 4990,
      "querem</w>": 4991,
      "compromisso</w>": 4992,
      "pux": 4993,
      "Estado</w>": 4994,
      "il</w>": 4995,
      "Veri": 4996,
      "hos</w>": 4997,
      "evidências</w>": 4998,
      "yn": 4999,
      "fase</w>": 5000,
      "as\".</w>": 5001,
      "gio</w>": 5002,
      "ante": 5003,
      "Me": 5004,
      "Canad": 5005,
      "rações</w>": 5006,
      "ondas</w>": 5007,
      "Fre": 5008,
      "quê": 5009,
      "Us": 5010,
      "relacionados</w>": 5011,
      "aproximadamente</w>": 5012,
      "adoras</w>": 5013,
      "artista</w>": 5014,
      "foto": 5015,
      "negócios</w>": 5016,
      "Gal": 5017,
      "exercício</w>": 5018,
      "ert</w>": 5019,
      "camisa</w>": 5020,
      "ouro</w>": 5021,
      "regular</w>": 5022,
      "cinema</w>": 5023,
      "futu": 5024,
      "minim": 5025,
      "resposta.</w>": 5026,
      "Wor": 5027,
      "l,</w>": 5028,
      "Sul": 5029,
      "jantar</w>": 5030,
      "entusi": 5031,
      "frequência</w>": 5032,
      "falando</w>": 5033,
      "aul</w>": 5034,
      "lie</w>": 5035,
      "nasceu</w>": 5036,
      "22</w>": 5037,
      "diversific": 5038,
      "gido</w>": 5039,
      "rag": 5040,
      "capital</w>": 5041,
      "im.</w>": 5042,
      "Movie</w>": 5043,
      "os\".</w>": 5044,
      "relacionada</w>": 5045,
      "minhas</w>": 5046,
      "órias</w>": 5047,
      "requis": 5048,
      "os?</w>": 5049,
      "ago</w>": 5050,
      "climáticas</w>": 5051,
      "ve,</w>": 5052,
      "peri": 5053,
      "sistem": 5054,
      "aí": 5055,
      "abrangente</w>": 5056,
      "eti": 5057,
      "bido</w>": 5058,
      "2,": 5059,
      "sanguíne": 5060,
      "empur": 5061,
      "código</w>": 5062,
      "Loc": 5063,
      "beleza</w>": 5064,
      "estrelas</w>": 5065,
      "chocol": 5066,
      "aére": 5067,
      "perder</w>": 5068,
      "Pesquis": 5069,
      "bio</w>": 5070,
      "resultado,</w>": 5071,
      "fit": 5072,
      "Muitas</w>": 5073,
      "stitut": 5074,
      "ong</w>": 5075,
      "ália</w>": 5076,
      "ks</w>": 5077,
      "leite</w>": 5078,
      "parcer": 5079,
      "icas.</w>": 5080,
      "perturbação</w>": 5081,
      "líderes</w>": 5082,
      "fornecidas,</w>": 5083,
      "as)</w>": 5084,
      "jec": 5085,
      "ovos</w>": 5086,
      "próprios</w>": 5087,
      "deixa</w>": 5088,
      "b).</w>": 5089,
      "individu": 5090,
      "negativos</w>": 5091,
      "justiça</w>": 5092,
      "oni": 5093,
      "co:</w>": 5094,
      "verdade,</w>": 5095,
      "Alex": 5096,
      "ceis</w>": 5097,
      "passag": 5098,
      "proteção</w>": 5099,
      "Tex": 5100,
      "m,</w>": 5101,
      "crescente</w>": 5102,
      "ator</w>": 5103,
      "quantas</w>": 5104,
      "Grande</w>": 5105,
      "múltipl": 5106,
      "libras</w>": 5107,
      "casos</w>": 5108,
      "texto.</w>": 5109,
      "padrão</w>": 5110,
      "telefon": 5111,
      "frustr": 5112,
      "Sub": 5113,
      "planta</w>": 5114,
      "empresa,</w>": 5115,
      "ados:</w>": 5116,
      "correndo</w>": 5117,
      "Unidos.</w>": 5118,
      "s\"</w>": 5119,
      "mite</w>": 5120,
      "clima</w>": 5121,
      "EUA.</w>": 5122,
      "Rec": 5123,
      "infl": 5124,
      "nomes</w>": 5125,
      "plot": 5126,
      "45</w>": 5127,
      "\\).</w>": 5128,
      "Jack": 5129,
      "tomada</w>": 5130,
      "movimentos</w>": 5131,
      "persegu": 5132,
      "responsabilidade</w>": 5133,
      "oto</w>": 5134,
      "ótimo</w>": 5135,
      "o;</w>": 5136,
      "Avali": 5137,
      "almo": 5138,
      "cípi": 5139,
      "chá</w>": 5140,
      "90</w>": 5141,
      "tril": 5142,
      "titu": 5143,
      "apaix": 5144,
      "tal</w>": 5145,
      "corrente</w>": 5146,
      "to.</w>": 5147,
      "futebol": 5148,
      "Her": 5149,
      "28</w>": 5150,
      "opinião</w>": 5151,
      "depen": 5152,
      "maci": 5153,
      "armas</w>": 5154,
      "contexto,</w>": 5155,
      "Sarah</w>": 5156,
      "(I": 5157,
      "menores</w>": 5158,
      "moment": 5159,
      "temp": 5160,
      "notícias</w>": 5161,
      "enor": 5162,
      "interesses</w>": 5163,
      "on-l": 5164,
      "natural,</w>": 5165,
      "ze</w>": 5166,
      "atribu": 5167,
      "gosto</w>": 5168,
      "escala</w>": 5169,
      "adolesc": 5170,
      "Ban": 5171,
      "mac": 5172,
      "semanas</w>": 5173,
      "completo</w>": 5174,
      "casas</w>": 5175,
      "conv": 5176,
      "Adicione</w>": 5177,
      "excelente</w>": 5178,
      "lou": 5179,
      "relacionamentos</w>": 5180,
      "fogo</w>": 5181,
      "mecan": 5182,
      "ir,</w>": 5183,
      "tive</w>": 5184,
      "num": 5185,
      "pros": 5186,
      "pede</w>": 5187,
      "feder": 5188,
      "30": 5189,
      "casamento</w>": 5190,
      "Sk": 5191,
      "partículas</w>": 5192,
      "``": 5193,
      "age</w>": 5194,
      "Imp": 5195,
      "áticos</w>": 5196,
      "empor": 5197,
      "urban": 5198,
      "hoje</w>": 5199,
      "feita</w>": 5200,
      "tod": 5201,
      "estrada</w>": 5202,
      "pré-": 5203,
      "eiro": 5204,
      "anta</w>": 5205,
      "São</w>": 5206,
      "irmã</w>": 5207,
      "P:</w>": 5208,
      "emissões</w>": 5209,
      "an.</w>": 5210,
      "promoção</w>": 5211,
      "pesquisas</w>": 5212,
      "intens": 5213,
      "za,</w>": 5214,
      "equilibr": 5215,
      "70</w>": 5216,
      "a-fei": 5217,
      "eu": 5218,
      "cabeç": 5219,
      "colher</w>": 5220,
      "superar</w>": 5221,
      "orit": 5222,
      "tarde,</w>": 5223,
      "sal</w>": 5224,
      "play": 5225,
      "eth</w>": 5226,
      "prest": 5227,
      "sos,</w>": 5228,
      "iras</w>": 5229,
      "tornam</w>": 5230,
      "tribun": 5231,
      "organismos</w>": 5232,
      "miner": 5233,
      "pun": 5234,
      "pisó": 5235,
      "arran": 5236,
      "emia</w>": 5237,
      "fizeram</w>": 5238,
      "mundo,</w>": 5239,
      "publi": 5240,
      "rafia</w>": 5241,
      "sugerir</w>": 5242,
      "negativa</w>": 5243,
      "oma</w>": 5244,
      "ess</w>": 5245,
      "conhecidos</w>": 5246,
      "mesm": 5247,
      "clube</w>": 5248,
      "gol</w>": 5249,
      "set": 5250,
      "restantes</w>": 5251,
      "kg</w>": 5252,
      "Bat": 5253,
      "passo:</w>": 5254,
      "atingir</w>": 5255,
      "distint": 5256,
      "claramente</w>": 5257,
      "determinado</w>": 5258,
      "detec": 5259,
      "relat": 5260,
      "significativas</w>": 5261,
      "Hen": 5262,
      "impossível</w>": 5263,
      "Procur": 5264,
      "trabalham</w>": 5265,
      "teri": 5266,
      "regras</w>": 5267,
      "querer</w>": 5268,
      "investir</w>": 5269,
      "antiga</w>": 5270,
      "propósito</w>": 5271,
      "recor": 5272,
      "Mi": 5273,
      "cozinha</w>": 5274,
      "eced": 5275,
      "princípi": 5276,
      "visita</w>": 5277,
      "pend": 5278,
      "grat": 5279,
      "sujeit": 5280,
      "pin": 5281,
      "ól": 5282,
      "marcas</w>": 5283,
      "Mal": 5284,
      "histórico</w>": 5285,
      "elen": 5286,
      "janeiro</w>": 5287,
      "perspectiva</w>": 5288,
      "bibliotec": 5289,
      "musical</w>": 5290,
      "bio": 5291,
      "secret": 5292,
      "antigo</w>": 5293,
      "fós": 5294,
      "meninas</w>": 5295,
      "ny</w>": 5296,
      "chega</w>": 5297,
      "acredita</w>": 5298,
      "plot:</w>": 5299,
      "correr</w>": 5300,
      "Alex</w>": 5301,
      "deram</w>": 5302,
      "escreveu</w>": 5303,
      "Gra": 5304,
      "fãs</w>": 5305,
      "ose</w>": 5306,
      "político</w>": 5307,
      "preso</w>": 5308,
      "você.</w>": 5309,
      "semelhante</w>": 5310,
      "Mari": 5311,
      "quero</w>": 5312,
      "houve</w>": 5313,
      "pegar</w>": 5314,
      "linhas</w>": 5315,
      "respeito</w>": 5316,
      "emento</w>": 5317,
      "Trump</w>": 5318,
      "jur": 5319,
      "ald</w>": 5320,
      "40": 5321,
      "(D": 5322,
      "2)</w>": 5323,
      "oque</w>": 5324,
      "vezes,</w>": 5325,
      "fog": 5326,
      "considerada</w>": 5327,
      "defesa</w>": 5328,
      "acel": 5329,
      "Sch": 5330,
      "avent": 5331,
      "bida</w>": 5332,
      "el.</w>": 5333,
      "semelhantes</w>": 5334,
      "Jap": 5335,
      "embar": 5336,
      "ficos</w>": 5337,
      "Cat": 5338,
      "meninos</w>": 5339,
      "Ri": 5340,
      "Europ": 5341,
      "Sabemos</w>": 5342,
      "-fei": 5343,
      "chave</w>": 5344,
      "Ke": 5345,
      "estú": 5346,
      ".O</w>": 5347,
      "Deix": 5348,
      "benefici": 5349,
      "escon": 5350,
      "começaram</w>": 5351,
      "Onde</w>": 5352,
      "depois,</w>": 5353,
      "evit": 5354,
      "branco</w>": 5355,
      "decide</w>": 5356,
      "Tor": 5357,
      "saudável</w>": 5358,
      "compet": 5359,
      "músicas</w>": 5360,
      "eza</w>": 5361,
      "rica</w>": 5362,
      "expressar</w>": 5363,
      "ubro</w>": 5364,
      "Quantas</w>": 5365,
      "consciência</w>": 5366,
      "Robert</w>": 5367,
      "Paul</w>": 5368,
      "progresso</w>": 5369,
      "res,</w>": 5370,
      "?A</w>": 5371,
      "olhando</w>": 5372,
      "declarações</w>": 5373,
      "momentos</w>": 5374,
      "-B": 5375,
      "ane": 5376,
      "sivamente</w>": 5377,
      "ingres": 5378,
      ".,</w>": 5379,
      "pensamentos</w>": 5380,
      "Joe</w>": 5381,
      "embal": 5382,
      "Muitos</w>": 5383,
      "shi": 5384,
      "definição</w>": 5385,
      "rochas</w>": 5386,
      "It": 5387,
      "defici": 5388,
      "agor": 5389,
      "graç": 5390,
      "dança</w>": 5391,
      "gui": 5392,
      "dupl": 5393,
      "decis": 5394,
      "es?</w>": 5395,
      "Cal": 5396,
      "C:</w>": 5397,
      "tentativa</w>": 5398,
      "bro": 5399,
      "relatório</w>": 5400,
      "atualmente</w>": 5401,
      "estuf": 5402,
      "je": 5403,
      "cumpri": 5404,
      "otim": 5405,
      "sentenç": 5406,
      "Explic": 5407,
      "instruções</w>": 5408,
      "Sentenç": 5409,
      "romance</w>": 5410,
      "m.</w>": 5411,
      "es\"</w>": 5412,
      "aco</w>": 5413,
      "Reg": 5414,
      "manutenção</w>": 5415,
      "pud": 5416,
      "Ambas</w>": 5417,
      "resultando</w>": 5418,
      "comércio</w>": 5419,
      "peixes</w>": 5420,
      "ada:</w>": 5421,
      "estratégia</w>": 5422,
      "vag": 5423,
      "cláss": 5424,
      "ifique</w>": 5425,
      "oeste</w>": 5426,
      "proteí": 5427,
      "bair": 5428,
      "c.</w>": 5429,
      "questão:</w>": 5430,
      "frutas</w>": 5431,
      "deixando</w>": 5432,
      "atórios</w>": 5433,
      "stat": 5434,
      "a-feira</w>": 5435,
      "cima</w>": 5436,
      "Encont": 5437,
      "reconhecer</w>": 5438,
      "ia:</w>": 5439,
      "passo:": 5440,
      "rico</w>": 5441,
      "vendas</w>": 5442,
      "Unidos,</w>": 5443,
      "éticas</w>": 5444,
      "íd": 5445,
      "moda</w>": 5446,
      "procu": 5447,
      "encontrado</w>": 5448,
      "lâ": 5449,
      "demonstr": 5450,
      "sente</w>": 5451,
      "emente,</w>": 5452,
      "ear</w>": 5453,
      "significativos</w>": 5454,
      "anivers": 5455,
      "azul</w>": 5456,
      "bit": 5457,
      "ise</w>": 5458,
      "operação</w>": 5459,
      "o\",</w>": 5460,
      "parecia</w>": 5461,
      "us.</w>": 5462,
      "serviç": 5463,
      "permitir</w>": 5464,
      "mensagens</w>": 5465,
      "verdadeira,</w>": 5466,
      "junho</w>": 5467,
      "acus": 5468,
      "aplicativos</w>": 5469,
      "rr": 5470,
      "re.</w>": 5471,
      "estrela</w>": 5472,
      "vac": 5473,
      "não-": 5474,
      "question": 5475,
      "detalhada</w>": 5476,
      "bus</w>": 5477,
      "vence": 5478,
      "execu": 5479,
      "agir</w>": 5480,
      "Lou": 5481,
      "pulm": 5482,
      "evolução</w>": 5483,
      "gêner": 5484,
      "got": 5485,
      "oso,</w>": 5486,
      "Sul</w>": 5487,
      "marido</w>": 5488,
      "tion</w>": 5489,
      "pensamento</w>": 5490,
      "eceram</w>": 5491,
      "alv": 5492,
      "utação</w>": 5493,
      "bicicleta</w>": 5494,
      "descobriu</w>": 5495,
      "controlar</w>": 5496,
      "rar": 5497,
      "Escolh": 5498,
      "ing.</w>": 5499,
      "magn": 5500,
      "Patri": 5501,
      "ry": 5502,
      "procurando</w>": 5503,
      "dez</w>": 5504,
      "suporte</w>": 5505,
      "(1</w>": 5506,
      "0,0": 5507,
      "resistência</w>": 5508,
      "piment": 5509,
      "\"o</w>": 5510,
      "avaliação</w>": 5511,
      "ografia</w>": 5512,
      "amplamente</w>": 5513,
      "vivem</w>": 5514,
      "Bill": 5515,
      "gas</w>": 5516,
      "dispositivo</w>": 5517,
      "escritório</w>": 5518,
      "primeiro": 5519,
      "ético</w>": 5520,
      "congel": 5521,
      "ciclo</w>": 5522,
      "ola</w>": 5523,
      "história,</w>": 5524,
      "papéis</w>": 5525,
      "esperança</w>": 5526,
      "mês</w>": 5527,
      "curto</w>": 5528,
      "comentários</w>": 5529,
      "limpeza</w>": 5530,
      "Fer": 5531,
      "eficácia</w>": 5532,
      "agricul": 5533,
      "cuidadosamente</w>": 5534,
      "caç": 5535,
      "outubro</w>": 5536,
      "10.</w>": 5537,
      "rápida</w>": 5538,
      "espí": 5539,
      "Segunda</w>": 5540,
      "implementação</w>": 5541,
      "sentenças</w>": 5542,
      "contexto.</w>": 5543,
      "produtiv": 5544,
      "cinemat": 5545,
      "ótima</w>": 5546,
      "precisar</w>": 5547,
      "z.</w>": 5548,
      "aula</w>": 5549,
      "conselho</w>": 5550,
      "reunião</w>": 5551,
      "aplicativ": 5552,
      "fever": 5553,
      "relacionado</w>": 5554,
      "gato</w>": 5555,
      "episó": 5556,
      "cobertura</w>": 5557,
      "Bur": 5558,
      "dieta</w>": 5559,
      "contribuem</w>": 5560,
      "computador</w>": 5561,
      "satisfação</w>": 5562,
      "próximos</w>": 5563,
      "ve.</w>": 5564,
      "aprend": 5565,
      "colaboração</w>": 5566,
      "necessária</w>": 5567,
      "bar</w>": 5568,
      "autoridades</w>": 5569,
      "ago": 5570,
      "negócio</w>": 5571,
      "deveria</w>": 5572,
      "erry</w>": 5573,
      "Jog": 5574,
      "assust": 5575,
      "ônia</w>": 5576,
      "ista.</w>": 5577,
      "touchdown</w>": 5578,
      "400</w>": 5579,
      "'.</w>": 5580,
      "negativo.</w>": 5581,
      "seleção</w>": 5582,
      "za.</w>": 5583,
      "orientação</w>": 5584,
      "net</w>": 5585,
      "muita</w>": 5586,
      "Rem": 5587,
      "custa</w>": 5588,
      "positivo.</w>": 5589,
      "profundi": 5590,
      "Selecione</w>": 5591,
      "ela,</w>": 5592,
      "diálogo</w>": 5593,
      "lot": 5594,
      "vibr": 5595,
      "consegue</w>": 5596,
      "introduz": 5597,
      "tradicional</w>": 5598,
      "vinh": 5599,
      "Ci": 5600,
      "0000": 5601,
      "favor</w>": 5602,
      "indo,</w>": 5603,
      "La": 5604,
      "caras</w>": 5605,
      "eletri": 5606,
      "tan": 5607,
      "Combin": 5608,
      "Kar": 5609,
      "ajudará</w>": 5610,
      "tempos</w>": 5611,
      "certific": 5612,
      "Ni": 5613,
      "estilos</w>": 5614,
      "regiões</w>": 5615,
      "comumente</w>": 5616,
      "Nós</w>": 5617,
      "ecidos</w>": 5618,
      "sete</w>": 5619,
      "pobre": 5620,
      "elabor": 5621,
      "bebê</w>": 5622,
      "prisão</w>": 5623,
      "impulsion": 5624,
      "títul": 5625,
      "parecem</w>": 5626,
      "molho</w>": 5627,
      "superior</w>": 5628,
      "mundi": 5629,
      "nort": 5630,
      "carta</w>": 5631,
      "Sol": 5632,
      "fornecendo</w>": 5633,
      "avis": 5634,
      "Mes": 5635,
      "colegas</w>": 5636,
      "chances</w>": 5637,
      "estej": 5638,
      "completa</w>": 5639,
      "Bran": 5640,
      "incorporar</w>": 5641,
      "campe": 5642,
      "chão</w>": 5643,
      "propriedades</w>": 5644,
      "rápid": 5645,
      "Ambos</w>": 5646,
      "ênt": 5647,
      "club": 5648,
      "Medi": 5649,
      "fórmul": 5650,
      "funciona</w>": 5651,
      "relevante</w>": 5652,
      "Pesso": 5653,
      "depende</w>": 5654,
      "á-lo.</w>": 5655,
      "topo</w>": 5656,
      "veram</w>": 5657,
      "políticos</w>": 5658,
      "paix": 5659,
      "eventualmente</w>": 5660,
      "parede</w>": 5661,
      "mail": 5662,
      "rais,</w>": 5663,
      "auto-": 5664,
      "setembro</w>": 5665,
      "num</w>": 5666,
      "correta.</w>": 5667,
      "apos": 5668,
      "visitantes</w>": 5669,
      "recurso</w>": 5670,
      "entrad": 5671,
      "assem</w>": 5672,
      "inguém</w>": 5673,
      "altura</w>": 5674,
      "35</w>": 5675,
      "mach": 5676,
      "crip": 5677,
      "incl": 5678,
      "resolução</w>": 5679,
      "\"não</w>": 5680,
      "necessariamente</w>": 5681,
      "equação</w>": 5682,
      "crítico</w>": 5683,
      "ff": 5684,
      "prato</w>": 5685,
      "parecer</w>": 5686,
      "sustentáveis</w>": 5687,
      "arei</w>": 5688,
      "limites</w>": 5689,
      "adas:</w>": 5690,
      "país.</w>": 5691,
      "Bri": 5692,
      "Nos": 5693,
      "defen": 5694,
      "Peter</w>": 5695,
      "Europa</w>": 5696,
      "necessári": 5697,
      "greg": 5698,
      "ocorr": 5699,
      "casal</w>": 5700,
      "ídi": 5701,
      "curi": 5702,
      "b.</w>": 5703,
      "desafio</w>": 5704,
      "presentes</w>": 5705,
      "Nos</w>": 5706,
      "estados</w>": 5707,
      "Prof": 5708,
      "Mag": 5709,
      "guard": 5710,
      "lis": 5711,
      "y:</w>": 5712,
      "pediu</w>": 5713,
      "\"A": 5714,
      "cipi": 5715,
      "mim</w>": 5716,
      "poni": 5717,
      "chance</w>": 5718,
      "Unido</w>": 5719,
      "central</w>": 5720,
      "descrever</w>": 5721,
      "os)</w>": 5722,
      "conveni": 5723,
      "Claro!</w>": 5724,
      "disponível</w>": 5725,
      "loj": 5726,
      "mail</w>": 5727,
      "leis</w>": 5728,
      "chat": 5729,
      "ades": 5730,
      "gratuit": 5731,
      "Sam</w>": 5732,
      "sustentável</w>": 5733,
      "bact": 5734,
      "composit": 5735,
      "aplicação</w>": 5736,
      "Christ": 5737,
      "desejo</w>": 5738,
      "dividimos</w>": 5739,
      "Conclu": 5740,
      "nutrientes</w>": 5741,
      "não,</w>": 5742,
      "preten": 5743,
      "CO": 5744,
      "eado</w>": 5745,
      "prob": 5746,
      "utu": 5747,
      "cardí": 5748,
      "escrito</w>": 5749,
      "lembrar</w>": 5750,
      "menin": 5751,
      "(x</w>": 5752,
      "don": 5753,
      "trimestre": 5754,
      "premissa?</w>": 5755,
      "químicos</w>": 5756,
      "educacion": 5757,
      "armazenamento</w>": 5758,
      "\"D": 5759,
      "imediatamente</w>": 5760,
      "IN": 5761,
      "qualific": 5762,
      "corpo.</w>": 5763,
      "recipi": 5764,
      "páginas</w>": 5765,
      "cote</w>": 5766,
      "localizada</w>": 5767,
      "limpar</w>": 5768,
      "circun": 5769,
      "300</w>": 5770,
      "bos</w>": 5771,
      "ep": 5772,
      "nad": 5773,
      "quet": 5774,
      "álbum,</w>": 5775,
      "27</w>": 5776,
      "igual</w>": 5777,
      "preench": 5778,
      "Seus</w>": 5779,
      "A)</w>": 5780,
      "Smit": 5781,
      "caixas</w>": 5782,
      "deseja</w>": 5783,
      "sím": 5784,
      "discutir</w>": 5785,
      "costa</w>": 5786,
      "seguid": 5787,
      "pessoais,</w>": 5788,
      "Pen": 5789,
      "Bas": 5790,
      "terapia</w>": 5791,
      "tular</w>": 5792,
      "oz": 5793,
      "aceler": 5794,
      "trem</w>": 5795,
      "faça</w>": 5796,
      "acontece</w>": 5797,
      "igualdade</w>": 5798,
      "Google</w>": 5799,
      "Resposta</w>": 5800,
      "cére": 5801,
      "Ry": 5802,
      "veio</w>": 5803,
      "uta</w>": 5804,
      "contin": 5805,
      "nie</w>": 5806,
      "hol": 5807,
      "Escolhas:</w>": 5808,
      "Analisar</w>": 5809,
      "novembro</w>": 5810,
      "sinais</w>": 5811,
      "floresta</w>": 5812,
      "quilô": 5813,
      "modo</w>": 5814,
      "ásti": 5815,
      "petr": 5816,
      "espera</w>": 5817,
      "tion": 5818,
      "incên": 5819,
      "riz": 5820,
      "habitat": 5821,
      "Jer": 5822,
      "Determine</w>": 5823,
      "Emil": 5824,
      "cria</w>": 5825,
      "chegou</w>": 5826,
      "outr": 5827,
      "verde</w>": 5828,
      "incrível</w>": 5829,
      "ain</w>": 5830,
      "ide</w>": 5831,
      "físico</w>": 5832,
      "éria</w>": 5833,
      "transporte,</w>": 5834,
      "vegetais</w>": 5835,
      "reação</w>": 5836,
      "dinâ": 5837,
      "erros</w>": 5838,
      "houver</w>": 5839,
      "quete</w>": 5840,
      "palavras-chave</w>": 5841,
      "1-": 5842,
      "dens": 5843,
      "Crie</w>": 5844,
      "apaixon": 5845,
      "piz": 5846,
      "xícara</w>": 5847,
      "Cop": 5848,
      "ança.</w>": 5849,
      "conhecer</w>": 5850,
      "2.": 5851,
      "es\".</w>": 5852,
      "condição</w>": 5853,
      "William</w>": 5854,
      "crédi": 5855,
      "tela</w>": 5856,
      "desfrutar</w>": 5857,
      "pessoas,</w>": 5858,
      "pacientes</w>": 5859,
      "guia</w>": 5860,
      "carga</w>": 5861,
      "transmit": 5862,
      "pensando</w>": 5863,
      "julho</w>": 5864,
      "adicional</w>": 5865,
      "ford</w>": 5866,
      "ward</w>": 5867,
      "confor": 5868,
      "ton,</w>": 5869,
      "fen": 5870,
      "duz</w>": 5871,
      "configurar</w>": 5872,
      "Justificação:</w>": 5873,
      "23</w>": 5874,
      "dadas</w>": 5875,
      "jogo.</w>": 5876,
      "maio</w>": 5877,
      "sintomas</w>": 5878,
      "han</w>": 5879,
      "respec": 5880,
      "popular": 5881,
      "entreten": 5882,
      "reiv": 5883,
      "escu": 5884,
      "destino</w>": 5885,
      "didas</w>": 5886,
      "incluem:</w>": 5887,
      "americanos</w>": 5888,
      "explicit": 5889,
      "Ben": 5890,
      "aposent": 5891,
      "fortal": 5892,
      "seres</w>": 5893,
      "para": 5894,
      "ame</w>": 5895,
      "tópico</w>": 5896,
      "idos.</w>": 5897,
      "agon": 5898,
      "ount": 5899,
      "háb": 5900,
      "imun": 5901,
      "ele,</w>": 5902,
      "Stre": 5903,
      "fortem": 5904,
      "Sem": 5905,
      "pront": 5906,
      "instrument": 5907,
      "artigo,</w>": 5908,
      "imo</w>": 5909,
      "\"Os</w>": 5910,
      "equi": 5911,
      "pac": 5912,
      "as\"</w>": 5913,
      "continuou</w>": 5914,
      "continuam</w>": 5915,
      "avanços</w>": 5916,
      "rou": 5917,
      "fir": 5918,
      "US$</w>": 5919,
      "os\"</w>": 5920,
      "una</w>": 5921,
      "poderá</w>": 5922,
      "estejam</w>": 5923,
      "eficiência</w>": 5924,
      "lojas</w>": 5925,
      "molé": 5926,
      "conflito</w>": 5927,
      "veículos</w>": 5928,
      "cobri": 5929,
      "enten": 5930,
      "bisco": 5931,
      "marcou</w>": 5932,
      "sos.</w>": 5933,
      "ós-": 5934,
      "aband": 5935,
      "cativ": 5936,
      "Instru": 5937,
      "perdeu</w>": 5938,
      "troux": 5939,
      "emoção</w>": 5940,
      "requisitos</w>": 5941,
      "disponi": 5942,
      "escrevendo</w>": 5943,
      "matar</w>": 5944,
      "itação</w>": 5945,
      "garante</w>": 5946,
      "abril</w>": 5947,
      "PT": 5948,
      "bura": 5949,
      "conci": 5950,
      "ês,</w>": 5951,
      "ker</w>": 5952,
      "ônibus</w>": 5953,
      "militar</w>": 5954,
      "União</w>": 5955,
      "sugest": 5956,
      "cuidado</w>": 5957,
      "possamos</w>": 5958,
      "Mary</w>": 5959,
      "ast</w>": 5960,
      "possível.</w>": 5961,
      "segurando</w>": 5962,
      "eficazes</w>": 5963,
      "conden": 5964,
      "figura</w>": 5965,
      "resili": 5966,
      "permanece</w>": 5967,
      "Os": 5968,
      "coleção</w>": 5969,
      "irrit": 5970,
      "americana</w>": 5971,
      "hipótese,</w>": 5972,
      "testes</w>": 5973,
      "ocorreu</w>": 5974,
      "dezembro</w>": 5975,
      "mais.</w>": 5976,
      "começam</w>": 5977,
      "ambientais</w>": 5978,
      "operações</w>": 5979,
      "efetiv": 5980,
      "marav": 5981,
      "contexto:</w>": 5982,
      "sementes</w>": 5983,
      "pão</w>": 5984,
      "decl": 5985,
      "oso.</w>": 5986,
      "ens,</w>": 5987,
      "rotina</w>": 5988,
      "militares</w>": 5989,
      "Jef": 5990,
      "neut": 5991,
      "Mis": 5992,
      "tap": 5993,
      "queb": 5994,
      "gradu": 5995,
      "oporto</w>": 5996,
      "Lee</w>": 5997,
      "tranquil": 5998,
      "civ": 5999,
      "seguinte,</w>": 6000,
      "conduz": 6001,
      "Hav": 6002,
      "leve</w>": 6003,
      "agens,</w>": 6004,
      "Procure</w>": 6005,
      "restante</w>": 6006,
      "Entenda</w>": 6007,
      "osão</w>": 6008,
      "segund": 6009,
      "pain": 6010,
      "obst": 6011,
      "alismo</w>": 6012,
      "o:": 6013,
      "fertiliz": 6014,
      "ocident": 6015,
      "permanecer</w>": 6016,
      "1)</w>": 6017,
      "seriam</w>": 6018,
      "ângul": 6019,
      "governos</w>": 6020,
      "sites</w>": 6021,
      ".A</w>": 6022,
      "camada</w>": 6023,
      "Gi": 6024,
      "l.</w>": 6025,
      "ilhas</w>": 6026,
      "diferentes.</w>": 6027,
      "março</w>": 6028,
      "interessante</w>": 6029,
      "dando</w>": 6030,
      "espécie</w>": 6031,
      "5%</w>": 6032,
      "arro": 6033,
      "povo</w>": 6034,
      "32</w>": 6035,
      "dat": 6036,
      "che</w>": 6037,
      "andar</w>": 6038,
      "Frank</w>": 6039,
      "ner</w>": 6040,
      "oito</w>": 6041,
      "esperando</w>": 6042,
      "escritório,</w>": 6043,
      "ações:</w>": 6044,
      "engaj": 6045,
      "36</w>": 6046,
      "times</w>": 6047,
      "lançamento</w>": 6048,
      "implementar</w>": 6049,
      "reduzindo</w>": 6050,
      "resul": 6051,
      "Coreia</w>": 6052,
      "Luc": 6053,
      "rock</w>": 6054,
      "encoraj": 6055,
      "bás": 6056,
      "aper": 6057,
      "exatamente</w>": 6058,
      "fortemente</w>": 6059,
      "Red": 6060,
      "micro": 6061,
      "climátic": 6062,
      "ld</w>": 6063,
      "álco": 6064,
      "adqui": 6065,
      "Jas": 6066,
      "mam": 6067,
      "ang</w>": 6068,
      "edifícios</w>": 6069,
      "suposta</w>": 6070,
      "recente</w>": 6071,
      "etapas</w>": 6072,
      "(R": 6073,
      "tos": 6074,
      "atras": 6075,
      "h.</w>": 6076,
      "26</w>": 6077,
      "almente.</w>": 6078,
      "imos</w>": 6079,
      "ameaça</w>": 6080,
      "Hom": 6081,
      "mex": 6082,
      "alde": 6083,
      "estacion": 6084,
      "rais.</w>": 6085,
      "\")</w>": 6086,
      "(ou</w>": 6087,
      "Mart": 6088,
      "reconhecimento</w>": 6089,
      "confortável</w>": 6090,
      "revi": 6091,
      "onda</w>": 6092,
      "liga</w>": 6093,
      "alvo</w>": 6094,
      "VI": 6095,
      "Vic": 6096,
      "lembre": 6097,
      "certas</w>": 6098,
      "narr": 6099,
      "pô": 6100,
      "ender": 6101,
      "dizem</w>": 6102,
      "volume</w>": 6103,
      "resultar</w>": 6104,
      "vil</w>": 6105,
      "orgul": 6106,
      "sinal</w>": 6107,
      "nessa</w>": 6108,
      "mín": 6109,
      "Verifique</w>": 6110,
      "enta</w>": 6111,
      "selecion": 6112,
      "Tran": 6113,
      "meios</w>": 6114,
      "elhas</w>": 6115,
      "direto</w>": 6116,
      "Mac": 6117,
      "ministro</w>": 6118,
      "setor</w>": 6119,
      "associados</w>": 6120,
      "Mel": 6121,
      "lat": 6122,
      "prior": 6123,
      "Person": 6124,
      "Ra": 6125,
      "status</w>": 6126,
      "Wo": 6127,
      "difí": 6128,
      "transmite</w>": 6129,
      "e-mail</w>": 6130,
      "Eri": 6131,
      "sentiu</w>": 6132,
      "concorr": 6133,
      "final,</w>": 6134,
      "nascido</w>": 6135,
      "istas,</w>": 6136,
      "edade.</w>": 6137,
      "Ju": 6138,
      "explicitamente</w>": 6139,
      "local.</w>": 6140,
      "sofre": 6141,
      "deri": 6142,
      "ônica</w>": 6143,
      "mig": 6144,
      "gostaria</w>": 6145,
      "ique</w>": 6146,
      "(\"": 6147,
      "vermelho</w>": 6148,
      "escondi": 6149,
      "público.</w>": 6150,
      "renda</w>": 6151,
      "África</w>": 6152,
      "excep": 6153,
      "itt": 6154,
      "aco": 6155,
      "tamanh": 6156,
      "AR": 6157,
      "abert": 6158,
      "navio</w>": 6159,
      "surg": 6160,
      "confront": 6161,
      "Tem": 6162,
      "transi": 6163,
      "funções</w>": 6164,
      "certifique-se</w>": 6165,
      "ett": 6166,
      "morto</w>": 6167,
      "debat": 6168,
      "(P": 6169,
      "encontram</w>": 6170,
      "recuperar</w>": 6171,
      "titular</w>": 6172,
      "explicação</w>": 6173,
      "dipl": 6174,
      "ão?</w>": 6175,
      "conectar</w>": 6176,
      "Met": 6177,
      "animal,</w>": 6178,
      "rota</w>": 6179,
      "ation</w>": 6180,
      "vantagem</w>": 6181,
      "contra": 6182,
      "aconteceu</w>": 6183,
      "afeta</w>": 6184,
      "sim.</w>": 6185,
      "Mike</w>": 6186,
      "restri": 6187,
      "!\"</w>": 6188,
      "ambiente.</w>": 6189,
      "d.</w>": 6190,
      "apel": 6191,
      "Era</w>": 6192,
      "navegar</w>": 6193,
      "field</w>": 6194,
      "féri": 6195,
      "gli": 6196,
      "talent": 6197,
      "preparar</w>": 6198,
      "Mark</w>": 6199,
      "Melh": 6200,
      "melhoria</w>": 6201,
      "comod": 6202,
      "extr": 6203,
      "Los</w>": 6204,
      "text</w>": 6205,
      "estrutur": 6206,
      "ança,</w>": 6207,
      "Gere</w>": 6208,
      "diga</w>": 6209,
      "narrativa</w>": 6210,
      "idei": 6211,
      "órg": 6212,
      "presa</w>": 6213,
      "C)</w>": 6214,
      "bem,</w>": 6215,
      "transpar": 6216,
      "indiret": 6217,
      "composto</w>": 6218,
      "instituições</w>": 6219,
      "pós-": 6220,
      "Rel": 6221,
      "direta</w>": 6222,
      "equipamentos</w>": 6223,
      "pas</w>": 6224,
      "Pergunta</w>": 6225,
      "Defini": 6226,
      "ony</w>": 6227,
      "geração</w>": 6228,
      "cord": 6229,
      "arquivo</w>": 6230,
      "60": 6231,
      "tado</w>": 6232,
      "erro</w>": 6233,
      "ando-os</w>": 6234,
      "víti": 6235,
      "tí": 6236,
      "Tot": 6237,
      "internacional</w>": 6238,
      "corte</w>": 6239,
      "acidente</w>": 6240,
      "praticar</w>": 6241,
      "Atl": 6242,
      "pção</w>": 6243,
      "?Não</w>": 6244,
      "Rús": 6245,
      "dados:</w>": 6246,
      "ayl": 6247,
      "abandon": 6248,
      "plás": 6249,
      "agosto</w>": 6250,
      "feitas</w>": 6251,
      "conservação</w>": 6252,
      "agres": 6253,
      "vulner": 6254,
      "conflitos</w>": 6255,
      "Ang": 6256,
      "postas</w>": 6257,
      "espanh": 6258,
      "quão</w>": 6259,
      "-lo</w>": 6260,
      "página</w>": 6261,
      "elemento</w>": 6262,
      "ânicos</w>": 6263,
      "individuais</w>": 6264,
      "tens": 6265,
      "circunst": 6266,
      "band": 6267,
      "ito.</w>": 6268,
      "contas</w>": 6269,
      "metas</w>": 6270,
      "chamar</w>": 6271,
      "dar": 6272,
      "vender</w>": 6273,
      "moe": 6274,
      "wood</w>": 6275,
      "m-": 6276,
      "guitar": 6277,
      "pand": 6278,
      "íamos</w>": 6279,
      "diminuição</w>": 6280,
      "?Como</w>": 6281,
      "lógica</w>": 6282,
      "técnica</w>": 6283,
      "viagens</w>": 6284,
      "sob": 6285,
      "rosto</w>": 6286,
      "Jos": 6287,
      "au,</w>": 6288,
      "ota</w>": 6289,
      "que.</w>": 6290,
      "ito,</w>": 6291,
      "icidade</w>": 6292,
      "y\"</w>": 6293,
      "just": 6294,
      "saúde.</w>": 6295,
      "Igre": 6296,
      "24": 6297,
      "ã,</w>": 6298,
      "Chic": 6299,
      "partido</w>": 6300,
      "Au": 6301,
      "enny</w>": 6302,
      "modelos</w>": 6303,
      "Comparar</w>": 6304,
      "gerenciamento</w>": 6305,
      "servir</w>": 6306,
      "ambientes</w>": 6307,
      "mudou</w>": 6308,
      "deixe-me</w>": 6309,
      "Poss": 6310,
      "anterior</w>": 6311,
      "suav": 6312,
      "acabou</w>": 6313,
      "Espero</w>": 6314,
      "vin</w>": 6315,
      "obstá": 6316,
      "\":</w>": 6317,
      "Imag": 6318,
      "izado</w>": 6319,
      "cursos</w>": 6320,
      "expressa</w>": 6321,
      "osa,</w>": 6322,
      "fascin": 6323,
      "esforç": 6324,
      "concentrar</w>": 6325,
      "sozinh": 6326,
      "veja</w>": 6327,
      "envolvendo</w>": 6328,
      "torna-se</w>": 6329,
      "época</w>": 6330,
      "disser": 6331,
      "espiri": 6332,
      "temperaturas</w>": 6333,
      "temos:</w>": 6334,
      "sexu": 6335,
      "Fun": 6336,
      "verdadeiro</w>": 6337,
      "vírus</w>": 6338,
      "it</w>": 6339,
      "28": 6340,
      "Minha</w>": 6341,
      "pergunta?</w>": 6342,
      "participantes</w>": 6343,
      "planta,</w>": 6344,
      "Intro": 6345,
      "div": 6346,
      "austr": 6347,
      "maçãs</w>": 6348,
      "crescer</w>": 6349,
      "atender</w>": 6350,
      "exigem</w>": 6351,
      "médicos</w>": 6352,
      "relógi": 6353,
      "toque</w>": 6354,
      "multiplic": 6355,
      "chap": 6356,
      "idi": 6357,
      "numa</w>": 6358,
      "estre</w>": 6359,
      "ansiedade</w>": 6360,
      "disse:</w>": 6361,
      "á-las</w>": 6362,
      "territ": 6363,
      "adultos</w>": 6364,
      "don</w>": 6365,
      "Sem</w>": 6366,
      "ológico</w>": 6367,
      "fre</w>": 6368,
      "alimentar</w>": 6369,
      "financiamento</w>": 6370,
      "________": 6371,
      "expectativas</w>": 6372,
      "5)</w>": 6373,
      "agradável</w>": 6374,
      "úcle": 6375,
      "heró": 6376,
      "e-mail": 6377,
      "dele</w>": 6378,
      "segura</w>": 6379,
      "aldeia,</w>": 6380,
      "proemin": 6381,
      "surpre": 6382,
      "entidade</w>": 6383,
      "vont": 6384,
      "saúde,</w>": 6385,
      "conforto</w>": 6386,
      "inclus": 6387,
      "rob": 6388,
      "reunir</w>": 6389,
      "mantei": 6390,
      "assassinato</w>": 6391,
      "participação</w>": 6392,
      "trabalhou</w>": 6393,
      "imento.</w>": 6394,
      "seção</w>": 6395,
      "andando</w>": 6396,
      "associado</w>": 6397,
      "fevereiro</w>": 6398,
      "discrimin": 6399,
      "tentou</w>": 6400,
      "reflex": 6401,
      "cia</w>": 6402,
      "Bal": 6403,
      "concord": 6404,
      "recomendações</w>": 6405,
      "eficiente</w>": 6406,
      "morreu</w>": 6407,
      "emi": 6408,
      "ya</w>": 6409,
      "instalações</w>": 6410,
      "artista,</w>": 6411,
      "M:</w>": 6412,
      "ston</w>": 6413,
      "curta</w>": 6414,
      "aconselh": 6415,
      "envolvidos</w>": 6416,
      "envolvem</w>": 6417,
      "oferecendo</w>": 6418,
      "dólares</w>": 6419,
      "realidade</w>": 6420,
      "vizinh": 6421,
      "-chave": 6422,
      "revol": 6423,
      "terceira</w>": 6424,
      "cultiv": 6425,
      "cientistas</w>": 6426,
      "sedi": 6427,
      "inteligência</w>": 6428,
      "nia</w>": 6429,
      "aquecimento</w>": 6430,
      "Maria</w>": 6431,
      "vivo</w>": 6432,
      "profundamente</w>": 6433,
      "nascimento</w>": 6434,
      "umb": 6435,
      "Men": 6436,
      "la": 6437,
      "permitem</w>": 6438,
      "600</w>": 6439,
      "Vir": 6440,
      "”,</w>": 6441,
      "recé": 6442,
      "partil": 6443,
      "assistência</w>": 6444,
      "decep": 6445,
      "3)</w>": 6446,
      "es)</w>": 6447,
      "pad": 6448,
      "preocupação</w>": 6449,
      "jac": 6450,
      "irmã": 6451,
      "sabor": 6452,
      "metro</w>": 6453,
      "pessoais.</w>": 6454,
      "á,</w>": 6455,
      "industri": 6456,
      "beis": 6457,
      "sor</w>": 6458,
      "hts</w>": 6459,
      "ational</w>": 6460,
      "marinh": 6461,
      "preto</w>": 6462,
      "coloca</w>": 6463,
      "cular</w>": 6464,
      "outros,</w>": 6465,
      "Brit": 6466,
      "núcle": 6467,
      "tuais</w>": 6468,
      "completar</w>": 6469,
      "cess": 6470,
      "verão</w>": 6471,
      "legisl": 6472,
      "exibi": 6473,
      "tant": 6474,
      "Outro</w>": 6475,
      "core": 6476,
      "enviar</w>": 6477,
      "ur</w>": 6478,
      "órios</w>": 6479,
      "--": 6480,
      "artigo": 6481,
      "ver.</w>": 6482,
      "receitas</w>": 6483,
      "origem</w>": 6484,
      "Dist": 6485,
      "constante</w>": 6486,
      "Tur": 6487,
      "boas</w>": 6488,
      "Parece</w>": 6489,
      "Da</w>": 6490,
      "interven": 6491,
      "soldados</w>": 6492,
      "infra": 6493,
      "S:</w>": 6494,
      "matem": 6495,
      "profunda</w>": 6496,
      "ent</w>": 6497,
      "ivo</w>": 6498,
      "Trabal": 6499,
      "neve</w>": 6500,
      "jardim</w>": 6501,
      "drogas</w>": 6502,
      "sopa</w>": 6503,
      "visual</w>": 6504,
      "impactando</w>": 6505,
      "juntos.</w>": 6506,
      "representação</w>": 6507,
      "prevenir</w>": 6508,
      "eses</w>": 6509,
      "executar</w>": 6510,
      "ciência</w>": 6511,
      "familiar</w>": 6512,
      "professores</w>": 6513,
      "Scho": 6514,
      "atores</w>": 6515,
      "definir</w>": 6516,
      "determinada</w>": 6517,
      "Tudo</w>": 6518,
      "turn": 6519,
      "campanhas</w>": 6520,
      "gerenciar</w>": 6521,
      "emporâne": 6522,
      "salvar</w>": 6523,
      "probabilidade</w>": 6524,
      "New": 6525,
      "mental.</w>": 6526,
      "2).</w>": 6527,
      "pares</w>": 6528,
      "priva": 6529,
      "Han": 6530,
      "pacote</w>": 6531,
      "sess": 6532,
      "profundidade</w>": 6533,
      "We": 6534,
      "grama</w>": 6535,
      "transfer": 6536,
      "vantagens</w>": 6537,
      "Condado</w>": 6538,
      "bolas</w>": 6539,
      "polegadas</w>": 6540,
      "sáb": 6541,
      "indicando</w>": 6542,
      "dorm": 6543,
      "odi": 6544,
      "agem:</w>": 6545,
      "anteriormente</w>": 6546,
      "altos</w>": 6547,
      "variar</w>": 6548,
      "recentemente</w>": 6549,
      "je</w>": 6550,
      "celul": 6551,
      "ême": 6552,
      "cipl": 6553,
      "partici": 6554,
      "dessa</w>": 6555,
      "mantém</w>": 6556,
      "envolvido</w>": 6557,
      "ocu": 6558,
      "vive</w>": 6559,
      "carn": 6560,
      ").": 6561,
      "entes:</w>": 6562,
      "Esse</w>": 6563,
      "percebe</w>": 6564,
      "joga</w>": 6565,
      "regulament": 6566,
      "ings</w>": 6567,
      "populações</w>": 6568,
      "mídias</w>": 6569,
      "notas</w>": 6570,
      "Mer": 6571,
      "iza</w>": 6572,
      "misteri": 6573,
      "junto</w>": 6574,
      "recém-": 6575,
      "competição</w>": 6576,
      "tente</w>": 6577,
      "lo</w>": 6578,
      "cachor": 6579,
      "ganho</w>": 6580,
      "cheio</w>": 6581,
      "futuro.</w>": 6582,
      "120</w>": 6583,
      "avião</w>": 6584,
      "transmitir</w>": 6585,
      "item</w>": 6586,
      "ataques</w>": 6587,
      "apropriada</w>": 6588,
      "\"As</w>": 6589,
      "lei": 6590,
      "Blu": 6591,
      "noite.</w>": 6592,
      "categori": 6593,
      "aterra</w>": 6594,
      "adquiri": 6595,
      "supri": 6596,
      "divis": 6597,
      "altas</w>": 6598,
      "Opção</w>": 6599,
      "ane</w>": 6600,
      "ando-a</w>": 6601,
      "fatos</w>": 6602,
      "tráf": 6603,
      "entusias": 6604,
      "III": 6605,
      "vento</w>": 6606,
      "proxim": 6607,
      "unidades</w>": 6608,
      "but": 6609,
      "tendências</w>": 6610,
      "escreva</w>": 6611,
      "também.</w>": 6612,
      "chapé": 6613,
      "paciente</w>": 6614,
      "itu": 6615,
      "permitiu</w>": 6616,
      "posteri": 6617,
      "Richard</w>": 6618,
      "inferir</w>": 6619,
      "estimul": 6620,
      "Partido</w>": 6621,
      "expressão</w>": 6622,
      "encontrados</w>": 6623,
      "sede</w>": 6624,
      "picamente</w>": 6625,
      "capitaliz": 6626,
      "Grã": 6627,
      "(o</w>": 6628,
      "trata</w>": 6629,
      "implicações</w>": 6630,
      "sustentabilidade</w>": 6631,
      "suave</w>": 6632,
      "doces</w>": 6633,
      "sono</w>": 6634,
      "exige</w>": 6635,
      "Título</w>": 6636,
      "Pi": 6637,
      "dias,</w>": 6638,
      "mostrando</w>": 6639,
      "ure</w>": 6640,
      "enorme</w>": 6641,
      "primeiras</w>": 6642,
      "inúmeras</w>": 6643,
      "ismo,</w>": 6644,
      "utilizar</w>": 6645,
      "desempenha</w>": 6646,
      "nte</w>": 6647,
      "aque</w>": 6648,
      "promet": 6649,
      "ES": 6650,
      "casos,</w>": 6651,
      "humor</w>": 6652,
      "chamadas</w>": 6653,
      "(como</w>": 6654,
      "-Bret": 6655,
      "Duas</w>": 6656,
      "batalha</w>": 6657,
      "aumentando</w>": 6658,
      "work": 6659,
      "Grã-Bret": 6660,
      "contrast": 6661,
      "liberdade</w>": 6662,
      "Thomas</w>": 6663,
      "War": 6664,
      "interval": 6665,
      "divid": 6666,
      "candidato</w>": 6667,
      "abrig": 6668,
      "ecida</w>": 6669,
      "examinar</w>": 6670,
      "câmera</w>": 6671,
      "brinquedos</w>": 6672,
      "descrito</w>": 6673,
      "perguntando</w>": 6674,
      "agente</w>": 6675,
      "ange</w>": 6676,
      "considerando</w>": 6677,
      "3,": 6678,
      "contemporâne": 6679,
      "AS": 6680,
      "ária.</w>": 6681,
      "láp": 6682,
      "questão.</w>": 6683,
      "ográfic": 6684,
      "eatTy": 6685,
      "umul": 6686,
      "\"O": 6687,
      "refeições</w>": 6688,
      "valoriz": 6689,
      "grafia</w>": 6690,
      "substituir</w>": 6691,
      "cogni": 6692,
      "Constru": 6693,
      "montanh": 6694,
      "gig": 6695,
      "tipicamente</w>": 6696,
      "bem.</w>": 6697,
      "Paul": 6698,
      "n,</w>": 6699,
      "Facebo": 6700,
      "respiração</w>": 6701,
      "use": 6702,
      "AP": 6703,
      "Jen": 6704,
      "olina</w>": 6705,
      "iniciar</w>": 6706,
      "Cur": 6707,
      "Império</w>": 6708,
      "arma</w>": 6709,
      "violência</w>": 6710,
      "afri": 6711,
      "Sra.</w>": 6712,
      "complic": 6713,
      "desempenhou</w>": 6714,
      "troca</w>": 6715,
      "shop": 6716,
      "gos</w>": 6717,
      "parceiro</w>": 6718,
      "ninguém</w>": 6719,
      "entrou</w>": 6720,
      "nerv": 6721,
      "indicação</w>": 6722,
      "os-chave</w>": 6723,
      "tivesse</w>": 6724,
      "Esp": 6725,
      "Sen": 6726,
      "saíd": 6727,
      "durado": 6728,
      "solicit": 6729,
      "ens.</w>": 6730,
      "sociais,</w>": 6731,
      "Bow": 6732,
      "1).</w>": 6733,
      "Te": 6734,
      "Equ": 6735,
      "fix": 6736,
      "protest": 6737,
      "descoberta</w>": 6738,
      "Aut": 6739,
      "é.</w>": 6740,
      "éti": 6741,
      "energias</w>": 6742,
      "(ii": 6743,
      "atur": 6744,
      "intenção</w>": 6745,
      "raí": 6746,
      "recomendação</w>": 6747,
      "de-se</w>": 6748,
      "discipl": 6749,
      "gostam</w>": 6750,
      "fábri": 6751,
      "vestido</w>": 6752,
      "pássaros</w>": 6753,
      "regularmente</w>": 6754,
      "tomou</w>": 6755,
      "rocha</w>": 6756,
      "tecido</w>": 6757,
      "gerente</w>": 6758,
      "Califórni": 6759,
      "jogo,</w>": 6760,
      "vic": 6761,
      "al)</w>": 6762,
      "fo</w>": 6763,
      "(N": 6764,
      "refere</w>": 6765,
      "Inglater": 6766,
      "Dec": 6767,
      "sing": 6768,
      "consig": 6769,
      "sai</w>": 6770,
      "agens.</w>": 6771,
      "local,</w>": 6772,
      "cam</w>": 6773,
      "corpos</w>": 6774,
      "Continu": 6775,
      "incid": 6776,
      "lá.</w>": 6777,
      "atl": 6778,
      "inse": 6779,
      "paz</w>": 6780,
      "óli": 6781,
      "cama</w>": 6782,
      "eiras.</w>": 6783,
      "relativamente</w>": 6784,
      "mento:</w>": 6785,
      "pesquisar</w>": 6786,
      "ígen": 6787,
      "projetado</w>": 6788,
      "fantas": 6789,
      "chas</w>": 6790,
      "aulas</w>": 6791,
      "impressão</w>": 6792,
      "romp": 6793,
      "sacos</w>": 6794,
      "amost": 6795,
      "osa.</w>": 6796,
      "pedido</w>": 6797,
      "Inglaterra</w>": 6798,
      "inesper": 6799,
      "sorve": 6800,
      "San</w>": 6801,
      "afetará</w>": 6802,
      "lhes</w>": 6803,
      "ências.</w>": 6804,
      "conexões</w>": 6805,
      "empati": 6806,
      "humana</w>": 6807,
      "Harry</w>": 6808,
      "engan": 6809,
      "atrair</w>": 6810,
      "E.</w>": 6811,
      "Mundial</w>": 6812,
      "criou</w>": 6813,
      "universit": 6814,
      "Suas</w>": 6815,
      "dica</w>": 6816,
      "atiz": 6817,
      "constitu": 6818,
      "explica</w>": 6819,
      "proce": 6820,
      "0.": 6821,
      "tocar</w>": 6822,
      "rizes</w>": 6823,
      "estrang": 6824,
      "íg": 6825,
      "atleta,</w>": 6826,
      "ivos</w>": 6827,
      "efetivamente</w>": 6828,
      "rejeit": 6829,
      "ponha</w>": 6830,
      "brinquedo</w>": 6831,
      "Ren": 6832,
      "Ham": 6833,
      "48</w>": 6834,
      "Pra": 6835,
      "ado?</w>": 6836,
      "IS": 6837,
      "queijo</w>": 6838,
      "Je": 6839,
      "despes": 6840,
      "Dev": 6841,
      "ganha</w>": 6842,
      "vál": 6843,
      "20%</w>": 6844,
      "reputação</w>": 6845,
      "Fel": 6846,
      "ese</w>": 6847,
      "algorit": 6848,
      "Sus": 6849,
      "impact": 6850,
      "ts</w>": 6851,
      "derru": 6852,
      "vapor</w>": 6853,
      "metal</w>": 6854,
      "psicol": 6855,
      "Lor": 6856,
      "leste</w>": 6857,
      "ke": 6858,
      "roupa</w>": 6859,
      "levaram</w>": 6860,
      "causando</w>": 6861,
      "sexo</w>": 6862,
      "distribuição</w>": 6863,
      "Mesmo</w>": 6864,
      "Profess": 6865,
      "treinador</w>": 6866,
      "anual</w>": 6867,
      "Vis": 6868,
      "Comece</w>": 6869,
      "trimestre,</w>": 6870,
      "dul": 6871,
      "famoso</w>": 6872,
      "orçamento</w>": 6873,
      "amizade</w>": 6874,
      "acident": 6875,
      "Casa</w>": 6876,
      "tornando-se</w>": 6877,
      "lavar</w>": 6878,
      "contrário</w>": 6879,
      "doce</w>": 6880,
      "cuidar</w>": 6881,
      "exc": 6882,
      "tida</w>": 6883,
      "perspectivas</w>": 6884,
      "ácido</w>": 6885,
      "transmitem</w>": 6886,
      "Associ": 6887,
      "Del": 6888,
      "b,</w>": 6889,
      "plen": 6890,
      "ham": 6891,
      "cesa</w>": 6892,
      "ys</w>": 6893,
      "mascul": 6894,
      "governament": 6895,
      "Bus": 6896,
      "ver,</w>": 6897,
      "verdadeira.</w>": 6898,
      "```</w>": 6899,
      "precisava</w>": 6900,
      "Eu": 6901,
      "retorno</w>": 6902,
      "leitores</w>": 6903,
      "especiais</w>": 6904,
      "A).</w>": 6905,
      "dados.</w>": 6906,
      "culinária</w>": 6907,
      "Cli": 6908,
      "líquido</w>": 6909,
      "Nenh": 6910,
      "destes</w>": 6911,
      "cou": 6912,
      "obra</w>": 6913,
      "colocou</w>": 6914,
      "hotel</w>": 6915,
      "Dani": 6916,
      "rin": 6917,
      "Encontre</w>": 6918,
      "Scot": 6919,
      "Usando</w>": 6920,
      "máximo</w>": 6921,
      "ínci": 6922,
      "mantendo</w>": 6923,
      "divisão</w>": 6924,
      "criativ": 6925,
      "performances</w>": 6926,
      "turas</w>": 6927,
      "pertenc": 6928,
      "ró": 6929,
      "Vou</w>": 6930,
      "reações</w>": 6931,
      "crit": 6932,
      "ura,</w>": 6933,
      "vendeu</w>": 6934,
      "corrup": 6935,
      "invas": 6936,
      "pedaços</w>": 6937,
      "Esc": 6938,
      "Chris</w>": 6939,
      "derram": 6940,
      "ra-se</w>": 6941,
      "exclusiv": 6942,
      "conhece</w>": 6943,
      "aler": 6944,
      "partida</w>": 6945,
      "Andre": 6946,
      "extremamente</w>": 6947,
      "proprietário</w>": 6948,
      "servid": 6949,
      "entrega</w>": 6950,
      "présti": 6951,
      "zinho</w>": 6952,
      "Hig": 6953,
      "esse": 6954,
      "correu</w>": 6955,
      "fornecido</w>": 6956,
      "ph</w>": 6957,
      "notável</w>": 6958,
      "espectadores</w>": 6959,
      "ung": 6960,
      "saudáveis</w>": 6961,
      "insig": 6962,
      "bande": 6963,
      "combustíveis</w>": 6964,
      "vi</w>": 6965,
      "esten": 6966,
      "res.</w>": 6967,
      "ideal</w>": 6968,
      "Capit": 6969,
      "justific": 6970,
      "família.</w>": 6971,
      "Londres</w>": 6972,
      "Inform": 6973,
      "memória</w>": 6974,
      "Igreja</w>": 6975,
      "zona</w>": 6976,
      "terremo": 6977,
      "back": 6978,
      "150</w>": 6979,
      "ências,</w>": 6980,
      "ling</w>": 6981,
      "abertura</w>": 6982,
      "renováveis</w>": 6983,
      "largu": 6984,
      "chama</w>": 6985,
      "ídas</w>": 6986,
      "revela</w>": 6987,
      "alivi": 6988,
      "contribuições</w>": 6989,
      "tidos</w>": 6990,
      "pacot": 6991,
      "rost": 6992,
      "litros</w>": 6993,
      "sociais.</w>": 6994,
      "conhecid": 6995,
      "testar</w>": 6996,
      "ka</w>": 6997,
      "fug": 6998,
      "escolher": 6999,
      "admir": 7000,
      "exploração</w>": 7001,
      "fronteira</w>": 7002,
      "(que</w>": 7003,
      "Mic": 7004,
      "Dar": 7005,
      "entend": 7006,
      "ício,</w>": 7007,
      "correspond": 7008,
      "gord": 7009,
      "reiras</w>": 7010,
      "rigor": 7011,
      "razoável</w>": 7012,
      "confirm": 7013,
      "entemente,</w>": 7014,
      "Tar": 7015,
      "suj": 7016,
      "adult": 7017,
      "únicas</w>": 7018,
      "ambiental</w>": 7019,
      "calç": 7020,
      "enx": 7021,
      "planeta</w>": 7022,
      "exib": 7023,
      "habilidade</w>": 7024,
      "abraç": 7025,
      "labor": 7026,
      "românt": 7027,
      "carvão</w>": 7028,
      "consistente</w>": 7029,
      "disponibilidade</w>": 7030,
      "traz</w>": 7031,
      "formato</w>": 7032,
      "(a</w>": 7033,
      "social.</w>": 7034,
      "zon": 7035,
      "cartão</w>": 7036,
      "tripul": 7037,
      "AT": 7038,
      "instalação</w>": 7039,
      "igreja</w>": 7040,
      "bei": 7041,
      "recentes</w>": 7042,
      "tweet</w>": 7043,
      "agricultura</w>": 7044,
      "descre": 7045,
      "meditação</w>": 7046,
      "letras</w>": 7047,
      "C,</w>": 7048,
      "passeio</w>": 7049,
      "OPT": 7050,
      "apartamento</w>": 7051,
      "amentos,</w>": 7052,
      "enfatiza</w>": 7053,
      "Fri": 7054,
      "modific": 7055,
      "câncer</w>": 7056,
      "interessado</w>": 7057,
      "Yo": 7058,
      "vir</w>": 7059,
      "profundo</w>": 7060,
      "íveis.</w>": 7061,
      "sons</w>": 7062,
      "Bob</w>": 7063,
      "t.</w>": 7064,
      "paixão</w>": 7065,
      "espírito</w>": 7066,
      "sibil": 7067,
      "formul": 7068,
      "barco</w>": 7069,
      "ates</w>": 7070,
      "muda</w>": 7071,
      "cron": 7072,
      "chut": 7073,
      "lugar.</w>": 7074,
      "empregos</w>": 7075,
      "Jim": 7076,
      "críticas</w>": 7077,
      "pera</w>": 7078,
      "Jim</w>": 7079,
      "ã.</w>": 7080,
      "fator</w>": 7081,
      "õe</w>": 7082,
      "grafo": 7083,
      "duração</w>": 7084,
      "Jord": 7085,
      "Jane</w>": 7086,
      "cobr": 7087,
      "campos</w>": 7088,
      "precisos</w>": 7089,
      "conforme</w>": 7090,
      "aberto</w>": 7091,
      "dro": 7092,
      "qued": 7093,
      "composição</w>": 7094,
      "memor": 7095,
      "%.</w>": 7096,
      "aqui": 7097,
      "ante:</w>": 7098,
      "desper": 7099,
      "díg": 7100,
      "foto</w>": 7101,
      "hospital</w>": 7102,
      "disseram</w>": 7103,
      "tradições</w>": 7104,
      "amento:</w>": 7105,
      "11": 7106,
      "uniform": 7107,
      "incentivar</w>": 7108,
      "inado</w>": 7109,
      "abrir</w>": 7110,
      "\"Ele</w>": 7111,
      "gon": 7112,
      "considere</w>": 7113,
      "quilômetros</w>": 7114,
      "\"L": 7115,
      "ra?</w>": 7116,
      "repar": 7117,
      "istas.</w>": 7118,
      "passado,</w>": 7119,
      "\".,</w>": 7120,
      "compras</w>": 7121,
      "emprésti": 7122,
      "encant": 7123,
      "advers": 7124,
      "lob": 7125,
      "Mur": 7126,
      "icí": 7127,
      "artigos</w>": 7128,
      "ale</w>": 7129,
      "Det": 7130,
      "úm": 7131,
      "esmag": 7132,
      "the": 7133,
      "ester</w>": 7134,
      "Extra": 7135,
      "Compare</w>": 7136,
      "id</w>": 7137,
      "ônico</w>": 7138,
      "lá,</w>": 7139,
      "Considerando</w>": 7140,
      "pano</w>": 7141,
      "bloque": 7142,
      "dobr": 7143,
      "votos</w>": 7144,
      "princípios</w>": 7145,
      "músculos</w>": 7146,
      "manip": 7147,
      "tinta</w>": 7148,
      "dias.</w>": 7149,
      "aldeia</w>": 7150,
      "io": 7151,
      "Inst": 7152,
      "lançou</w>": 7153,
      "Francis": 7154,
      "vej": 7155,
      "tia</w>": 7156,
      "Presidente</w>": 7157,
      "retorna</w>": 7158,
      "terminar</w>": 7159,
      "vio</w>": 7160,
      "aluno</w>": 7161,
      "ônio</w>": 7162,
      "fundos</w>": 7163,
      "chocolate</w>": 7164,
      "tru": 7165,
      "jardas.</w>": 7166,
      "rádio</w>": 7167,
      "Syd": 7168,
      "arquivos</w>": 7169,
      "ato,</w>": 7170,
      "necessário.</w>": 7171,
      "moléculas</w>": 7172,
      "Bill</w>": 7173,
      "inando</w>": 7174,
      "bactérias</w>": 7175,
      "melhor.</w>": 7176,
      "confirmar</w>": 7177,
      "trilha</w>": 7178,
      "novamente.</w>": 7179,
      "ileg": 7180,
      "bebidas</w>": 7181,
      "isa</w>": 7182,
      "Nig": 7183,
      "Angel": 7184,
      "comparar</w>": 7185,
      "XI": 7186,
      "viajar</w>": 7187,
      "Seja</w>": 7188,
      "Tayl": 7189,
      "idos,</w>": 7190,
      "Talvez</w>": 7191,
      "vêm</w>": 7192,
      "eta.</w>": 7193,
      "determinação</w>": 7194,
      "semana,</w>": 7195,
      "dentes</w>": 7196,
      "so?</w>": 7197,
      "paisagem</w>": 7198,
      "Departamento</w>": 7199,
      "adot": 7200,
      "refeição</w>": 7201,
      "dificuldade</w>": 7202,
      "?Claro,</w>": 7203,
      "ica:</w>": 7204,
      "realizado</w>": 7205,
      "bril": 7206,
      "Avaliar</w>": 7207,
      "doenç": 7208,
      "transmiti": 7209,
      "Entre</w>": 7210,
      "país,</w>": 7211,
      "City</w>": 7212,
      "prove": 7213,
      "referência</w>": 7214,
      "hoje.</w>": 7215,
      "á.</w>": 7216,
      "alment": 7217,
      "oficiais</w>": 7218,
      "físi": 7219,
      "estabelecimento</w>": 7220,
      "cerim": 7221,
      "legal</w>": 7222,
      "sever": 7223,
      "cresci": 7224,
      "tá": 7225,
      "janela</w>": 7226,
      "branc": 7227,
      "Outra</w>": 7228,
      "pou</w>": 7229,
      "duí": 7230,
      "ária,</w>": 7231,
      "edes</w>": 7232,
      "águas</w>": 7233,
      "bolsa</w>": 7234,
      "emocionante</w>": 7235,
      "Log": 7236,
      "brut": 7237,
      "ismo.</w>": 7238,
      "medicamentos</w>": 7239,
      "amigos,</w>": 7240,
      "pagamento</w>": 7241,
      "Coloque</w>": 7242,
      "ímos</w>": 7243,
      "vínci": 7244,
      "passageiros</w>": 7245,
      "recomendar</w>": 7246,
      "off": 7247,
      "selho</w>": 7248,
      "consiste</w>": 7249,
      "sobren": 7250,
      "Conselho</w>": 7251,
      "-me</w>": 7252,
      "100)</w>": 7253,
      "fazê-l": 7254,
      "ene</w>": 7255,
      "elos</w>": 7256,
      "cionais</w>": 7257,
      "clientes.</w>": 7258,
      "originalmente</w>": 7259,
      "ague</w>": 7260,
      "Dem": 7261,
      "Assim</w>": 7262,
      "terrâne": 7263,
      "enfer": 7264,
      "ons</w>": 7265,
      "reforç": 7266,
      "a),</w>": 7267,
      "refri": 7268,
      "céu</w>": 7269,
      "Exército</w>": 7270,
      "comé": 7271,
      "ignor": 7272,
      "Pu": 7273,
      "superi": 7274,
      "escritor</w>": 7275,
      "proporcionar</w>": 7276,
      "ps": 7277,
      "dy</w>": 7278,
      "Sand": 7279,
      "familiar": 7280,
      "aparentemente</w>": 7281,
      "issão</w>": 7282,
      "exército</w>": 7283,
      "Ros": 7284,
      "quê?</w>": 7285,
      "eatType</w>": 7286,
      "TD</w>": 7287,
      "regulamentos</w>": 7288,
      "Congres": 7289,
      "ches</w>": 7290,
      "fatores,</w>": 7291,
      "declínio</w>": 7292,
      "ses": 7293,
      "anti-": 7294,
      "vídeos</w>": 7295,
      "cina</w>": 7296,
      "ho,</w>": 7297,
      "plásti": 7298,
      "S.</w>": 7299,
      "incidente</w>": 7300,
      "und</w>": 7301,
      "ólic": 7302,
      "Imagine</w>": 7303,
      "ato.</w>": 7304,
      "energia.</w>": 7305,
      "divertido</w>": 7306,
      "nit": 7307,
      "criado</w>": 7308,
      "autoriz": 7309,
      "B).</w>": 7310,
      "lac": 7311,
      "dida,</w>": 7312,
      "Total</w>": 7313,
      "restaurantes</w>": 7314,
      "acadê": 7315,
      "sentado</w>": 7316,
      "respondível": 7317,
      "ta,</w>": 7318,
      "assisti": 7319,
      "equipe.</w>": 7320,
      "políti": 7321,
      "narrador</w>": 7322,
      "manteiga</w>": 7323,
      "B,</w>": 7324,
      "acomod": 7325,
      "ês.</w>": 7326,
      "190": 7327,
      "ward": 7328,
      "agentes</w>": 7329,
      "centr": 7330,
      "cend": 7331,
      "estere": 7332,
      "esf": 7333,
      "tol": 7334,
      "um.</w>": 7335,
      "ger</w>": 7336,
      "varej": 7337,
      "diria</w>": 7338,
      "idas.</w>": 7339,
      "distrito</w>": 7340,
      "panela</w>": 7341,
      "preç": 7342,
      "coorden": 7343,
      "previs": 7344,
      "serviu</w>": 7345,
      "rique": 7346,
      "osos,</w>": 7347,
      "(B).</w>": 7348,
      "cortar</w>": 7349,
      "4)</w>": 7350,
      "complexa</w>": 7351,
      "mara</w>": 7352,
      "passos:</w>": 7353,
      "-a</w>": 7354,
      "acid": 7355,
      "camadas</w>": 7356,
      "devemos</w>": 7357,
      "quantidades</w>": 7358,
      "totais</w>": 7359,
      "estimação</w>": 7360,
      "bené": 7361,
      "Dia</w>": 7362,
      "enz": 7363,
      "queda</w>": 7364,
      "ow": 7365,
      "Rus": 7366,
      "divul": 7367,
      "gir": 7368,
      "AI": 7369,
      "avaliações</w>": 7370,
      "glico": 7371,
      "tron": 7372,
      "consigo</w>": 7373,
      "ster</w>": 7374,
      "forneceu</w>": 7375,
      "Uau,</w>": 7376,
      "azul": 7377,
      "estabilidade</w>": 7378,
      "manif": 7379,
      "terror": 7380,
      "(A).</w>": 7381,
      "aproveitar</w>": 7382,
      "recorde</w>": 7383,
      "chamados</w>": 7384,
      "comentário</w>": 7385,
      "acreditam</w>": 7386,
      "inimig": 7387,
      "Mul": 7388,
      "desast": 7389,
      "ífer": 7390,
      "juntar</w>": 7391,
      "motor</w>": 7392,
      "comerciais</w>": 7393,
      "pista</w>": 7394,
      "integr": 7395,
      "dado,</w>": 7396,
      "aeron": 7397,
      "vindo</w>": 7398,
      "brem</w>": 7399,
      "presid": 7400,
      "Tre": 7401,
      "Windo": 7402,
      "inúmeros</w>": 7403,
      "retorn": 7404,
      "vontade</w>": 7405,
      "espalh": 7406,
      "ém,</w>": 7407,
      "ampi": 7408,
      "BC</w>": 7409,
      "pedindo</w>": 7410,
      "Dav": 7411,
      "saída:": 7412,
      "r,</w>": 7413,
      "interações</w>": 7414,
      "Kat": 7415,
      "gico</w>": 7416,
      "praia</w>": 7417,
      "estudar</w>": 7418,
      "máquinas</w>": 7419,
      "derrot": 7420,
      "locais.</w>": 7421,
      "alhas</w>": 7422,
      "edição</w>": 7423,
      "Hum": 7424,
      "Sentença:</w>": 7425,
      "vide": 7426,
      "gro": 7427,
      "passo.</w>": 7428,
      "W:</w>": 7429,
      "lutando</w>": 7430,
      "aborda</w>": 7431,
      "insights</w>": 7432,
      "ams</w>": 7433,
      "olho</w>": 7434,
      "menção</w>": 7435,
      "especialistas</w>": 7436,
      "familiares</w>": 7437,
      "29</w>": 7438,
      "acessível</w>": 7439,
      "Hist": 7440,
      "vital</w>": 7441,
      "diag": 7442,
      "pudesse</w>": 7443,
      "semana.</w>": 7444,
      "policial</w>": 7445,
      "desempenham</w>": 7446,
      "ine,</w>": 7447,
      "Neg": 7448,
      ".Para</w>": 7449,
      "cai</w>": 7450,
      "Donald</w>": 7451,
      "conversas</w>": 7452,
      "seria:</w>": 7453,
      "minutos.</w>": 7454,
      "britânico</w>": 7455,
      "petróleo</w>": 7456,
      "disput": 7457,
      "bons</w>": 7458,
      "empreen": 7459,
      "sugestão</w>": 7460,
      "assuntos</w>": 7461,
      "férias</w>": 7462,
      "peixe</w>": 7463,
      "sapatos</w>": 7464,
      "ensaio</w>": 7465,
      "multi-": 7466,
      "canç": 7467,
      "Evite</w>": 7468,
      "essem</w>": 7469,
      "útil": 7470,
      "turismo</w>": 7471,
      "Cin": 7472,
      "fur": 7473,
      "fusão</w>": 7474,
      "(T": 7475,
      "Oce": 7476,
      "Expl": 7477,
      "Ben</w>": 7478,
      "ingressos</w>": 7479,
      "Far": 7480,
      "australi": 7481,
      "ER": 7482,
      "indicar</w>": 7483,
      "desenvolve": 7484,
      "mitigar</w>": 7485,
      "tribunal</w>": 7486,
      "como:</w>": 7487,
      "anha,</w>": 7488,
      "situação.</w>": 7489,
      "extens": 7490,
      "ader": 7491,
      "ência:</w>": 7492,
      "crítica</w>": 7493,
      "inha,</w>": 7494,
      "través</w>": 7495,
      "Colleg": 7496,
      "perfeito</w>": 7497,
      "animado</w>": 7498,
      "contribui</w>": 7499,
      "Organ": 7500,
      "recompens": 7501,
      "frango</w>": 7502,
      "Charles</w>": 7503,
      "abast": 7504,
      "centav": 7505,
      "Gru": 7506,
      "Ti": 7507,
      "ay,</w>": 7508,
      "Alexand": 7509,
      "fec": 7510,
      "coer": 7511,
      "comunicar</w>": 7512,
      "atend": 7513,
      "pulmões</w>": 7514,
      "atic": 7515,
      "conhecidas</w>": 7516,
      "indústrias</w>": 7517,
      "eck": 7518,
      "ânia</w>": 7519,
      "Jason</w>": 7520,
      "dispar": 7521,
      "família,</w>": 7522,
      "úteis</w>": 7523,
      "combustível</w>": 7524,
      "eiras,</w>": 7525,
      "Mill": 7526,
      "sequência</w>": 7527,
      "ticas</w>": 7528,
      "solid": 7529,
      "Fornec": 7530,
      "social,</w>": 7531,
      "Que": 7532,
      "crut": 7533,
      "on-line</w>": 7534,
      "Professor:</w>": 7535,
      "aniversário</w>": 7536,
      "Ru": 7537,
      "éticos</w>": 7538,
      "(por</w>": 7539,
      "quei</w>": 7540,
      "sucesso.</w>": 7541,
      "dificuldades</w>": 7542,
      "Internacional</w>": 7543,
      "au</w>": 7544,
      "oferec": 7545,
      "edade,</w>": 7546,
      "envolvente</w>": 7547,
      "má</w>": 7548,
      "ar?</w>": 7549,
      "lago</w>": 7550,
      "Lil": 7551,
      "%,</w>": 7552,
      "retornar</w>": 7553,
      "abele": 7554,
      "índia</w>": 7555,
      "alternativas</w>": 7556,
      "agricultores</w>": 7557,
      "ente:</w>": 7558,
      "repe": 7559,
      "negativamente</w>": 7560,
      "dependência</w>": 7561,
      "-os</w>": 7562,
      "Sout": 7563,
      "nessas</w>": 7564,
      "veter": 7565,
      "lutar</w>": 7566,
      "estudou</w>": 7567,
      "conselhos</w>": 7568,
      "Arm": 7569,
      "mercados</w>": 7570,
      "osos.</w>": 7571,
      "gica</w>": 7572,
      "ale": 7573,
      "ura.</w>": 7574,
      "invent": 7575,
      "Resposta:Com</w>": 7576,
      "Clu": 7577,
      "over": 7578,
      "tiva.</w>": 7579,
      "absolut": 7580,
      "cirur": 7581,
      "bios</w>": 7582,
      "dormir</w>": 7583,
      "desperd": 7584,
      "Terra.</w>": 7585,
      "Primeira</w>": 7586,
      "pássaro</w>": 7587,
      "baixos</w>": 7588,
      "sanduí": 7589,
      "Lan": 7590,
      "You": 7591,
      "Acho</w>": 7592,
      "atriz</w>": 7593,
      "Lev": 7594,
      "brilhante</w>": 7595,
      "-se,</w>": 7596,
      "imper": 7597,
      "prosper": 7598,
      "energ": 7599,
      "al\".</w>": 7600,
      "cadeira</w>": 7601,
      "segurança.</w>": 7602,
      "pintura</w>": 7603,
      "len</w>": 7604,
      "terras</w>": 7605,
      "Vin": 7606,
      "circul": 7607,
      "tên": 7608,
      "vende": 7609,
      "condicion": 7610,
      "Range</w>": 7611,
      "organizar</w>": 7612,
      "minimizar</w>": 7613,
      "Jes": 7614,
      "Leg": 7615,
      "área.</w>": 7616,
      "corridas</w>": 7617,
      "o).</w>": 7618,
      "27": 7619,
      "Marti": 7620,
      "ário:</w>": 7621,
      "irmãos</w>": 7622,
      "3.": 7623,
      "combater</w>": 7624,
      "possibilidade</w>": 7625,
      "forneced": 7626,
      "Infeliz": 7627,
      "clam": 7628,
      "lápis</w>": 7629,
      "segre": 7630,
      "ritmo</w>": 7631,
      "borbol": 7632,
      "funcionário</w>": 7633,
      "períodos</w>": 7634,
      "complement": 7635,
      "(2).</w>": 7636,
      "oras</w>": 7637,
      "chi": 7638,
      "interação</w>": 7639,
      "Explicação:</w>": 7640,
      "infel": 7641,
      "apri": 7642,
      "garrafa</w>": 7643,
      "óp": 7644,
      "Trans": 7645,
      "Cre": 7646,
      "transição</w>": 7647,
      "acamp": 7648,
      "bert</w>": 7649,
      "positivas</w>": 7650,
      "responsáveis</w>": 7651,
      "ológicos</w>": 7652,
      "vistas</w>": 7653,
      "tornaram</w>": 7654,
      "tigela</w>": 7655,
      "flex": 7656,
      "circunstâncias</w>": 7657,
      "Através</w>": 7658,
      "naquela</w>": 7659,
      "complexo</w>": 7660,
      "facilit": 7661,
      "processo.</w>": 7662,
      "certamente</w>": 7663,
      "amigo,</w>": 7664,
      "enfrentam</w>": 7665,
      "estações</w>": 7666,
      "Outros</w>": 7667,
      "?Certamente!</w>": 7668,
      "ecossistemas</w>": 7669,
      "provínci": 7670,
      "Junt": 7671,
      "Mas": 7672,
      "flutu": 7673,
      "(F": 7674,
      "\"Você</w>": 7675,
      "Deus</w>": 7676,
      "price": 7677,
      "forneça</w>": 7678,
      "conhec": 7679,
      "2000</w>": 7680,
      "diversos</w>": 7681,
      "íncipe</w>": 7682,
      "bun": 7683,
      "dinheiro.</w>": 7684,
      "proporcionando</w>": 7685,
      "destas</w>": 7686,
      "Star": 7687,
      "íveis,</w>": 7688,
      "dados,</w>": 7689,
      "aplicar</w>": 7690,
      "acessíveis</w>": 7691,
      "afec": 7692,
      "mostram</w>": 7693,
      "al\"</w>": 7694,
      "paredes</w>": 7695,
      "sentindo</w>": 7696,
      "confer": 7697,
      "olha</w>": 7698,
      "har": 7699,
      "frio</w>": 7700,
      "Austrália</w>": 7701,
      "nuv": 7702,
      "tenção</w>": 7703,
      "800</w>": 7704,
      "interior</w>": 7705,
      "ou:</w>": 7706,
      "agrícolas</w>": 7707,
      "\\):</w>": 7708,
      "discurso</w>": 7709,
      "recebendo</w>": 7710,
      "show": 7711,
      "consumidores</w>": 7712,
      "regulares</w>": 7713,
      "am-se</w>": 7714,
      "reflete</w>": 7715,
      "lam": 7716,
      "onças</w>": 7717,
      "milhares</w>": 7718,
      "Pac": 7719,
      "revista</w>": 7720,
      "último,</w>": 7721,
      "cópi": 7722,
      "eficaz.</w>": 7723,
      "Cro": 7724,
      "positiva.</w>": 7725,
      "percent": 7726,
      "ek</w>": 7727,
      "low": 7728,
      "dade,</w>": 7729,
      "Alemanha</w>": 7730,
      "b-</w>": 7731,
      "Emily</w>": 7732,
      "julgamento</w>": 7733,
      "Appl": 7734,
      "jud": 7735,
      "expansão</w>": 7736,
      "Sec": 7737,
      "ental</w>": 7738,
      "luxo</w>": 7739,
      "Washington</w>": 7740,
      "amentos.</w>": 7741,
      "nação</w>": 7742,
      "aparece</w>": 7743,
      "imento,</w>": 7744,
      "sibilidade</w>": 7745,
      "perguntar</w>": 7746,
      "resposta\".</w>": 7747,
      "al?</w>": 7748,
      "fugi": 7749,
      "dirigido</w>": 7750,
      "fisc": 7751,
      "cos:</w>": 7752,
      "exce": 7753,
      "responder": 7754,
      "áu": 7755,
      "óculos</w>": 7756,
      "observar</w>": 7757,
      "cartões</w>": 7758,
      "sabores</w>": 7759,
      "wood": 7760,
      "deixe</w>": 7761,
      "memórias</w>": 7762,
      "voo</w>": 7763,
      "afirmação</w>": 7764,
      "ação.": 7765,
      "faculdade</w>": 7766,
      "dela</w>": 7767,
      "Prin": 7768,
      "Eg": 7769,
      "átom": 7770,
      "vez.</w>": 7771,
      "direcion": 7772,
      "eira": 7773,
      "usuário.</w>": 7774,
      "piloto</w>": 7775,
      "corrig": 7776,
      "Amaz": 7777,
      "gasto</w>": 7778,
      "intim": 7779,
      "terre": 7780,
      "realização</w>": 7781,
      "36": 7782,
      "AC": 7783,
      "ferro": 7784,
      "mais,</w>": 7785,
      "teoria</w>": 7786,
      "reún": 7787,
      "assino</w>": 7788,
      "pessoa.</w>": 7789,
      "ulman": 7790,
      "tráfego</w>": 7791,
      "música,</w>": 7792,
      "danific": 7793,
      "érios</w>": 7794,
      "democr": 7795,
      "selvagem</w>": 7796,
      "pode-se</w>": 7797,
      "-feira</w>": 7798,
      "Ocident": 7799,
      "ância,</w>": 7800,
      "produz</w>": 7801,
      "Bre": 7802,
      "público-": 7803,
      "sugestões</w>": 7804,
      "çulman": 7805,
      "informações,</w>": 7806,
      "vitam": 7807,
      "cartas</w>": 7808,
      "armazenar</w>": 7809,
      "conscient": 7810,
      "nota</w>": 7811,
      "Escóci": 7812,
      "atraente</w>": 7813,
      "ta.</w>": 7814,
      "plástico</w>": 7815,
      "tomando</w>": 7816,
      "refriger": 7817,
      "lutas</w>": 7818,
      "Flóri": 7819,
      "hu": 7820,
      "gira</w>": 7821,
      "(\\</w>": 7822,
      "patri": 7823,
      "p,</w>": 7824,
      "símbolo</w>": 7825,
      "comercial</w>": 7826,
      "atualizações</w>": 7827,
      "\"um</w>": 7828,
      "amigos.</w>": 7829,
      "representar</w>": 7830,
      "cavalo</w>": 7831,
      "sexta": 7832,
      "voltou</w>": 7833,
      "Copa</w>": 7834,
      "Bol": 7835,
      "civil": 7836,
      "dio,</w>": 7837,
      "visuais</w>": 7838,
      "Martin</w>": 7839,
      "R:</w>": 7840,
      "compostos</w>": 7841,
      "filt": 7842,
      "ajustar</w>": 7843,
      "pai,</w>": 7844,
      "engraç": 7845,
      "Lei</w>": 7846,
      "cidadãos</w>": 7847,
      "descobr": 7848,
      "Três</w>": 7849,
      "inferior</w>": 7850,
      "predad": 7851,
      "Austráli": 7852,
      "esporte</w>": 7853,
      "e;</w>": 7854,
      "ficaram</w>": 7855,
      "lentamente</w>": 7856,
      "ala</w>": 7857,
      "trouxe</w>": 7858,
      "Bel": 7859,
      "(em</w>": 7860,
      "dividir</w>": 7861,
      "Combine</w>": 7862,
      "aberta</w>": 7863,
      "stor": 7864,
      "suponha</w>": 7865,
      "trato</w>": 7866,
      "locais,</w>": 7867,
      "hipótese:</w>": 7868,
      "mecanismos</w>": 7869,
      "cheia</w>": 7870,
      "poderosa</w>": 7871,
      "críticos</w>": 7872,
      "imigr": 7873,
      "bomb": 7874,
      "sw": 7875,
      "assent": 7876,
      "terminou</w>": 7877,
      "afast": 7878,
      "izab": 7879,
      "vidro</w>": 7880,
      "matéria</w>": 7881,
      "nomeado</w>": 7882,
      "pedaço</w>": 7883,
      "ganhos</w>": 7884,
      "ol,</w>": 7885,
      "suco</w>": 7886,
      "Pesquisa</w>": 7887,
      "10%</w>": 7888,
      "assistente</w>": 7889,
      "Mar</w>": 7890,
      "repeti": 7891,
      "Der": 7892,
      "crever</w>": 7893,
      "existe</w>": 7894,
      "Roc": 7895,
      "possivelmente</w>": 7896,
      "personalidade</w>": 7897,
      "patro": 7898,
      "Ten": 7899,
      "pessoal.</w>": 7900,
      "mesmos</w>": 7901,
      "hábitos</w>": 7902,
      "nó": 7903,
      "ígenas</w>": 7904,
      "amplo</w>": 7905,
      "TV": 7906,
      "verdade.</w>": 7907,
      "lucra": 7908,
      "West</w>": 7909,
      "canc": 7910,
      "fio</w>": 7911,
      "álcool</w>": 7912,
      "sínt": 7913,
      "Pat": 7914,
      "coisa.</w>": 7915,
      "oferta</w>": 7916,
      "região.</w>": 7917,
      "irem</w>": 7918,
      "revisão,</w>": 7919,
      "x,</w>": 7920,
      "interpretado</w>": 7921,
      "advogado</w>": 7922,
      "ricos</w>": 7923,
      "bater</w>": 7924,
      "parceria</w>": 7925,
      "apresentação</w>": 7926,
      "categorias</w>": 7927,
      "caiu</w>": 7928,
      "bati": 7929,
      "Plan": 7930,
      "Meu</w>": 7931,
      "comet": 7932,
      "impressionante</w>": 7933,
      "boca</w>": 7934,
      "decor": 7935,
      "oa</w>": 7936,
      "dele.</w>": 7937,
      "Mist": 7938,
      "real.</w>": 7939,
      "podia</w>": 7940,
      "mencionam</w>": 7941,
      "financeira</w>": 7942,
      "provoc": 7943,
      "vermelha</w>": 7944,
      "York,</w>": 7945,
      "(0,": 7946,
      "oceano</w>": 7947,
      "preta</w>": 7948,
      "region": 7949,
      "aram-se</w>": 7950,
      "endo.</w>": 7951,
      "Possíveis</w>": 7952,
      "Não": 7953,
      "verbo</w>": 7954,
      "mostrou</w>": 7955,
      "letra</w>": 7956,
      "alugu": 7957,
      "plement": 7958,
      "1000</w>": 7959,
      "World</w>": 7960,
      "República</w>": 7961,
      "itos.</w>": 7962,
      "decid": 7963,
      "ofen": 7964,
      "4,": 7965,
      "dour": 7966,
      "diretrizes</w>": 7967,
      "estufa</w>": 7968,
      "esclar": 7969,
      "músicos</w>": 7970,
      "receberá</w>": 7971,
      "venceu</w>": 7972,
      "genu": 7973,
      "aprofund": 7974,
      "norte-": 7975,
      "umbr": 7976,
      "texto:</w>": 7977,
      "biscoitos</w>": 7978,
      "integração</w>": 7979,
      "zonas</w>": 7980,
      "(M": 7981,
      "aremos</w>": 7982,
      "onia</w>": 7983,
      "lida</w>": 7984,
      "compartilham</w>": 7985,
      "inflam": 7986,
      "crime</w>": 7987,
      "motorista</w>": 7988,
      "elogi": 7989,
      "harm": 7990,
      "deser": 7991,
      "colega</w>": 7992,
      "quia</w>": 7993,
      "independentemente</w>": 7994,
      "apresentado</w>": 7995,
      "lar</w>": 7996,
      "notáveis</w>": 7997,
      "encontrada</w>": 7998,
      "escrito,</w>": 7999,
      "priceRange</w>": 8000,
      "Camer": 8001,
      "B)</w>": 8002,
      "citação</w>": 8003,
      "colocado</w>": 8004,
      "American</w>": 8005,
      "jornal</w>": 8006,
      "reprodução</w>": 8007,
      "prever</w>": 8008,
      "palco</w>": 8009,
      "errado</w>": 8010,
      "rach": 8011,
      "nav": 8012,
      "ográfica</w>": 8013,
      "6:</w>": 8014,
      "des,</w>": 8015,
      "garrafas</w>": 8016,
      "viaja</w>": 8017,
      "esportes</w>": 8018,
      "Count": 8019,
      "cobre</w>": 8020,
      "usaram</w>": 8021,
      "universidade</w>": 8022,
      "Matt</w>": 8023,
      "escola.</w>": 8024,
      "rá</w>": 8025,
      "Preço</w>": 8026,
      "Porcentagem</w>": 8027,
      "arquitetura</w>": 8028,
      "ores": 8029,
      "Custo</w>": 8030,
      "popularidade</w>": 8031,
      "acumul": 8032,
      "diferente.</w>": 8033,
      "areia</w>": 8034,
      "vende</w>": 8035,
      "problema,</w>": 8036,
      "habitats</w>": 8037,
      "caça</w>": 8038,
      "original.</w>": 8039,
      "defender</w>": 8040,
      "capturar</w>": 8041,
      "impactar</w>": 8042,
      "constantemente</w>": 8043,
      "saco</w>": 8044,
      "\"a</w>": 8045,
      "caminhão</w>": 8046,
      "Soci": 8047,
      "aprimor": 8048,
      "balanç": 8049,
      "gh": 8050,
      "ps</w>": 8051,
      "preparação</w>": 8052,
      "9999": 8053,
      "levam</w>": 8054,
      "considerados</w>": 8055,
      "alizado</w>": 8056,
      "revisão.</w>": 8057,
      "cula</w>": 8058,
      "mesmo.</w>": 8059,
      "alho</w>": 8060,
      "digital</w>": 8061,
      "sessões</w>": 8062,
      "eta,</w>": 8063,
      "Solu": 8064,
      "League</w>": 8065,
      "encontro</w>": 8066,
      "ar\"</w>": 8067,
      "caminhada</w>": 8068,
      "Adicionar</w>": 8069,
      "eiros,</w>": 8070,
      "Unit": 8071,
      "ado.": 8072,
      "últimas</w>": 8073,
      "excesso</w>": 8074,
      "gravidade</w>": 8075,
      "Ram": 8076,
      "hes": 8077,
      "inser": 8078,
      "trama</w>": 8079,
      "legais</w>": 8080,
      "exigir</w>": 8081,
      "NF": 8082,
      "food</w>": 8083,
      "bairro</w>": 8084,
      "g,</w>": 8085,
      "subsequ": 8086,
      "únicos</w>": 8087,
      "diplom": 8088,
      "Er": 8089,
      "resgat": 8090,
      "primeiro-": 8091,
      "Rach": 8092,
      "ek": 8093,
      "-nos</w>": 8094,
      "ragem</w>": 8095,
      "dade.</w>": 8096,
      "canad": 8097,
      "perfeitamente</w>": 8098,
      "inclusão</w>": 8099,
      "contêm</w>": 8100,
      "gastou</w>": 8101,
      "republic": 8102,
      "banho</w>": 8103,
      "Veg": 8104,
      "a...</w>": 8105,
      "as/": 8106,
      "comportamentos</w>": 8107,
      "química</w>": 8108,
      "Ryan</w>": 8109,
      "planeja</w>": 8110,
      "eletrôni": 8111,
      "vice-": 8112,
      "pegou</w>": 8113,
      "comum.</w>": 8114,
      "45": 8115,
      "fazenda</w>": 8116,
      "astas</w>": 8117,
      "ê-los</w>": 8118,
      "facilitar</w>": 8119,
      "revolu": 8120,
      "amiga</w>": 8121,
      "eiros.</w>": 8122,
      "Compre": 8123,
      "pernas</w>": 8124,
      "comunidade.</w>": 8125,
      "sugerindo</w>": 8126,
      "execução</w>": 8127,
      "cír": 8128,
      "aventura</w>": 8129,
      "Bra": 8130,
      "telh": 8131,
      "Elizab": 8132,
      "mer</w>": 8133,
      "multidão</w>": 8134,
      "tornando-o</w>": 8135,
      "poucos</w>": 8136,
      "Servi": 8137,
      "acaba</w>": 8138,
      "a-feira,</w>": 8139,
      "recuperação</w>": 8140,
      "placas</w>": 8141,
      "insatisfação</w>": 8142,
      "cento</w>": 8143,
      "Bras": 8144,
      "eni": 8145,
      "eço</w>": 8146,
      "juntos,</w>": 8147,
      "machu": 8148,
      "deslumbr": 8149,
      "latas</w>": 8150,
      "Infelizmente,</w>": 8151,
      "gor": 8152,
      "Probl": 8153,
      "onato</w>": 8154,
      "atuais</w>": 8155,
      "dimen": 8156,
      "prêmio</w>": 8157,
      "\"P": 8158,
      "ância.</w>": 8159,
      "levado</w>": 8160,
      "artes": 8161,
      "concentra</w>": 8162,
      "sessão</w>": 8163,
      "seguinte.</w>": 8164,
      "seja,</w>": 8165,
      "fest": 8166,
      "verdes</w>": 8167,
      "Liga</w>": 8168,
      "intest": 8169,
      "Continue</w>": 8170,
      "monte</w>": 8171,
      "disponíveis:</w>": 8172,
      "interface</w>": 8173,
      "influenciar</w>": 8174,
      "bela</w>": 8175,
      "científic": 8176,
      "ba": 8177,
      "jos</w>": 8178,
      "suspen": 8179,
      "stituto</w>": 8180,
      "literatura</w>": 8181,
      "dedicação</w>": 8182,
      "ma,</w>": 8183,
      "terç": 8184,
      "energia,</w>": 8185,
      "respostas:</w>": 8186,
      "origens</w>": 8187,
      "DN": 8188,
      "00.</w>": 8189,
      "homen": 8190,
      "escur": 8191,
      "elhos</w>": 8192,
      "numer": 8193,
      "Dou": 8194,
      "sexual</w>": 8195,
      "internacionais</w>": 8196,
      "Steve</w>": 8197,
      "íti": 8198,
      "mand": 8199,
      "stre": 8200,
      "final.</w>": 8201,
      "escrav": 8202,
      "váli": 8203,
      "ogram": 8204,
      "realizada</w>": 8205,
      "costas</w>": 8206,
      "Jose": 8207,
      "horário</w>": 8208,
      "prova</w>": 8209,
      "europe": 8210,
      "mencionados</w>": 8211,
      "iner": 8212,
      "way</w>": 8213,
      "aver": 8214,
      "verso</w>": 8215,
      "tiva,</w>": 8216,
      "ball</w>": 8217,
      "AN": 8218,
      "havi": 8219,
      "procuram</w>": 8220,
      "inund": 8221,
      "Proces": 8222,
      "tropic": 8223,
      "Micro": 8224,
      "corpo,</w>": 8225,
      "apareceu</w>": 8226,
      "EUA,</w>": 8227,
      "muçulman": 8228,
      "subtraímos</w>": 8229,
      "deriv": 8230,
      "factu": 8231,
      "satisfeito</w>": 8232,
      "imente</w>": 8233,
      "escapar</w>": 8234,
      "pacotes</w>": 8235,
      "veria</w>": 8236,
      "ficção</w>": 8237,
      "contradi": 8238,
      "Camb": 8239,
      "molh": 8240,
      "sa,</w>": 8241,
      "Tem</w>": 8242,
      "ize</w>": 8243,
      "móveis</w>": 8244,
      "seguros</w>": 8245,
      "dirigir</w>": 8246,
      "Henry</w>": 8247,
      "tripl": 8248,
      "Liv": 8249,
      "gerais</w>": 8250,
      "estará</w>": 8251,
      "discute</w>": 8252,
      "rib": 8253,
      "!!": 8254,
      "afirmando</w>": 8255,
      "Net": 8256,
      "cm</w>": 8257,
      "ólica</w>": 8258,
      "agora,</w>": 8259,
      "Sho": 8260,
      "acionais</w>": 8261,
      "artes</w>": 8262,
      "preservar</w>": 8263,
      "Extraia</w>": 8264,
      "Quin": 8265,
      "frases,</w>": 8266,
      "celular</w>": 8267,
      "salário</w>": 8268,
      "imagin": 8269,
      ".00": 8270,
      "vas</w>": 8271,
      "moradores</w>": 8272,
      "heres</w>": 8273,
      "recipiente</w>": 8274,
      "restrições</w>": 8275,
      "Kan": 8276,
      "cérebro</w>": 8277,
      "The": 8278,
      "Aer": 8279,
      "fórmula</w>": 8280,
      "acia</w>": 8281,
      "National</w>": 8282,
      "bateri": 8283,
      "(1).</w>": 8284,
      "Sw": 8285,
      "ez</w>": 8286,
      "empresa.</w>": 8287,
      "protagon": 8288,
      "beber</w>": 8289,
      "pertence</w>": 8290,
      "vírgul": 8291,
      "cura</w>": 8292,
      "políci": 8293,
      "ão\".</w>": 8294,
      "leitura</w>": 8295,
      "convidados</w>": 8296,
      "filtr": 8297,
      "baseadas</w>": 8298,
      "arred": 8299,
      "ajudando</w>": 8300,
      "Vol": 8301,
      "inda</w>": 8302,
      "apresentou</w>": 8303,
      "visualmente</w>": 8304,
      "\"F": 8305,
      "desesper": 8306,
      "falh": 8307,
      "fáceis</w>": 8308,
      "títulos</w>": 8309,
      "proteínas</w>": 8310,
      "as-": 8311,
      "antigos</w>": 8312,
      "tos,</w>": 8313,
      "seguido</w>": 8314,
      "dinâmica</w>": 8315,
      "alto": 8316,
      "arroz</w>": 8317,
      "promovendo</w>": 8318,
      "discussão</w>": 8319,
      "possuem</w>": 8320,
      "estúdio</w>": 8321,
      "up</w>": 8322,
      "que:</w>": 8323,
      "Nas": 8324,
      "lâmp": 8325,
      "folh": 8326,
      "música.</w>": 8327,
      "ri</w>": 8328,
      "3333": 8329,
      "diferentes,</w>": 8330,
      "aprendeu</w>": 8331,
      "perfeita</w>": 8332,
      "deus</w>": 8333,
      "despesas</w>": 8334,
      "veículo</w>": 8335,
      "X,</w>": 8336,
      "mut": 8337,
      "chei": 8338,
      "Twit": 8339,
      "placa</w>": 8340,
      "textura</w>": 8341,
      "rebel": 8342,
      "introdução</w>": 8343,
      "cado</w>": 8344,
      "autoridade</w>": 8345,
      "ung</w>": 8346,
      "leitor</w>": 8347,
      "reduz</w>": 8348,
      "Dire": 8349,
      "gros": 8350,
      "plena</w>": 8351,
      "gh</w>": 8352,
      "pronto</w>": 8353,
      "intern": 8354,
      "riv": 8355,
      "frases.</w>": 8356,
      "\"In": 8357,
      "tópicos</w>": 8358,
      "biblioteca</w>": 8359,
      "alidades</w>": 8360,
      "dedi": 8361,
      "Jogos</w>": 8362,
      "re-se</w>": 8363,
      "pesquisadores</w>": 8364,
      "cozinhar</w>": 8365,
      "cy</w>": 8366,
      "palavras:</w>": 8367,
      "agência</w>": 8368,
      "anúncios</w>": 8369,
      "recep": 8370,
      "Lad": 8371,
      "valid": 8372,
      "gradualmente</w>": 8373,
      "legum": 8374,
      "anteci": 8375,
      "ar.": 8376,
      "Lim": 8377,
      "adivinh": 8378,
      "extra</w>": 8379,
      "wbo": 8380,
      "substant": 8381,
      "wns</w>": 8382,
      "cido</w>": 8383,
      "solo,</w>": 8384,
      "dão</w>": 8385,
      "Max</w>": 8386,
      "35": 8387,
      "mata</w>": 8388,
      "crença</w>": 8389,
      "segundos</w>": 8390,
      "cobrir</w>": 8391,
      "criaturas</w>": 8392,
      "cál": 8393,
      "forno</w>": 8394,
      "Not": 8395,
      "Caf": 8396,
      "cio</w>": 8397,
      "ster": 8398,
      "apre": 8399,
      "apropriado</w>": 8400,
      "gerações</w>": 8401,
      "morte.</w>": 8402,
      "ecológ": 8403,
      "cardíac": 8404,
      "atendimento</w>": 8405,
      "grafo:</w>": 8406,
      "tilidade</w>": 8407,
      "anteced": 8408,
      "vemos</w>": 8409,
      "O'": 8410,
      "p.</w>": 8411,
      "deixado</w>": 8412,
      "om</w>": 8413,
      "compreens": 8414,
      "Tony</w>": 8415,
      "lemb": 8416,
      "ativo,</w>": 8417,
      "km</w>": 8418,
      "(H": 8419,
      "mil</w>": 8420,
      "ho.</w>": 8421,
      "senhora</w>": 8422,
      "ter,</w>": 8423,
      "abaixo:</w>": 8424,
      "Porque</w>": 8425,
      "\"É</w>": 8426,
      "Forne": 8427,
      "Bem,</w>": 8428,
      "Ilha</w>": 8429,
      "acompanhar</w>": 8430,
      "monitor": 8431,
      "\"H": 8432,
      "Processo:</w>": 8433,
      "destacar</w>": 8434,
      "ligação</w>": 8435,
      "eu.</w>": 8436,
      "poderes</w>": 8437,
      "domínio</w>": 8438,
      "musicais</w>": 8439,
      "anteriores</w>": 8440,
      "domés": 8441,
      "duro</w>": 8442,
      "Ven": 8443,
      "//": 8444,
      "causas</w>": 8445,
      "pesca</w>": 8446,
      "fundad": 8447,
      "resiliência</w>": 8448,
      "Inclu": 8449,
      "cenas</w>": 8450,
      "selecionar</w>": 8451,
      "ril": 8452,
      "Resumir</w>": 8453,
      "pensou</w>": 8454,
      "iluminação</w>": 8455,
      "ênfase</w>": 8456,
      "31</w>": 8457,
      "encaix": 8458,
      "natural.</w>": 8459,
      "Din": 8460,
      "extensão</w>": 8461,
      "comédia</w>": 8462,
      "Teste</w>": 8463,
      "adeira</w>": 8464,
      "estudante</w>": 8465,
      "frequent": 8466,
      "resulta</w>": 8467,
      "Wat": 8468,
      "tocando</w>": 8469,
      "canto</w>": 8470,
      "bia</w>": 8471,
      "zas</w>": 8472,
      "Ofer": 8473,
      "pur": 8474,
      "ouvido</w>": 8475,
      "períod": 8476,
      "u-se</w>": 8477,
      "osas.</w>": 8478,
      "adaptar</w>": 8479,
      "as?": 8480,
      "dissol": 8481,
      "difíceis</w>": 8482,
      "D)</w>": 8483,
      "sia,</w>": 8484,
      "aspir": 8485,
      "indo.</w>": 8486,
      "eletricidade</w>": 8487,
      "ness</w>": 8488,
      "atitu": 8489,
      "chamou</w>": 8490,
      "dificult": 8491,
      "ense</w>": 8492,
      "bateria</w>": 8493,
      "prestes</w>": 8494,
      "Tim</w>": 8495,
      "morr": 8496,
      "passado.</w>": 8497,
      "capitão</w>": 8498,
      "(E": 8499,
      "desculp": 8500,
      "Super": 8501,
      "quentes</w>": 8502,
      "agências</w>": 8503,
      "prazer</w>": 8504,
      "administração</w>": 8505,
      "produzido</w>": 8506,
      "vítimas</w>": 8507,
      "(c": 8508,
      "recebem</w>": 8509,
      "”.</w>": 8510,
      "dura</w>": 8511,
      "atletas</w>": 8512,
      "palavras,</w>": 8513,
      "pessoa,</w>": 8514,
      "estabeleceu</w>": 8515,
      "linh": 8516,
      "Forneça</w>": 8517,
      "in.</w>": 8518,
      "mart": 8519,
      "(L": 8520,
      "Park</w>": 8521,
      "bebida</w>": 8522,
      "alimentares</w>": 8523,
      "turnê</w>": 8524,
      "Pass": 8525,
      "Manch": 8526,
      "mobil": 8527,
      "vendido</w>": 8528,
      "saiu</w>": 8529,
      "estade</w>": 8530,
      "ândia</w>": 8531,
      "\"C": 8532,
      "conter</w>": 8533,
      "pensa</w>": 8534,
      "raízes</w>": 8535,
      "man,</w>": 8536,
      "Incent": 8537,
      "cau": 8538,
      "en.</w>": 8539,
      "estivesse</w>": 8540,
      "direit": 8541,
      "vín": 8542,
      "izada</w>": 8543,
      "quiser</w>": 8544,
      "ângulo</w>": 8545,
      "aumentou</w>": 8546,
      "adolescentes</w>": 8547,
      "zo": 8548,
      "situação:</w>": 8549,
      "núcleo</w>": 8550,
      "namorada</w>": 8551,
      "indiretamente</w>": 8552,
      "acessar</w>": 8553,
      "Smith</w>": 8554,
      "científica</w>": 8555,
      "canais</w>": 8556,
      "construção,</w>": 8557,
      "adicione</w>": 8558,
      "expandir</w>": 8559,
      "diminuir</w>": 8560,
      "class": 8561,
      "rios</w>": 8562,
      "vencedor</w>": 8563,
      "Nick</w>": 8564,
      "Steph": 8565,
      "fili": 8566,
      "reflet": 8567,
      "circund": 8568,
      "haviam</w>": 8569,
[...]
