{
  "version": "1.0",
  "truncation": null,
  "padding": {
    "strategy": "BatchLongest",
    "direction": "Right",
    "pad_to_multiple_of": null,
    "pad_id": 1,
    "pad_type_id": 0,
    "pad_token": "[PAD]"
  },
  "added_tokens": [
    {
      "id": 0,
      "content": "[UNK]",
      "single_word": false,
      "lstrip": false,
      "rstrip": false,
      "normalized": false,
      "special": true
    },
    {
      "id": 1,
      "content": "[PAD]",
      "single_word": false,
      "lstrip": false,
      "rstrip": false,
      "normalized": false,
      "special": true
    },
    {
      "id": 2,
      "content": "[EOS]",
      "single_word": false,
      "lstrip": false,
      "rstrip": false,
      "normalized": false,
      "special": true
    }
  ],
  "normalizer": null,
  "pre_tokenizer": {
    "type": "Whitespace"
  },
  "post_processor": null,
  "decoder": null,
  "model": {
    "type": "BPE",
    "dropout": null,
    "unk_token": "[UNK]",
    "continuing_subword_prefix": null,
    "end_of_word_suffix": null,
    "fuse_unk": false,
    "byte_fallback": false,
    "ignore_merges": false,
    "vocab": {
      "[UNK]": 0,
      "[PAD]": 1,
      "[EOS]": 2,
      "\u0014": 3,
      "!": 4,
      "\"": 5,
      "#": 6,
      "$": 7,
      "%": 8,
      "&": 9,
      "'": 10,
      "(": 11,
      ")": 12,
      "*": 13,
      "+": 14,
      ",": 15,
      "-": 16,
      ".": 17,
      "/": 18,
      "0": 19,
      "1": 20,
      "2": 21,
      "3": 22,
      "4": 23,
      "5": 24,
      "6": 25,
      "7": 26,
      "8": 27,
      "9": 28,
      ":": 29,
      ";": 30,
      "<": 31,
      "=": 32,
      ">": 33,
      "?": 34,
      "@": 35,
      "A": 36,
      "B": 37,
      "C": 38,
      "D": 39,
      "E": 40,
      "F": 41,
      "G": 42,
      "H": 43,
      "I": 44,
      "J": 45,
      "K": 46,
      "L": 47,
      "M": 48,
      "N": 49,
      "O": 50,
      "P": 51,
      "Q": 52,
      "R": 53,
      "S": 54,
      "T": 55,
      "U": 56,
      "V": 57,
      "W": 58,
      "X": 59,
      "Y": 60,
      "Z": 61,
      "[": 62,
      "\\": 63,
      "]": 64,
      "^": 65,
      "_": 66,
      "`": 67,
      "a": 68,
      "b": 69,
      "c": 70,
      "d": 71,
      "e": 72,
      "f": 73,
      "g": 74,
      "h": 75,
      "i": 76,
      "j": 77,
      "k": 78,
      "l": 79,
      "m": 80,
      "n": 81,
      "o": 82,
      "p": 83,
      "q": 84,
      "r": 85,
      "s": 86,
      "t": 87,
      "u": 88,
      "v": 89,
      "w": 90,
      "x": 91,
      "y": 92,
      "z": 93,
      "{": 94,
      "|": 95,
      "}": 96,
      "~": 97,
      "¡": 98,
      "¢": 99,
      "£": 100,
      "¤": 101,
      "¥": 102,
      "§": 103,
      "©": 104,
      "ª": 105,
      "«": 106,
      "­": 107,
      "®": 108,
      "°": 109,
      "±": 110,
      "²": 111,
      "³": 112,
      "µ": 113,
      "·": 114,
      "º": 115,
      "»": 116,
      "¼": 117,
      "½": 118,
      "¾": 119,
      "¿": 120,
      "À": 121,
      "Á": 122,
      "Â": 123,
      "Ã": 124,
      "Ä": 125,
      "Å": 126,
      "Ç": 127,
      "É": 128,
      "Ê": 129,
      "Í": 130,
      "Î": 131,
      "Ñ": 132,
      "Ó": 133,
      "Ô": 134,
      "Õ": 135,
      "Ö": 136,
      "×": 137,
      "Ø": 138,
      "Ú": 139,
      "Ü": 140,
      "Þ": 141,
      "ß": 142,
      "à": 143,
      "á": 144,
      "â": 145,
      "ã": 146,
      "ä": 147,
      "å": 148,
      "æ": 149,
      "ç": 150,
      "è": 151,
      "é": 152,
      "ê": 153,
      "ë": 154,
      "ì": 155,
      "í": 156,
      "î": 157,
      "ï": 158,
      "ð": 159,
      "ñ": 160,
      "ò": 161,
      "ó": 162,
      "ô": 163,
      "õ": 164,
      "ö": 165,
      "÷": 166,
      "ø": 167,
      "ù": 168,
      "ú": 169,
      "de": 170,
      "es": 171,
      "ra": 172,
      "nt": 173,
      "os": 174,
      "as": 175,
      "co": 176,
      "er": 177,
      "do": 178,
      "da": 179,
      "ma": 180,
      "re": 181,
      "qu": 182,
      "ta": 183,
      "is": 184,
      "ão": 185,
      "ent": 186,
      "or": 187,
      "em": 188,
      "in": 189,
      "pa": 190,
      "ca": 191,
      "en": 192,
      "ia": 193,
      "se": 194,
      "que": 195,
      "al": 196,
      "com": 197,
      "el": 198,
      "ar": 199,
      "ro": 200,
      "ti": 201,
      "po": 202,
      "um": 203,
      "ci": 204,
      "so": 205,
      "to": 206,
      "ri": 207,
      "an": 208,
      "para": 209,
      "ção": 210,
      "ment": 211,
      "di": 212,
      "uma": 213,
      "na": 214,
      "res": 215,
      "gu": 216,
      "ou": 217,
      "te": 218,
      "no": 219,
      "li": 220,
      "su": 221,
      "fi": 222,
      "dos": 223,
      "la": 224,
      "sa": 225,
      "si": 226,
      "ha": 227,
      "con": 228,
      "on": 229,
      "va": 230,
      "ei": 231,
      "est": 232,
      "por": 233,
      "pro": 234,
      "vo": 235,
      "per": 236,
      "pos": 237,
      "vi": 238,
      "dade": 239,
      "le": 240,
      "ões": 241,
      "cia": 242,
      "nte": 243,
      "ve": 244,
      "lo": 245,
      "mente": 246,
      "tra": 247,
      "for": 248,
      "tu": 249,
      "cu": 250,
      "das": 251,
      "mo": 252,
      "pode": 253,
      "pe": 254,
      "am": 255,
      "ni": 256,
      "des": 257,
      "ho": 258,
      "us": 259,
      "ver": 260,
      "ex": 261,
      "não": 262,
      "pre": 263,
      "como": 264,
      "ções": 265,
      "du": 266,
      "ter": 267,
      "me": 268,
      "go": 269,
      "fo": 270,
      "mais": 271,
      "ce": 272,
      "lu": 273,
      "ria": 274,
      "ga": 275,
      "fa": 276,
      "ne": 277,
      "ando": 278,
      "ser": 279,
      "mu": 280,
      "ant": 281,
      "ça": 282,
      "mento": 283,
      "im": 284,
      "tem": 285,
      "cont": 286,
      "ir": 287,
      "cas": 288,
      "esta": 289,
      "tos": 290,
      "ram": 291,
      "ele": 292,
      "sua": 293,
      "nta": 294,
      "fica": 295,
      "ndo": 296,
      "bre": 297,
      "segu": 298,
      "vel": 299,
      "seu": 300,
      "cor": 301,
      "são": 302,
      "tor": 303,
      "ente": 304,
      "he": 305,
      "par": 306,
      "ras": 307,
      "cê": 308,
      "esso": 309,
      "Es": 310,
      "tr": 311,
      "posta": 312,
      "mi": 313,
      "ári": 314,
      "za": 315,
      "bi": 316,
      "tas": 317,
      "bo": 318,
      "sobre": 319,
      "pres": 320,
      "forma": 321,
      "ên": 322,
      "min": 323,
      "fer": 324,
      "cio": 325,
      "rar": 326,
      "mos": 327,
      "ela": 328,
      "Co": 329,
      "lh": 330,
      "un": 331,
      "dis": 332,
      "ém": 333,
      "ran": 334,
      "está": 335,
      "mas": 336,
      "at": 337,
      "gunta": 338,
      "car": 339,
      "00": 340,
      "tar": 341,
      "cer": 342,
      "pi": 343,
      "pri": 344,
      "ju": 345,
      "vis": 346,
      "men": 347,
      "cos": 348,
      "ao": 349,
      "ina": 350,
      "gi": 351,
      "pen": 352,
      "pr": 353,
      "ch": 354,
      "ns": 355,
      "int": 356,
      "ba": 357,
      "foi": 358,
      "ess": 359,
      "anto": 360,
      "você": 361,
      "tes": 362,
      "pas": 363,
      "ul": 364,
      "ge": 365,
      "entes": 366,
      "qui": 367,
      "ru": 368,
      "nos": 369,
      "ali": 370,
      "gem": 371,
      "ência": 372,
      "\".": 373,
      "pesso": 374,
      "tal": 375,
      "mb": 376,
      "cul": 377,
      "pon": 378,
      "gra": 379,
      "Qu": 380,
      "tura": 381,
      "cion": 382,
      "pergunta": 383,
      "jo": 384,
      "estão": 385,
      "vol": 386,
      "dia": 387,
      "der": 388,
      "ciona": 389,
      "fra": 390,
      "ten": 391,
      "bal": 392,
      "ros": 393,
      "mei": 394,
      "cial": 395,
      "ntes": 396,
      "indo": 397,
      "mui": 398,
      "mes": 399,
      "pel": 400,
      "cha": 401,
      "enta": 402,
      "resposta": 403,
      "espe": 404,
      "ist": 405,
      "ix": 406,
      "dor": 407,
      "fil": 408,
      "mis": 409,
      "les": 410,
      "faz": 411,
      "ob": 412,
      "eles": 413,
      "vez": 414,
      "mer": 415,
      "segui": 416,
      "pó": 417,
      "man": 418,
      "endo": 419,
      "seus": 420,
      "Res": 421,
      "clu": 422,
      "ja": 423,
      "ig": 424,
      "nto": 425,
      "be": 426,
      "tiva": 427,
      "No": 428,
      "il": 429,
      "cre": 430,
      "pli": 431,
      "informa": 432,
      "gar": 433,
      "fe": 434,
      "Em": 435,
      "As": 436,
      "dades": 437,
      "ab": 438,
      "dar": 439,
      "podem": 440,
      "tiv": 441,
      "hi": 442,
      "tivo": 443,
      "tamb": 444,
      "ing": 445,
      "mar": 446,
      "mel": 447,
      "forne": 448,
      "também": 449,
      "eu": 450,
      "cis": 451,
      "ol": 452,
      "frase": 453,
      "bas": 454,
      "quer": 455,
      "Por": 456,
      "ível": 457,
      "cl": 458,
      "sent": 459,
      "quanto": 460,
      "ração": 461,
      "veis": 462,
      "sig": 463,
      "sem": 464,
      "nas": 465,
      "fei": 466,
      "cada": 467,
      "trabal": 468,
      "19": 469,
      "pl": 470,
      "ário": 471,
      "cria": 472,
      "fin": 473,
      "ço": 474,
      "ior": 475,
      "entre": 476,
      "tro": 477,
      "cal": 478,
      "ças": 479,
      "tri": 480,
      "primei": 481,
      "suas": 482,
      "Pa": 483,
      "aju": 484,
      "rela": 485,
      ").": 486,
      "ral": 487,
      "envol": 488,
      "este": 489,
      "pois": 490,
      "ven": 491,
      "Se": 492,
      "Os": 493,
      "inha": 494,
      "pu": 495,
      "ários": 496,
      "op": 497,
      "mentos": 498,
      "tempo": 499,
      "je": 500,
      "parti": 501,
      "ck": 502,
      "posi": 503,
      "encont": 504,
      "De": 505,
      "corre": 506,
      "Resposta": 507,
      "uni": 508,
      "ais": 509,
      "dent": 510,
      "produ": 511,
      "rante": 512,
      "esti": 513,
      "gan": 514,
      "respon": 515,
      "nifica": 516,
      "cidade": 517,
      "inter": 518,
      "ável": 519,
      "tros": 520,
      "ado": 521,
      "Al": 522,
      "ação": 523,
      "col": 524,
      "conte": 525,
      "cons": 526,
      "hor": 527,
      "pessoas": 528,
      "sim": 529,
      "val": 530,
      "cri": 531,
      "lí": 532,
      "cesso": 533,
      "xto": 534,
      "significa": 535,
      "pes": 536,
      "fun": 537,
      "20": 538,
      "seguinte": 539,
      "gua": 540,
      "mem": 541,
      "úmer": 542,
      "diz": 543,
      "gen": 544,
      "ada": 545,
      "Esta": 546,
      "porta": 547,
      "informações": 548,
      "bri": 549,
      "alg": 550,
      "cí": 551,
      "gos": 552,
      "base": 553,
      "dores": 554,
      "usa": 555,
      "Ele": 556,
      "rece": 557,
      "conhe": 558,
      "almente": 559,
      "tica": 560,
      "anos": 561,
      "gia": 562,
      "vida": 563,
      "eiro": 564,
      "filme": 565,
      "ber": 566,
      "quando": 567,
      "via": 568,
      "inclu": 569,
      "Is": 570,
      "comp": 571,
      "ins": 572,
      "fí": 573,
      "plica": 574,
      "ass": 575,
      "vem": 576,
      "precis": 577,
      "ença": 578,
      "dire": 579,
      "númer": 580,
      "au": 581,
      "lar": 582,
      "muito": 583,
      "bem": 584,
      "pla": 585,
      "isso": 586,
      "ad": 587,
      "var": 588,
      "cipa": 589,
      "bili": 590,
      "tamente": 591,
      "visão": 592,
      "ista": 593,
      "pela": 594,
      "Vo": 595,
      "Per": 596,
      "cent": 597,
      "ima": 598,
      "ino": 599,
      "tese": 600,
      "difer": 601,
      "pótese": 602,
      "missa": 603,
      "Re": 604,
      "peri": 605,
      "rada": 606,
      "Você": 607,
      "fu": 608,
      "cla": 609,
      "bu": 610,
      "ân": 611,
      "óri": 612,
      "fre": 613,
      "Com": 614,
      "Um": 615,
      "és": 616,
      "cias": 617,
      "número": 618,
      "liza": 619,
      "algu": 620,
      "ira": 621,
      "ida": 622,
      "Eu": 623,
      "idade": 624,
      "ger": 625,
      "Não": 626,
      "pelo": 627,
      "\",": 628,
      "tapa": 629,
      "estava": 630,
      "ís": 631,
      "plo": 632,
      "Como": 633,
      "termin": 634,
      "gora": 635,
      "melhor": 636,
      "fal": 637,
      "fazer": 638,
      "Para": 639,
      "Con": 640,
      "tou": 641,
      "lon": 642,
      "outros": 643,
      "indi": 644,
      "come": 645,
      "loca": 646,
      "prin": 647,
      "trans": 648,
      "ac": 649,
      "ciais": 650,
      "sos": 651,
      "ticas": 652,
      "equi": 653,
      "har": 654,
      "experi": 655,
      "gran": 656,
      "ine": 657,
      "atra": 658,
      "cur": 659,
      "total": 660,
      "hist": 661,
      "água": 662,
      "rado": 663,
      "tado": 664,
      "casa": 665,
      "mé": 666,
      "vent": 667,
      "Etapa": 668,
      "vor": 669,
      "poss": 670,
      "qual": 671,
      "ços": 672,
      "outra": 673,
      "tru": 674,
      "ória": 675,
      "pró": 676,
      "ument": 677,
      "hipótese": 678,
      "che": 679,
      "..": 680,
      "premissa": 681,
      "amos": 682,
      "io": 683,
      "todos": 684,
      "ás": 685,
      "Isso": 686,
      "ces": 687,
      "torn": 688,
      "maior": 689,
      "ficar": 690,
      "10": 691,
      "ide": 692,
      "ano": 693,
      "cional": 694,
      "algum": 695,
      "principa": 696,
      "enquanto": 697,
      "lher": 698,
      "Uma": 699,
      "bli": 700,
      "tre": 701,
      "Pergunta": 702,
      "mor": 703,
      "cimento": 704,
      "era": 705,
      "lia": 706,
      "rá": 707,
      "entanto": 708,
      "geral": 709,
      "can": 710,
      "ví": 711,
      "pan": 712,
      "sub": 713,
      "onde": 714,
      "durante": 715,
      "tivos": 716,
      "asso": 717,
      "eira": 718,
      "passo": 719,
      "Na": 720,
      "et": 721,
      "ês": 722,
      "íveis": 723,
      "inh": 724,
      "lti": 725,
      "trabalho": 726,
      "éri": 727,
      "rou": 728,
      "penas": 729,
      "ris": 730,
      "há": 731,
      "cli": 732,
      "gas": 733,
      "son": 734,
      "mesmo": 735,
      "iz": 736,
      "senti": 737,
      "sal": 738,
      "lan": 739,
      "Eles": 740,
      "ban": 741,
      "antes": 742,
      "tanto": 743,
      "até": 744,
      "arti": 745,
      "side": 746,
      "lha": 747,
      "mant": 748,
      "),": 749,
      "chama": 750,
      "ências": 751,
      "th": 752,
      "fere": 753,
      "foram": 754,
      "cam": 755,
      "depois": 756,
      "êm": 757,
      "ini": 758,
      "primeiro": 759,
      "cido": 760,
      "lav": 761,
      "apenas": 762,
      "favor": 763,
      "esco": 764,
      "passa": 765,
      "dois": 766,
      "possível": 767,
      "las": 768,
      "então": 769,
      "US": 770,
      "podemos": 771,
      "adi": 772,
      "alguns": 773,
      "isa": 774,
      "iza": 775,
      "disso": 776,
      "cus": 777,
      "vas": 778,
      "contexto": 779,
      "Uni": 780,
      "pare": 781,
      "Mar": 782,
      "cess": 783,
      "ntos": 784,
      "In": 785,
      "rando": 786,
      "rea": 787,
      "vos": 788,
      "leva": 789,
      "duas": 790,
      "palav": 791,
      "tores": 792,
      "fam": 793,
      "vezes": 794,
      "sis": 795,
      "revisão": 796,
      "los": 797,
      "pra": 798,
      "inda": 799,
      "processo": 800,
      "menos": 801,
      "opções": 802,
      "contra": 803,
      "empres": 804,
      "huma": 805,
      "grande": 806,
      "Su": 807,
      "cios": 808,
      "verdade": 809,
      "rança": 810,
      "poderia": 811,
      "aos": 812,
      "An": 813,
      "má": 814,
      "ntas": 815,
      "polí": 816,
      "porque": 817,
      "liv": 818,
      "árias": 819,
      "bora": 820,
      "Jo": 821,
      "tinha": 822,
      "nça": 823,
      "Ent": 824,
      "st": 825,
      "homem": 826,
      "deix": 827,
      "desenvol": 828,
      "parte": 829,
      "encontrar": 830,
      "estu": 831,
      "Qual": 832,
      "tivas": 833,
      "áveis": 834,
      "desco": 835,
      "nças": 836,
      "duz": 837,
      "importa": 838,
      "bilidade": 839,
      "ica": 840,
      "comuni": 841,
      "vido": 842,
      "mú": 843,
      "fir": 844,
      "ajudar": 845,
      "história": 846,
      "capa": 847,
      "têm": 848,
      "baix": 849,
      "nome": 850,
      "pul": 851,
      "nda": 852,
      "resul": 853,
      "dem": 854,
      "ur": 855,
      "ál": 856,
      "pessoa": 857,
      "vés": 858,
      "fici": 859,
      "usar": 860,
      "gens": 861,
      "denti": 862,
      "vesti": 863,
      "bro": 864,
      "algumas": 865,
      "dizer": 866,
      "esse": 867,
      "comple": 868,
      "apo": 869,
      "bar": 870,
      "ag": 871,
      "desa": 872,
      "tico": 873,
      "lugar": 874,
      "ambi": 875,
      "Le": 876,
      "vimento": 877,
      "200": 878,
      "dio": 879,
      "dados": 880,
      "lhas": 881,
      "nio": 882,
      "ainda": 883,
      "En": 884,
      "diferentes": 885,
      "outras": 886,
      "deve": 887,
      "titu": 888,
      "ores": 889,
      "medi": 890,
      "ona": 891,
      "tí": 892,
      "sas": 893,
      "sica": 894,
      "nega": 895,
      "apre": 896,
      "quen": 897,
      "exem": 898,
      "tação": 899,
      "corpo": 900,
      "ener": 901,
      "conside": 902,
      "pac": 903,
      "té": 904,
      "especí": 905,
      "gru": 906,
      "Agora": 907,
      "primeira": 908,
      "pós": 909,
      "sar": 910,
      "sen": 911,
      "ido": 912,
      "mã": 913,
      "tando": 914,
      "decla": 915,
      "it": 916,
      "através": 917,
      "event": 918,
      "aument": 919,
      "cr": 920,
      "tóri": 921,
      "estar": 922,
      "feito": 923,
      "lado": 924,
      "inu": 925,
      "flu": 926,
      "fia": 927,
      "Ex": 928,
      "hos": 929,
      "às": 930,
      "essa": 931,
      "usão": 932,
      "principal": 933,
      "disse": 934,
      "determin": 935,
      "lem": 936,
      "15": 937,
      "relaciona": 938,
      "dada": 939,
      "Passo": 940,
      "tema": 941,
      "teria": 942,
      "pequen": 943,
      "cação": 944,
      "artigo": 945,
      "ição": 946,
      "servi": 947,
      "colha": 948,
      "Sim": 949,
      "cres": 950,
      "organ": 951,
      "emo": 952,
      "erra": 953,
      "muitas": 954,
      "12": 955,
      "Este": 956,
      "pera": 957,
      "minu": 958,
      "impac": 959,
      "alidade": 960,
      "úde": 961,
      "rant": 962,
      "mulher": 963,
      "fornecer": 964,
      "Portanto": 965,
      "resta": 966,
      "aliza": 967,
      "quant": 968,
      "úbli": 969,
      "18": 970,
      "cei": 971,
      "mundo": 972,
      "Além": 973,
      "ajuda": 974,
      "obje": 975,
      "cular": 976,
      "ância": 977,
      "tão": 978,
      "ias": 979,
      "pec": 980,
      "tivi": 981,
      "ofere": 982,
      "necess": 983,
      "pé": 984,
      "apro": 985,
      "vários": 986,
      "bra": 987,
      "longo": 988,
      "públi": 989,
      "saúde": 990,
      "ton": 991,
      "muda": 992,
      "nova": 993,
      "incluindo": 994,
      "100": 995,
      "nica": 996,
      "To": 997,
      "qualquer": 998,
      "outro": 999,
      "Ela": 1000,
      "ade": 1001,
      "uso": 1002,
      "cida": 1003,
      "Ch": 1004,
      "jar": 1005,
      "elo": 1006,
      "The": 1007,
      "país": 1008,
      "permi": 1009,
      "cado": 1010,
      "tulo": 1011,
      "cen": 1012,
      "Pro": 1013,
      "prob": 1014,
      "famí": 1015,
      "questão": 1016,
      "cialmente": 1017,
      "garant": 1018,
      "seja": 1019,
      "energia": 1020,
      "cionais": 1021,
      "camin": 1022,
      "continu": 1023,
      "espa": 1024,
      "preen": 1025,
      "bol": 1026,
      "ise": 1027,
      "aplica": 1028,
      "tec": 1029,
      "menciona": 1030,
      "çar": 1031,
      "gover": 1032,
      "diver": 1033,
      "últi": 1034,
      "aci": 1035,
      "iar": 1036,
      "igos": 1037,
      "nor": 1038,
      "emente": 1039,
      "constru": 1040,
      "edade": 1041,
      "tare": 1042,
      "firma": 1043,
      "prof": 1044,
      "Quando": 1045,
      "palavras": 1046,
      "cil": 1047,
      "tivamente": 1048,
      "istas": 1049,
      "escri": 1050,
      "ani": 1051,
      "vou": 1052,
      "seria": 1053,
      "ógi": 1054,
      "clusão": 1055,
      "atu": 1056,
      "cou": 1057,
      "zar": 1058,
      "apres": 1059,
      "dentro": 1060,
      "todo": 1061,
      "Então": 1062,
      "acor": 1063,
      "gue": 1064,
      "ceu": 1065,
      "ribu": 1066,
      "ly": 1067,
      "texto": 1068,
      "super": 1069,
      "final": 1070,
      "investi": 1071,
      "equipe": 1072,
      "nu": 1073,
      "vamos": 1074,
      "poten": 1075,
      "caso": 1076,
      "declaração": 1077,
      "cultura": 1078,
      "esses": 1079,
      "pou": 1080,
      "específi": 1081,
      "responda": 1082,
      "bus": 1083,
      "local": 1084,
      "has": 1085,
      "xa": 1086,
      "ay": 1087,
      "experiência": 1088,
      "cem": 1089,
      "ficação": 1090,
      "lação": 1091,
      "mal": 1092,
      "gado": 1093,
      "Sent": 1094,
      "melho": 1095,
      "Ar": 1096,
      "papel": 1097,
      "hou": 1098,
      "50": 1099,
      "ito": 1100,
      "desta": 1101,
      "possa": 1102,
      "evi": 1103,
      "pei": 1104,
      "clas": 1105,
      "tent": 1106,
      "proje": 1107,
      "pergu": 1108,
      "Po": 1109,
      "lhe": 1110,
      "usu": 1111,
      "jogo": 1112,
      "dias": 1113,
      "situ": 1114,
      "Mo": 1115,
      "área": 1116,
      "tados": 1117,
      "tam": 1118,
      "pesqu": 1119,
      "Ro": 1120,
      "ry": 1121,
      "ane": 1122,
      "essas": 1123,
      "Ao": 1124,
      "xi": 1125,
      "difí": 1126,
      "sendo": 1127,
      "informação": 1128,
      "tir": 1129,
      "grupo": 1130,
      "sidade": 1131,
      "ts": 1132,
      "30": 1133,
      "torna": 1134,
      "turas": 1135,
      "enda": 1136,
      "importante": 1137,
      "depen": 1138,
      "dentificar": 1139,
      "ham": 1140,
      "sistema": 1141,
      "desem": 1142,
      "vai": 1143,
      "rem": 1144,
      "ticos": 1145,
      "três": 1146,
      "afirma": 1147,
      "grama": 1148,
      "ite": 1149,
      "apren": 1150,
      "Mi": 1151,
      "lin": 1152,
      "rin": 1153,
      "cionar": 1154,
      "ós": 1155,
      "ke": 1156,
      "000": 1157,
      "igo": 1158,
      "rei": 1159,
      "após": 1160,
      "Aqui": 1161,
      "fras": 1162,
      "parece": 1163,
      "inas": 1164,
      "xo": 1165,
      "ind": 1166,
      "nico": 1167,
      "várias": 1168,
      "conclu": 1169,
      "usando": 1170,
      "criar": 1171,
      "gor": 1172,
      "ações": 1173,
      "cara": 1174,
      "bele": 1175,
      "fora": 1176,
      "já": 1177,
      "reduz": 1178,
      "Sentença": 1179,
      "lei": 1180,
      "Da": 1181,
      "of": 1182,
      "lim": 1183,
      "natura": 1184,
      "família": 1185,
      "prote": 1186,
      "fas": 1187,
      "baixo": 1188,
      "ária": 1189,
      "correta": 1190,
      "precisa": 1191,
      "inal": 1192,
      "exemplo": 1193,
      "ement": 1194,
      "lhes": 1195,
      "ocu": 1196,
      "cro": 1197,
      "ens": 1198,
      "tur": 1199,
      "localiza": 1200,
      "quais": 1201,
      "iu": 1202,
      "produto": 1203,
      "isas": 1204,
      "descobri": 1205,
      "urante": 1206,
      "joga": 1207,
      "Ma": 1208,
      "responder": 1209,
      "só": 1210,
      "inheiro": 1211,
      "deu": 1212,
      "manter": 1213,
      "escre": 1214,
      "16": 1215,
      "acordo": 1216,
      "tipo": 1217,
      "sido": 1218,
      "frases": 1219,
      "posição": 1220,
      "orig": 1221,
      "tório": 1222,
      "segunda": 1223,
      "preço": 1224,
      "av": 1225,
      "recur": 1226,
      "rações": 1227,
      "Car": 1228,
      "cidas": 1229,
      "velmente": 1230,
      "lho": 1231,
      "ntar": 1232,
      "lhos": 1233,
      "desempen": 1234,
      "toma": 1235,
      "valor": 1236,
      "oo": 1237,
      "carre": 1238,
      "promo": 1239,
      "dado": 1240,
      "vídu": 1241,
      "teve": 1242,
      "visi": 1243,
      "Mas": 1244,
      "fri": 1245,
      "40": 1246,
      "suger": 1247,
      "umo": 1248,
      "Ja": 1249,
      "logia": 1250,
      "onal": 1251,
      "art": 1252,
      "abor": 1253,
      "indivídu": 1254,
      "ler": 1255,
      "descre": 1256,
      "aca": 1257,
      "Mu": 1258,
      "ene": 1259,
      "contro": 1260,
      "cho": 1261,
      "agora": 1262,
      "Depois": 1263,
      "cole": 1264,
      "amb": 1265,
      "dinheiro": 1266,
      "zes": 1267,
      "Joh": 1268,
      "damente": 1269,
      "Pre": 1270,
      "fornece": 1271,
      "dá": 1272,
      "devido": 1273,
      "afe": 1274,
      "bor": 1275,
      "amer": 1276,
      "and": 1277,
      "tecno": 1278,
      "ativi": 1279,
      "contribu": 1280,
      "gre": 1281,
      "segurança": 1282,
      "garantir": 1283,
      "novo": 1284,
      "tais": 1285,
      "lução": 1286,
      "Vamos": 1287,
      "procu": 1288,
      "culo": 1289,
      "tis": 1290,
      "música": 1291,
      "custo": 1292,
      "lá": 1293,
      "porte": 1294,
      "conta": 1295,
      "nen": 1296,
      "regu": 1297,
      "chamado": 1298,
      "san": 1299,
      "ocupa": 1300,
      "xima": 1301,
      "sufici": 1302,
      "dido": 1303,
      "impacto": 1304,
      "mostra": 1305,
      "empresa": 1306,
      "fl": 1307,
      "ambiente": 1308,
      "fel": 1309,
      "cru": 1310,
      "itos": 1311,
      "séri": 1312,
      "conse": 1313,
      "remo": 1314,
      "John": 1315,
      "volta": 1316,
      "conver": 1317,
      "...": 1318,
      "tarefa": 1319,
      "positivo": 1320,
      "ero": 1321,
      "estru": 1322,
      "deci": 1323,
      "one": 1324,
      "dente": 1325,
      "jus": 1326,
      "sentimento": 1327,
      "aten": 1328,
      "adequ": 1329,
      "sor": 1330,
      "cé": 1331,
      "aconte": 1332,
      "todas": 1333,
      "partir": 1334,
      "istem": 1335,
      "14": 1336,
      "ór": 1337,
      "Embora": 1338,
      "recebe": 1339,
      "ata": 1340,
      "prá": 1341,
      "levar": 1342,
      "arma": 1343,
      "cola": 1344,
      "25": 1345,
      "inte": 1346,
      "organiza": 1347,
      "opção": 1348,
      "pria": 1349,
      "oso": 1350,
      "aque": 1351,
      "pensa": 1352,
      "uti": 1353,
      "crianças": 1354,
      "are": 1355,
      "mana": 1356,
      "amigos": 1357,
      "assu": 1358,
      "classi": 1359,
      "muitos": 1360,
      "realmente": 1361,
      "sentença": 1362,
      "recursos": 1363,
      "den": 1364,
      "nada": 1365,
      "comum": 1366,
      "essen": 1367,
      "60": 1368,
      "algo": 1369,
      "lhar": 1370,
      "ons": 1371,
      "Ge": 1372,
      "acima": 1373,
      "ída": 1374,
      "gal": 1375,
      "Enquanto": 1376,
      "dida": 1377,
      "sona": 1378,
      "conclusão": 1379,
      "raz": 1380,
      "simp": 1381,
      "cuida": 1382,
      "pressão": 1383,
      "desenvolvimento": 1384,
      "tância": 1385,
      "mesma": 1386,
      "america": 1387,
      "concluir": 1388,
      "fez": 1389,
      "çou": 1390,
      "revis": 1391,
      "sul": 1392,
      "dir": 1393,
      "verdadeira": 1394,
      "ale": 1395,
      "comparti": 1396,
      "dro": 1397,
      "defin": 1398,
      "tele": 1399,
      "encia": 1400,
      "cel": 1401,
      "coisas": 1402,
      "regi": 1403,
      "rados": 1404,
      "horas": 1405,
      "Sa": 1406,
      "tan": 1407,
      "produz": 1408,
      "fique": 1409,
      "ismo": 1410,
      "público": 1411,
      "Gu": 1412,
      "ntu": 1413,
      "tamento": 1414,
      "noite": 1415,
      "Ra": 1416,
      "perto": 1417,
      "determinar": 1418,
      "cin": 1419,
      "persona": 1420,
      "quar": 1421,
      "meio": 1422,
      "Estados": 1423,
      "tá": 1424,
      "simples": 1425,
      "vendo": 1426,
      "pouco": 1427,
      "comida": 1428,
      "sucesso": 1429,
      "grafo": 1430,
      "sur": 1431,
      "tada": 1432,
      "credi": 1433,
      "chu": 1434,
      "cle": 1435,
      "força": 1436,
      "estre": 1437,
      "situação": 1438,
      "bom": 1439,
      "posso": 1440,
      "repres": 1441,
      "compreen": 1442,
      "profis": 1443,
      "dou": 1444,
      "mí": 1445,
      "tornar": 1446,
      "sol": 1447,
      "Di": 1448,
      "gação": 1449,
      "sempre": 1450,
      "17": 1451,
      "atro": 1452,
      "tel": 1453,
      "eram": 1454,
      "pará": 1455,
      "chave": 1456,
      "estabele": 1457,
      "estra": 1458,
      "pai": 1459,
      "implica": 1460,
      "condi": 1461,
      "ard": 1462,
      "Pe": 1463,
      "meu": 1464,
      "gou": 1465,
      "caix": 1466,
      "escolha": 1467,
      "mão": 1468,
      "mon": 1469,
      "jam": 1470,
      "II": 1471,
      "plos": 1472,
      "minutos": 1473,
      "obter": 1474,
      "ses": 1475,
      "carro": 1476,
      "edu": 1477,
      "Ne": 1478,
      "deira": 1479,
      "recom": 1480,
      "ér": 1481,
      "pontos": 1482,
      "relação": 1483,
      "decis": 1484,
      "funcion": 1485,
      "ár": 1486,
      "ício": 1487,
      "minha": 1488,
      "enfre": 1489,
      "prova": 1490,
      "começa": 1491,
      "parar": 1492,
      "lemas": 1493,
      "influ": 1494,
      "Unidos": 1495,
      "centa": 1496,
      "mode": 1497,
      "culos": 1498,
      "principais": 1499,
      "comer": 1500,
      "alguém": 1501,
      "exi": 1502,
      "seguida": 1503,
      "devem": 1504,
      "Dada": 1505,
      "ori": 1506,
      "produtos": 1507,
      "trás": 1508,
      "\\)": 1509,
      "alis": 1510,
      "governo": 1511,
      "série": 1512,
      "campo": 1513,
      "semana": 1514,
      "conhecido": 1515,
      "sob": 1516,
      "sões": 1517,
      "enças": 1518,
      "mental": 1519,
      "Ca": 1520,
      "her": 1521,
      "amigo": 1522,
      "fá": 1523,
      "ados": 1524,
      "subs": 1525,
      "bilidades": 1526,
      "conf": 1527,
      "causa": 1528,
      "id": 1529,
      "Do": 1530,
      "mãe": 1531,
      "Des": 1532,
      "colo": 1533,
      "resol": 1534,
      "animais": 1535,
      "alguma": 1536,
      "cendo": 1537,
      "aplicativo": 1538,
      "materia": 1539,
      "intes": 1540,
      "prog": 1541,
      "problemas": 1542,
      "natural": 1543,
      "empre": 1544,
      "amente": 1545,
      "?\"": 1546,
      "pular": 1547,
      "anima": 1548,
      "apresenta": 1549,
      "UA": 1550,
      "13": 1551,
      "plane": 1552,
      "Escre": 1553,
      "alun": 1554,
      "programa": 1555,
      "enten": 1556,
      "reg": 1557,
      "torno": 1558,
      "alunos": 1559,
      "Identificar": 1560,
      "neces": 1561,
      "vando": 1562,
      "homen": 1563,
      "luz": 1564,
      "tarde": 1565,
      "finan": 1566,
      "hum": 1567,
      "aria": 1568,
      "neg": 1569,
      "nicas": 1570,
      "corri": 1571,
      "descri": 1572,
      "eiros": 1573,
      "vam": 1574,
      "comb": 1575,
      "descobrir": 1576,
      "profissi": 1577,
      "qualidade": 1578,
      "deta": 1579,
      "limi": 1580,
      "temas": 1581,
      "11": 1582,
      "melhorar": 1583,
      "ed": 1584,
      "tenta": 1585,
      "terra": 1586,
      "anter": 1587,
      "segundo": 1588,
      "históri": 1589,
      "EUA": 1590,
      "propri": 1591,
      "trabalha": 1592,
      "locais": 1593,
      "estado": 1594,
      "For": 1595,
      "talha": 1596,
      "nia": 1597,
      "cie": 1598,
      "capacidade": 1599,
      "199": 1600,
      "alta": 1601,
      "ítulo": 1602,
      "fazendo": 1603,
      "có": 1604,
      "explo": 1605,
      "parágrafo": 1606,
      "Fa": 1607,
      "ual": 1608,
      "abri": 1609,
      "cente": 1610,
      "seguintes": 1611,
      "ocorre": 1612,
      "ame": 1613,
      "ío": 1614,
      "própri": 1615,
      "maneira": 1616,
      "feliz": 1617,
      "livro": 1618,
      "estes": 1619,
      "detalhes": 1620,
      "pis": 1621,
      "Nor": 1622,
      "cando": 1623,
      "esfor": 1624,
      "empresas": 1625,
      "mica": 1626,
      "Ho": 1627,
      "lógi": 1628,
      "ley": 1629,
      "geralmente": 1630,
      "feitos": 1631,
      "auto": 1632,
      "ud": 1633,
      "fornecidas": 1634,
      "clientes": 1635,
      "médi": 1636,
      "gando": 1637,
      "sust": 1638,
      "dr": 1639,
      "aval": 1640,
      "cter": 1641,
      "Int": 1642,
      "anál": 1643,
      "semel": 1644,
      "quest": 1645,
      "Lo": 1646,
      "tante": 1647,
      "eiras": 1648,
      "desafi": 1649,
      "Respon": 1650,
      "Ri": 1651,
      "inos": 1652,
      "especi": 1653,
      "element": 1654,
      "reas": 1655,
      "ec": 1656,
      "indivíduos": 1657,
      "fé": 1658,
      "line": 1659,
      "Par": 1660,
      "inar": 1661,
      "diretamente": 1662,
      "Bo": 1663,
      "quantidade": 1664,
      "perguntas": 1665,
      "alto": 1666,
      "lema": 1667,
      "mou": 1668,
      "cate": 1669,
      "confor": 1670,
      "pesquisa": 1671,
      "dispon": 1672,
      "frequ": 1673,
      "autor": 1674,
      "tradi": 1675,
      "recu": 1676,
      "ill": 1677,
      "expres": 1678,
      "coisa": 1679,
      "\\]": 1680,
      "preocupa": 1681,
      "feira": 1682,
      "sociais": 1683,
      "portu": 1684,
      "ama": 1685,
      "popular": 1686,
      "crescimento": 1687,
      "Fo": 1688,
      "ecu": 1689,
      "Li": 1690,
      "perma": 1691,
      "Escolha": 1692,
      "tebol": 1693,
      "anterior": 1694,
      "escola": 1695,
      "perío": 1696,
      "gias": 1697,
      "So": 1698,
      "wn": 1699,
      "original": 1700,
      "desde": 1701,
      "fle": 1702,
      "idente": 1703,
      "coz": 1704,
      "satis": 1705,
      "funda": 1706,
      "aumento": 1707,
      "mentar": 1708,
      "propor": 1709,
      "tó": 1710,
      "usuário": 1711,
      "bio": 1712,
      "ena": 1713,
      "vação": 1714,
      "redo": 1715,
      "deste": 1716,
      "quem": 1717,
      "Escreva": 1718,
      "brar": 1719,
      "figu": 1720,
      "rus": 1721,
      "dendo": 1722,
      "Título": 1723,
      "inação": 1724,
      "brin": 1725,
      "ner": 1726,
      "dução": 1727,
      "Me": 1728,
      "Responda": 1729,
      "Lu": 1730,
      "ork": 1731,
      "uns": 1732,
      "vin": 1733,
      "apoio": 1734,
      "caracter": 1735,
      "aspec": 1736,
      "ase": 1737,
      "Pri": 1738,
      "divi": 1739,
      "cão": 1740,
      "efeito": 1741,
      "produção": 1742,
      "homens": 1743,
      "alcan": 1744,
      "Que": 1745,
      "tecnologia": 1746,
      "dão": 1747,
      "rápi": 1748,
      "análise": 1749,
      "taxa": 1750,
      "eventos": 1751,
      "compro": 1752,
      "ren": 1753,
      "encontra": 1754,
      "pelos": 1755,
      "plantas": 1756,
      "resultado": 1757,
      "capi": 1758,
      "bran": 1759,
      "iro": 1760,
      "jor": 1761,
      "álb": 1762,
      "paração": 1763,
      "estavam": 1764,
      "acredi": 1765,
      "início": 1766,
      "estrutura": 1767,
      "juntos": 1768,
      "Rs": 1769,
      "havia": 1770,
      "tenho": 1771,
      "evento": 1772,
      "Ou": 1773,
      "postas": 1774,
      "tin": 1775,
      "tido": 1776,
      "hora": 1777,
      "80": 1778,
      "we": 1779,
      "Nova": 1780,
      "lide": 1781,
      "cidos": 1782,
      "tornando": 1783,
      "estuda": 1784,
      "bene": 1785,
      "nível": 1786,
      "especifica": 1787,
      "nar": 1788,
      "Ba": 1789,
      "dé": 1790,
      "fru": 1791,
      "filho": 1792,
      "reduzir": 1793,
      "restaurante": 1794,
      "crí": 1795,
      "ído": 1796,
      "ty": 1797,
      "execu": 1798,
      "the": 1799,
      "cono": 1800,
      "esca": 1801,
      "resumo": 1802,
      "passagem": 1803,
      "alimentos": 1804,
      "La": 1805,
      "social": 1806,
      "tempera": 1807,
      "ie": 1808,
      "permane": 1809,
      "tudo": 1810,
      "quad": 1811,
      "fundo": 1812,
      "ín": 1813,
      "ture": 1814,
      "conteú": 1815,
      "popu": 1816,
      "assim": 1817,
      "aber": 1818,
      "rais": 1819,
      "real": 1820,
      "morte": 1821,
      "Ale": 1822,
      "poder": 1823,
      "ênio": 1824,
      "ôni": 1825,
      "positiva": 1826,
      "fatores": 1827,
      "def": 1828,
      "será": 1829,
      "reuni": 1830,
      "compe": 1831,
      "tornou": 1832,
      "nacional": 1833,
      "compan": 1834,
      "reconhe": 1835,
      "idos": 1836,
      "futebol": 1837,
      "indú": 1838,
      "significado": 1839,
      "oportu": 1840,
      "tável": 1841,
      "extra": 1842,
      "multi": 1843,
      "ph": 1844,
      "alisar": 1845,
      "lança": 1846,
      "zo": 1847,
      "cerca": 1848,
      "grandes": 1849,
      "perce": 1850,
      "áreas": 1851,
      "unca": 1852,
      "cab": 1853,
      "seguir": 1854,
      "ambos": 1855,
      "plicada": 1856,
      "aborda": 1857,
      "lista": 1858,
      "resolver": 1859,
      "istência": 1860,
      "espé": 1861,
      "ze": 1862,
      "bros": 1863,
      "obser": 1864,
      "gh": 1865,
      "rio": 1866,
      "título": 1867,
      "Sua": 1868,
      "aqui": 1869,
      "logo": 1870,
      "confia": 1871,
      "categor": 1872,
      "iam": 1873,
      "veu": 1874,
      "marca": 1875,
      "cap": 1876,
      "conteúdo": 1877,
      "novas": 1878,
      "palavra": 1879,
      "atividades": 1880,
      "adas": 1881,
      "comprar": 1882,
      "osa": 1883,
      "quatro": 1884,
      "vir": 1885,
      "jardas": 1886,
      "fim": 1887,
      "assunto": 1888,
      "jogos": 1889,
      "pção": 1890,
      "sé": 1891,
      "gum": 1892,
      "provavelmente": 1893,
      "habi": 1894,
      "esa": 1895,
      "mulheres": 1896,
      "evitar": 1897,
      "grá": 1898,
      "IA": 1899,
      "arqui": 1900,
      "oferece": 1901,
      "zer": 1902,
      "oportuni": 1903,
      "ll": 1904,
      "publi": 1905,
      "negativo": 1906,
      "formas": 1907,
      "associa": 1908,
      "idades": 1909,
      "caminho": 1910,
      "linha": 1911,
      "formação": 1912,
      "dez": 1913,
      "entemente": 1914,
      "xe": 1915,
      "ramas": 1916,
      "embora": 1917,
      "efica": 1918,
      "glo": 1919,
      "semelha": 1920,
      "arte": 1921,
      "pia": 1922,
      "lhões": 1923,
      "ceiro": 1924,
      "forte": 1925,
      "problema": 1926,
      "centagem": 1927,
      "dência": 1928,
      "habilidades": 1929,
      "treina": 1930,
      "realiza": 1931,
      "Pode": 1932,
      "mudanças": 1933,
      "nunca": 1934,
      "álbum": 1935,
      "começou": 1936,
      "serviços": 1937,
      "interessa": 1938,
      "cione": 1939,
      "período": 1940,
      "Seu": 1941,
      "sistemas": 1942,
      "Fran": 1943,
      "sab": 1944,
      "enredo": 1945,
      "frente": 1946,
      "eta": 1947,
      "questões": 1948,
      "refer": 1949,
      "concent": 1950,
      "Ver": 1951,
      "cabe": 1952,
      "maioria": 1953,
      "usado": 1954,
      "diri": 1955,
      "boa": 1956,
      "ponto": 1957,
      "saber": 1958,
      "vidas": 1959,
      "regular": 1960,
      "suficiente": 1961,
      "trabalhar": 1962,
      "luta": 1963,
      "essencial": 1964,
      "radas": 1965,
      "única": 1966,
      "notar": 1967,
      "til": 1968,
      "ximo": 1969,
      "coloca": 1970,
      "exer": 1971,
      "padr": 1972,
      "futu": 1973,
      "membros": 1974,
      "elas": 1975,
      "ana": 1976,
      "jovem": 1977,
      "flor": 1978,
      "Assim": 1979,
      "espaço": 1980,
      "solo": 1981,
      "lingua": 1982,
      "24": 1983,
      "ok": 1984,
      "transmi": 1985,
      "utiliza": 1986,
      "cient": 1987,
      "Be": 1988,
      "pá": 1989,
      "dy": 1990,
      "emos": 1991,
      "transporte": 1992,
      "deia": 1993,
      "econ": 1994,
      "__": 1995,
      "ãs": 1996,
      "chamada": 1997,
      "mercado": 1998,
      "tion": 1999,
      "entender": 2000,
      "gosta": 2001,
      "inten": 2002,
      "calor": 2003,
      "pesar": 2004,
      "ny": 2005,
      "países": 2006,
      "normal": 2007,
      "neste": 2008,
      "desig": 2009,
      "quaisquer": 2010,
      "carbo": 2011,
      "sho": 2012,
      "téc": 2013,
      "ética": 2014,
      "cliente": 2015,
      "sus": 2016,
      "avan": 2017,
      "vável": 2018,
      "equ": 2019,
      "tomar": 2020,
      "az": 2021,
      "linguagem": 2022,
      "impl": 2023,
      "classificação": 2024,
      "câ": 2025,
      "cuidados": 2026,
      "istra": 2027,
      "gol": 2028,
      "especial": 2029,
      "diu": 2030,
      "tâ": 2031,
      "tive": 2032,
      "diminu": 2033,
      "concei": 2034,
      "revisor": 2035,
      "Hi": 2036,
      "Cor": 2037,
      "estas": 2038,
      "releva": 2039,
      "indica": 2040,
      "metros": 2041,
      "incluem": 2042,
      "dentes": 2043,
      "certo": 2044,
      "partes": 2045,
      "sugere": 2046,
      "tipos": 2047,
      "cama": 2048,
      "vão": 2049,
      "implicada": 2050,
      "posto": 2051,
      "anti": 2052,
      "iste": 2053,
      "sico": 2054,
      "econo": 2055,
      "elementos": 2056,
      "temos": 2057,
      "existem": 2058,
      "principalmente": 2059,
      "práticas": 2060,
      "ers": 2061,
      "pelas": 2062,
      "vio": 2063,
      "aro": 2064,
      "Wil": 2065,
      "sex": 2066,
      "pessoal": 2067,
      "edifí": 2068,
      "loja": 2069,
      "ofi": 2070,
      "ferra": 2071,
      "última": 2072,
      "Bar": 2073,
      "dra": 2074,
      "peso": 2075,
      "ques": 2076,
      "aumentar": 2077,
      "tenha": 2078,
      "escol": 2079,
      "Rob": 2080,
      "negó": 2081,
      "adicionar": 2082,
      "veri": 2083,
      "nti": 2084,
      "tindo": 2085,
      "Har": 2086,
      "nenhuma": 2087,
      "Bro": 2088,
      "quí": 2089,
      "movimento": 2090,
      "xim": 2091,
      "mili": 2092,
      "descreve": 2093,
      "tt": 2094,
      "compreensão": 2095,
      "estilo": 2096,
      "comporta": 2097,
      "cra": 2098,
      "potencial": 2099,
      "centro": 2100,
      "ideia": 2101,
      "comunidade": 2102,
      "lados": 2103,
      "mistura": 2104,
      "sou": 2105,
      "construção": 2106,
      "vari": 2107,
      "ita": 2108,
      "presidente": 2109,
      "entação": 2110,
      "sustent": 2111,
      "desempenho": 2112,
      "rer": 2113,
      "amor": 2114,
      "planta": 2115,
      "serviço": 2116,
      "momento": 2117,
      "saída": 2118,
      "cies": 2119,
      "blo": 2120,
      "novos": 2121,
      "ferrament": 2122,
      "taman": 2123,
      "pontu": 2124,
      "precisamos": 2125,
      "assass": 2126,
      "inicia": 2127,
      "difícil": 2128,
      "exemplos": 2129,
      "discu": 2130,
      "land": 2131,
      "cir": 2132,
      "Cer": 2133,
      "estraté": 2134,
      "quis": 2135,
      "desafios": 2136,
      "cine": 2137,
      "ambas": 2138,
      "medida": 2139,
      "ps": 2140,
      "conex": 2141,
      "sala": 2142,
      "toda": 2143,
      "acesso": 2144,
      "caixa": 2145,
      "políticas": 2146,
      "nós": 2147,
      "pensar": 2148,
      "vado": 2149,
      "mensa": 2150,
      "jan": 2151,
      "conec": 2152,
      "ves": 2153,
      "localização": 2154,
      "Quant": 2155,
      "inhas": 2156,
      "nesta": 2157,
      "carreira": 2158,
      "particular": 2159,
      "famil": 2160,
      "banda": 2161,
      "tran": 2162,
      "osos": 2163,
      "pais": 2164,
      "racio": 2165,
      "prefer": 2166,
      "vá": 2167,
      "criança": 2168,
      "sele": 2169,
      "igu": 2170,
      "região": 2171,
      "Tra": 2172,
      "siva": 2173,
      "vê": 2174,
      "stria": 2175,
      "ell": 2176,
      "sidades": 2177,
      "gestão": 2178,
      "livros": 2179,
      "termos": 2180,
      "meta": 2181,
      "mudança": 2182,
      "Neste": 2183,
      "hando": 2184,
      "significativo": 2185,
      "menor": 2186,
      "política": 2187,
      "decisão": 2188,
      "Há": 2189,
      "escolher": 2190,
      "univer": 2191,
      "197": 2192,
      "promover": 2193,
      "sando": 2194,
      "ajudá": 2195,
      "mia": 2196,
      "participa": 2197,
      "rica": 2198,
      "Primei": 2199,
      "ames": 2200,
      "assum": 2201,
      "posa": 2202,
      "by": 2203,
      "efici": 2204,
      "célu": 2205,
      "rí": 2206,
      "armaz": 2207,
      "indústria": 2208,
      "back": 2209,
      "passe": 2210,
      "necessário": 2211,
      "quente": 2212,
      "Estas": 2213,
      "pessoais": 2214,
      "próxima": 2215,
      "apresent": 2216,
      "fato": 2217,
      "Ser": 2218,
      "ox": 2219,
      "objetivo": 2220,
      "terna": 2221,
      "refere": 2222,
      "ntando": 2223,
      "mico": 2224,
      "junto": 2225,
      "tantes": 2226,
      "Determin": 2227,
      "Terra": 2228,
      "apropria": 2229,
      "ualmente": 2230,
      "superfí": 2231,
      "impor": 2232,
      "disponíveis": 2233,
      "substitu": 2234,
      "levando": 2235,
      "Vi": 2236,
      "sentir": 2237,
      "alte": 2238,
      "adap": 2239,
      "lidade": 2240,
      "modelo": 2241,
      "vei": 2242,
      "Man": 2243,
      "Ha": 2244,
      "recomenda": 2245,
      "volu": 2246,
      "atenção": 2247,
      "han": 2248,
      "bras": 2249,
      "venda": 2250,
      "reali": 2251,
      "cina": 2252,
      "segue": 2253,
      "café": 2254,
      "infer": 2255,
      "gir": 2256,
      "ws": 2257,
      "explica": 2258,
      "plicar": 2259,
      "jas": 2260,
      "envia": 2261,
      "milhões": 2262,
      "insta": 2263,
      "fontes": 2264,
      "mag": 2265,
      "elé": 2266,
      "máqu": 2267,
      "Premissa": 2268,
      "detalha": 2269,
      "guerra": 2270,
      "calcular": 2271,
      "profissional": 2272,
      "velo": 2273,
      "cinco": 2274,
      "33": 2275,
      "apar": 2276,
      "especialmente": 2277,
      "futuro": 2278,
      "rom": 2279,
      "falta": 2280,
      "Algu": 2281,
      "benefí": 2282,
      "seis": 2283,
      "rapi": 2284,
      "negativa": 2285,
      "fácil": 2286,
      "pers": 2287,
      "conhecimento": 2288,
      "inho": 2289,
      "Inter": 2290,
      "respostas": 2291,
      "reno": 2292,
      "poli": 2293,
      "específico": 2294,
      "tadas": 2295,
      "ntou": 2296,
      "Leia": 2297,
      "começar": 2298,
      "menina": 2299,
      "cabeça": 2300,
      "clara": 2301,
      "telef": 2302,
      "missão": 2303,
      "condições": 2304,
      "umenta": 2305,
      "distri": 2306,
      "níveis": 2307,
      "porcentagem": 2308,
      "gela": 2309,
      "viagem": 2310,
      "temporada": 2311,
      "dul": 2312,
      "novamente": 2313,
      "controle": 2314,
      "nossa": 2315,
      "passado": 2316,
      "ciência": 2317,
      "rador": 2318,
      "ísticas": 2319,
      "projeto": 2320,
      "experiências": 2321,
      "último": 2322,
      "Ni": 2323,
      "meses": 2324,
      "conven": 2325,
      "Quem": 2326,
      "aprender": 2327,
      "possam": 2328,
      "gada": 2329,
      "pés": 2330,
      "fos": 2331,
      "capaz": 2332,
      "média": 2333,
      "Tim": 2334,
      "Hipótese": 2335,
      "cínio": 2336,
      "nicos": 2337,
      "dando": 2338,
      "perda": 2339,
      "sentido": 2340,
      "sejam": 2341,
      "Nesta": 2342,
      "compartilha": 2343,
      "centes": 2344,
      "terr": 2345,
      "livre": 2346,
      "Ju": 2347,
      "York": 2348,
      "saud": 2349,
      "pons": 2350,
      "comunicação": 2351,
      "irmã": 2352,
      "vens": 2353,
      "plano": 2354,
      "compri": 2355,
      "carbono": 2356,
      "interpre": 2357,
      "provável": 2358,
      "dí": 2359,
      "far": 2360,
      "materiais": 2361,
      "aspectos": 2362,
      "permite": 2363,
      "reci": 2364,
      "pequena": 2365,
      "possu": 2366,
      "funcionários": 2367,
      "equação": 2368,
      "população": 2369,
      "temperatura": 2370,
      "tureza": 2371,
      "esposa": 2372,
      "istente": 2373,
      "tamanho": 2374,
      "analisar": 2375,
      "micos": 2376,
      "leo": 2377,
      "chas": 2378,
      "ligi": 2379,
      "ka": 2380,
      "entrada": 2381,
      "tador": 2382,
      "levou": 2383,
      "solução": 2384,
      "corretamente": 2385,
      "198": 2386,
      "pequeno": 2387,
      "culas": 2388,
      "izar": 2389,
      "efeitos": 2390,
      "exercí": 2391,
      "cidades": 2392,
      "vil": 2393,
      "comparação": 2394,
      "frac": 2395,
      "revel": 2396,
      "quarto": 2397,
      "perar": 2398,
      "ft": 2399,
      "interesse": 2400,
      "opini": 2401,
      "curso": 2402,
      "Univer": 2403,
      "pele": 2404,
      "fic": 2405,
      "possíveis": 2406,
      "especificamente": 2407,
      "tina": 2408,
      "elei": 2409,
      "ds": 2410,
      "sangue": 2411,
      "oxig": 2412,
      "respons": 2413,
      "sação": 2414,
      "Tom": 2415,
      "Jack": 2416,
      "Use": 2417,
      "desen": 2418,
      "natureza": 2419,
      "abaixo": 2420,
      "tentar": 2421,
      "menino": 2422,
      "trá": 2423,
      "ian": 2424,
      "deles": 2425,
      "acess": 2426,
      "ura": 2427,
      "personagens": 2428,
      "pressi": 2429,
      "Segu": 2430,
      "avalia": 2431,
      "person": 2432,
      "bola": 2433,
      "gosto": 2434,
      "essor": 2435,
      "cinema": 2436,
      "Estes": 2437,
      "tens": 2438,
      "humanos": 2439,
      "presente": 2440,
      "único": 2441,
      "Lon": 2442,
      "centi": 2443,
      "rapidamente": 2444,
      "Durante": 2445,
      "religi": 2446,
      "gamento": 2447,
      "compu": 2448,
      "escrever": 2449,
      "guar": 2450,
      "corrida": 2451,
      "Bu": 2452,
      "iria": 2453,
      "diferente": 2454,
      "nosso": 2455,
      "ãos": 2456,
      "Du": 2457,
      "nenhum": 2458,
      "domin": 2459,
      "século": 2460,
      "tex": 2461,
      "conversa": 2462,
      "vers": 2463,
      "eficaz": 2464,
      "envolve": 2465,
      "libe": 2466,
      "hoje": 2467,
      "plata": 2468,
      "identi": 2469,
      "lucro": 2470,
      "Euro": 2471,
      "programas": 2472,
      "Dado": 2473,
      "importantes": 2474,
      "Alguns": 2475,
      "melhores": 2476,
      "atmos": 2477,
      "filmes": 2478,
      "Ins": 2479,
      "tera": 2480,
      "chan": 2481,
      "ester": 2482,
      "identificar": 2483,
      "potenciais": 2484,
      "nave": 2485,
      "variedade": 2486,
      "gri": 2487,
      "institu": 2488,
      "concor": 2489,
      "pris": 2490,
      "vidos": 2491,
      "ério": 2492,
      "continua": 2493,
      "educação": 2494,
      "conhecida": 2495,
      "pertur": 2496,
      "próximo": 2497,
      "Clar": 2498,
      "coment": 2499,
      "lega": 2500,
      "fala": 2501,
      "adequada": 2502,
      "tória": 2503,
      "fór": 2504,
      "deo": 2505,
      "respei": 2506,
      "manh": 2507,
      "solar": 2508,
      "camis": 2509,
      "oxigênio": 2510,
      "ampla": 2511,
      "fati": 2512,
      "tual": 2513,
      "didos": 2514,
      "acha": 2515,
      "fera": 2516,
      "vista": 2517,
      "exa": 2518,
      "inhos": 2519,
      "importância": 2520,
      "refle": 2521,
      "ff": 2522,
      "recei": 2523,
      "pontuação": 2524,
      "resultados": 2525,
      "usuários": 2526,
      "profun": 2527,
      "ime": 2528,
      "liz": 2529,
      "inclui": 2530,
      "aumenta": 2531,
      "mol": 2532,
      "Isto": 2533,
      "ental": 2534,
      "superfície": 2535,
      "espécies": 2536,
      "Ta": 2537,
      "norte": 2538,
      "risco": 2539,
      "len": 2540,
      "raciocínio": 2541,
      "nutri": 2542,
      "çam": 2543,
      "benefícios": 2544,
      "polícia": 2545,
      "animal": 2546,
      "Char": 2547,
      "Mc": 2548,
      "amea": 2549,
      "considerar": 2550,
      "osas": 2551,
      "Cam": 2552,
      "pal": 2553,
      "fro": 2554,
      "sobrevi": 2555,
      "específicos": 2556,
      "moder": 2557,
      "fico": 2558,
      "dial": 2559,
      "opera": 2560,
      "personagem": 2561,
      "xas": 2562,
      "my": 2563,
      "positivos": 2564,
      "satisfa": 2565,
      "normalmente": 2566,
      "paci": 2567,
      "sia": 2568,
      "data": 2569,
      "medidas": 2570,
      "circu": 2571,
      "festa": 2572,
      "ki": 2573,
      "Can": 2574,
      "própria": 2575,
      "quase": 2576,
      "Guerra": 2577,
      "compra": 2578,
      "rang": 2579,
      "tividade": 2580,
      "Tr": 2581,
      "justi": 2582,
      "alu": 2583,
      "acei": 2584,
      "cober": 2585,
      "camente": 2586,
      "deixar": 2587,
      "grupos": 2588,
      "lações": 2589,
      "esforços": 2590,
      "necessidades": 2591,
      "termo": 2592,
      "Jus": 2593,
      "site": 2594,
      "vie": 2595,
      "Cas": 2596,
      "ney": 2597,
      "resso": 2598,
      "Aus": 2599,
      "jei": 2600,
      "Col": 2601,
      "influencia": 2602,
      "competi": 2603,
      "certe": 2604,
      "manhã": 2605,
      "atividade": 2606,
      "Amb": 2607,
      "passos": 2608,
      "edi": 2609,
      "fran": 2610,
      "pções": 2611,
      "99": 2612,
      "Im": 2613,
      "Ste": 2614,
      "vul": 2615,
      "Pos": 2616,
      "jogadores": 2617,
      "óti": 2618,
      "Foi": 2619,
      "nem": 2620,
      "emin": 2621,
      "jogar": 2622,
      "fonte": 2623,
      "aproxima": 2624,
      "gam": 2625,
      "maneiras": 2626,
      "agra": 2627,
      "inicial": 2628,
      "grafia": 2629,
      "receber": 2630,
      "bate": 2631,
      "coração": 2632,
      "além": 2633,
      "solu": 2634,
      "crucial": 2635,
      "21": 2636,
      "\".?": 2637,
      "all": 2638,
      "apare": 2639,
      "demons": 2640,
      "velocidade": 2641,
      "vest": 2642,
      "fis": 2643,
      "érias": 2644,
      "vermel": 2645,
      "Ka": 2646,
      "diferença": 2647,
      "óleo": 2648,
      "mencionado": 2649,
      "específicas": 2650,
      "falar": 2651,
      "climá": 2652,
      "45": 2653,
      "itens": 2654,
      "perturba": 2655,
      "humano": 2656,
      "escritório": 2657,
      "conto": 2658,
      "estima": 2659,
      "certeza": 2660,
      "atual": 2661,
      "distância": 2662,
      "polu": 2663,
      "paix": 2664,
      "Sul": 2665,
      "próprio": 2666,
      "foco": 2667,
      "britâ": 2668,
      "separa": 2669,
      "finalmente": 2670,
      "brinque": 2671,
      "tida": 2672,
      "cicle": 2673,
      "soli": 2674,
      "adul": 2675,
      "experiment": 2676,
      "direção": 2677,
      "Ad": 2678,
      "Fi": 2679,
      "pp": 2680,
      "massa": 2681,
      "ood": 2682,
      "ang": 2683,
      "tendo": 2684,
      "conexão": 2685,
      "ento": 2686,
      "ães": 2687,
      "jogador": 2688,
      "196": 2689,
      "28": 2690,
      "vidu": 2691,
      "çando": 2692,
      "individu": 2693,
      "representa": 2694,
      "claro": 2695,
      "década": 2696,
      "conser": 2697,
      "dicas": 2698,
      "lie": 2699,
      "Norte": 2700,
      "sel": 2701,
      "dura": 2702,
      "quia": 2703,
      "indepen": 2704,
      "inspi": 2705,
      "senso": 2706,
      "espor": 2707,
      "células": 2708,
      "adicionais": 2709,
      "específica": 2710,
      "postos": 2711,
      "poderiam": 2712,
      "desenvolver": 2713,
      "apoiar": 2714,
      "fres": 2715,
      "respi": 2716,
      "intro": 2717,
      "bemos": 2718,
      "mont": 2719,
      "Adi": 2720,
      "cados": 2721,
      "peração": 2722,
      "ciedade": 2723,
      "vid": 2724,
      "lhando": 2725,
      "certa": 2726,
      "Conside": 2727,
      "chegar": 2728,
      "equipa": 2729,
      "confli": 2730,
      "sivo": 2731,
      "comportamento": 2732,
      "configu": 2733,
      "Or": 2734,
      "senta": 2735,
      "perten": 2736,
      "dele": 2737,
      "Ben": 2738,
      "panha": 2739,
      "sei": 2740,
      "ficou": 2741,
      "ús": 2742,
      "madeira": 2743,
      "Primeiro": 2744,
      "envolver": 2745,
      "edifício": 2746,
      "aqueles": 2747,
      "contém": 2748,
      "sicas": 2749,
      "China": 2750,
      "rápido": 2751,
      "roupas": 2752,
      "responde": 2753,
      "Conte": 2754,
      "proteger": 2755,
      "causar": 2756,
      "comunidades": 2757,
      "istir": 2758,
      "mesa": 2759,
      "incenti": 2760,
      "estres": 2761,
      "sabe": 2762,
      "75": 2763,
      "vali": 2764,
      "âncias": 2765,
      "global": 2766,
      "cora": 2767,
      "ganhou": 2768,
      "Alex": 2769,
      "ms": 2770,
      "our": 2771,
      "compon": 2772,
      "tações": 2773,
      "pão": 2774,
      "vege": 2775,
      "pico": 2776,
      "cy": 2777,
      "Sam": 2778,
      "James": 2779,
      "elig": 2780,
      "descobre": 2781,
      "relacionamento": 2782,
      "gên": 2783,
      "floresta": 2784,
      "beb": 2785,
      "funciona": 2786,
      "pública": 2787,
      "lização": 2788,
      "inais": 2789,
      "22": 2790,
      "mídia": 2791,
      "tadores": 2792,
      "americano": 2793,
      "responsa": 2794,
      "artista": 2795,
      "tia": 2796,
      "fornecida": 2797,
      "cabelo": 2798,
      "onais": 2799,
      "lín": 2800,
      "):": 2801,
      "estudo": 2802,
      "Gran": 2803,
      "enha": 2804,
      "oportunidades": 2805,
      "tentando": 2806,
      "objeto": 2807,
      "consum": 2808,
      "cum": 2809,
      "gelo": 2810,
      "incluir": 2811,
      "pequenas": 2812,
      "irmão": 2813,
      "ko": 2814,
      "cele": 2815,
      "dese": 2816,
      "chega": 2817,
      "quei": 2818,
      "Reino": 2819,
      "tifique": 2820,
      "seman": 2821,
      "ware": 2822,
      "fazem": 2823,
      "viu": 2824,
      "comprimento": 2825,
      "ceira": 2826,
      "extre": 2827,
      "ker": 2828,
      "parque": 2829,
      "longa": 2830,
      "denotar": 2831,
      "pí": 2832,
      "sentimentos": 2833,
      "atmosfera": 2834,
      "passar": 2835,
      "chuva": 2836,
      "lou": 2837,
      "Algum": 2838,
      "online": 2839,
      "mó": 2840,
      "sin": 2841,
      "categoria": 2842,
      "sono": 2843,
      "consegui": 2844,
      "caval": 2845,
      "ante": 2846,
      "ganhar": 2847,
      "cito": 2848,
      "truções": 2849,
      "leta": 2850,
      "abordagem": 2851,
      "exce": 2852,
      "sito": 2853,
      "frica": 2854,
      "contato": 2855,
      "istro": 2856,
      "construir": 2857,
      "dências": 2858,
      "consequ": 2859,
      "aprendi": 2860,
      "micas": 2861,
      "milhas": 2862,
      "New": 2863,
      "liga": 2864,
      "imagem": 2865,
      "lida": 2866,
      "expan": 2867,
      "conjunto": 2868,
      "presença": 2869,
      "inalmente": 2870,
      "alcançar": 2871,
      "emoções": 2872,
      "35": 2873,
      "máquina": 2874,
      "liber": 2875,
      "lâ": 2876,
      "ose": 2877,
      "escrito": 2878,
      "van": 2879,
      "90": 2880,
      "judi": 2881,
      "junta": 2882,
      "tórios": 2883,
      "dessas": 2884,
      "redor": 2885,
      "partici": 2886,
      "feita": 2887,
      "Tu": 2888,
      "flores": 2889,
      "manda": 2890,
      "estudantes": 2891,
      "fluxo": 2892,
      "Estou": 2893,
      "dena": 2894,
      "sociedade": 2895,
      "tiu": 2896,
      "rede": 2897,
      "prepara": 2898,
      "afetar": 2899,
      "chi": 2900,
      "El": 2901,
      "vanta": 2902,
      "telefone": 2903,
      "maiores": 2904,
      "dever": 2905,
      "ismos": 2906,
      "naturais": 2907,
      "Bre": 2908,
      "espaços": 2909,
      "ficul": 2910,
      "confiança": 2911,
      "líder": 2912,
      "seguro": 2913,
      "casos": 2914,
      "entrar": 2915,
      "viol": 2916,
      "assassina": 2917,
      "continuar": 2918,
      "vore": 2919,
      "filhos": 2920,
      "prazo": 2921,
      "usada": 2922,
      "fac": 2923,
      "vores": 2924,
      "sabor": 2925,
      "ong": 2926,
      "Claro": 2927,
      "suficientes": 2928,
      "rua": 2929,
      "pág": 2930,
      "governa": 2931,
      "Quais": 2932,
      "filha": 2933,
      "igh": 2934,
      "motor": 2935,
      "ial": 2936,
      "nal": 2937,
      "ciar": 2938,
      "dre": 2939,
      "fotos": 2940,
      "completamente": 2941,
      "lizar": 2942,
      "foto": 2943,
      "cultural": 2944,
      "demonstra": 2945,
      "ador": 2946,
      "tirar": 2947,
      "organizações": 2948,
      "oce": 2949,
      "organização": 2950,
      "sil": 2951,
      "dres": 2952,
      "dificul": 2953,
      "deseja": 2954,
      "sequ": 2955,
      "70": 2956,
      "din": 2957,
      "Algumas": 2958,
      "taram": 2959,
      "incorpo": 2960,
      "alterna": 2961,
      "potencialmente": 2962,
      "peda": 2963,
      "ensino": 2964,
      "mudar": 2965,
      "lidar": 2966,
      "ansi": 2967,
      "ular": 2968,
      "espera": 2969,
      "atri": 2970,
      "padrões": 2971,
      "recebeu": 2972,
      "tratamento": 2973,
      "caminha": 2974,
      "ológi": 2975,
      "cores": 2976,
      "suce": 2977,
      "emocional": 2978,
      "cenário": 2979,
      "bicicle": 2980,
      "estou": 2981,
      "Sal": 2982,
      "agri": 2983,
      "acredita": 2984,
      "bon": 2985,
      "Tamb": 2986,
      "indivíduo": 2987,
      "antar": 2988,
      "ições": 2989,
      "retra": 2990,
      "sensação": 2991,
      "atualiza": 2992,
      "útil": 2993,
      "arg": 2994,
      "test": 2995,
      "gla": 2996,
      "Após": 2997,
      "refei": 2998,
      "relevantes": 2999,
      "Também": 3000,
      "correr": 3001,
      "acu": 3002,
      "ct": 3003,
      "peças": 3004,
      "deli": 3005,
      "sair": 3006,
      "design": 3007,
      "dios": 3008,
      "Go": 3009,
      "escu": 3010,
      "táveis": 3011,
      "Bri": 3012,
      "ky": 3013,
      "num": 3014,
      "ministra": 3015,
      "usados": 3016,
      "digi": 3017,
      "36": 3018,
      "umento": 3019,
      "direitos": 3020,
      "árvores": 3021,
      "versão": 3022,
      "olhos": 3023,
      "esque": 3024,
      "médico": 3025,
      "intelig": 3026,
      "lares": 3027,
      "David": 3028,
      "teste": 3029,
      "entra": 3030,
      "idas": 3031,
      "TV": 3032,
      "responsável": 3033,
      "dan": 3034,
      "Gerar": 3035,
      "dê": 3036,
      "peça": 3037,
      "net": 3038,
      "notí": 3039,
      "Pres": 3040,
      "morre": 3041,
      "desses": 3042,
      "material": 3043,
      "longe": 3044,
      "precisão": 3045,
      "carros": 3046,
      "bis": 3047,
      "mara": 3048,
      "pás": 3049,
      "Mais": 3050,
      "crimin": 3051,
      "ticamente": 3052,
      "66": 3053,
      "jun": 3054,
      "formar": 3055,
      "ntemente": 3056,
      "redução": 3057,
      "ones": 3058,
      "Sr": 3059,
      "xido": 3060,
      "dindo": 3061,
      "óxido": 3062,
      "tenção": 3063,
      "trou": 3064,
      "demo": 3065,
      "ash": 3066,
      "apoia": 3067,
      "chael": 3068,
      "satisfação": 3069,
      "ferramentas": 3070,
      "Sta": 3071,
      "semelhantes": 3072,
      "aprendiza": 3073,
      "mail": 3074,
      "atin": 3075,
      "descober": 3076,
      "queria": 3077,
      "criação": 3078,
      "Nos": 3079,
      "propriedade": 3080,
      "razão": 3081,
      "física": 3082,
      "vestindo": 3083,
      "represent": 3084,
      "Opções": 3085,
      "dora": 3086,
      "busca": 3087,
      "Chi": 3088,
      "sí": 3089,
      "aç": 3090,
      "semanas": 3091,
      "jantar": 3092,
      "redi": 3093,
      "He": 3094,
      "valores": 3095,
      "Arti": 3096,
      "sicos": 3097,
      "gle": 3098,
      "diretor": 3099,
      "culturas": 3100,
      "Au": 3101,
      "ington": 3102,
      "cros": 3103,
      "chão": 3104,
      "Justi": 3105,
      "localizado": 3106,
      "aus": 3107,
      "mim": 3108,
      "imedia": 3109,
      "emprego": 3110,
      "adiciona": 3111,
      "perspec": 3112,
      "combina": 3113,
      "particularmente": 3114,
      "ilha": 3115,
      "Je": 3116,
      "cena": 3117,
      "combus": 3118,
      "dável": 3119,
      "Amé": 3120,
      "redes": 3121,
      "veí": 3122,
      "bater": 3123,
      "ump": 3124,
      "Unido": 3125,
      "simplesmente": 3126,
      "inf": 3127,
      "Gra": 3128,
      "elétri": 3129,
      "serve": 3130,
      "técnicas": 3131,
      "ket": 3132,
      "médio": 3133,
      "bos": 3134,
      "Bra": 3135,
      "tras": 3136,
      "escolhas": 3137,
      "ys": 3138,
      "sabemos": 3139,
      "Podemos": 3140,
      "ach": 3141,
      "process": 3142,
      "candida": 3143,
      "líbri": 3144,
      "cula": 3145,
      "Mé": 3146,
      "dó": 3147,
      "Sha": 3148,
      "lias": 3149,
      "treinamento": 3150,
      "mensagem": 3151,
      "ume": 3152,
      "classe": 3153,
      "itas": 3154,
      "possi": 3155,
      "faix": 3156,
      "Anal": 3157,
      "nascimento": 3158,
      "regula": 3159,
      "estiver": 3160,
      "vada": 3161,
      "ios": 3162,
      "visto": 3163,
      "Ter": 3164,
      "aldeia": 3165,
      "tinham": 3166,
      "Ir": 3167,
      "mir": 3168,
      "Existem": 3169,
      "restantes": 3170,
      "ii": 3171,
      "tria": 3172,
      "montan": 3173,
      "pássar": 3174,
      "jovens": 3175,
      "ensa": 3176,
      "escala": 3177,
      "Gre": 3178,
      "gui": 3179,
      "convida": 3180,
      "Tem": 3181,
      "ks": 3182,
      "show": 3183,
      "avi": 3184,
      "Conclusão": 3185,
      "danos": 3186,
      "ídos": 3187,
      "teor": 3188,
      "quantos": 3189,
      "down": 3190,
      "precisam": 3191,
      "números": 3192,
      "gerar": 3193,
      "som": 3194,
      "ficado": 3195,
      "alimentar": 3196,
      "breve": 3197,
      "pur": 3198,
      "Michael": 3199,
      "haver": 3200,
      "ajus": 3201,
      "zação": 3202,
      "Ed": 3203,
      "significativa": 3204,
      "orge": 3205,
      "27": 3206,
      "Cent": 3207,
      "ática": 3208,
      "gerencia": 3209,
      "impe": 3210,
      "Mel": 3211,
      "ideias": 3212,
      "pressiona": 3213,
      "pesquis": 3214,
      "enfati": 3215,
      "bur": 3216,
      "chin": 3217,
      "use": 3218,
      "On": 3219,
      "gás": 3220,
      "estrela": 3221,
      "estrelas": 3222,
      "fiz": 3223,
      "Determinar": 3224,
      "ficada": 3225,
      "Europa": 3226,
      "açú": 3227,
      "preços": 3228,
      "heiro": 3229,
      "mari": 3230,
      "requer": 3231,
      "Cont": 3232,
      "portanto": 3233,
      "ble": 3234,
      "economia": 3235,
      "vídeo": 3236,
      "planeja": 3237,
      "poca": 3238,
      "televisão": 3239,
      "preocupações": 3240,
      "histórias": 3241,
      "integra": 3242,
      "fortes": 3243,
      "Londres": 3244,
      "membro": 3245,
      "permitindo": 3246,
      "pital": 3247,
      "leg": 3248,
      "dedi": 3249,
      "precisar": 3250,
      "fabri": 3251,
      "mãos": 3252,
      "cadas": 3253,
      "500": 3254,
      "pequenos": 3255,
      "mês": 3256,
      "confi": 3257,
      "porto": 3258,
      "ingredi": 3259,
      "características": 3260,
      "lis": 3261,
      "dimento": 3262,
      "acompan": 3263,
      "líbrio": 3264,
      "relacionadas": 3265,
      "poluição": 3266,
      "necessidade": 3267,
      "ordem": 3268,
      "doenças": 3269,
      "consul": 3270,
      "íram": 3271,
      "kg": 3272,
      "itivamente": 3273,
      "Apesar": 3274,
      "perturbação": 3275,
      "ização": 3276,
      "próxim": 3277,
      "Ber": 3278,
      "terior": 3279,
      "famos": 3280,
      "Lem": 3281,
      "tário": 3282,
      "faci": 3283,
      "necessários": 3284,
      "climáticas": 3285,
      "inci": 3286,
      "maç": 3287,
      "giu": 3288,
      "23": 3289,
      "brilha": 3290,
      "desconto": 3291,
      "iras": 3292,
      "Artigo": 3293,
      "garra": 3294,
      "Universidade": 3295,
      "estiv": 3296,
      "Mat": 3297,
      "Si": 3298,
      "mestre": 3299,
      "Pla": 3300,
      "libras": 3301,
      "atrás": 3302,
      "metade": 3303,
      "conceitos": 3304,
      "Quantos": 3305,
      "Cu": 3306,
      "colher": 3307,
      "deixa": 3308,
      "distribu": 3309,
      "colocar": 3310,
      "econó": 3311,
      "juros": 3312,
      "lor": 3313,
      "cionando": 3314,
      "nossos": 3315,
      "razões": 3316,
      "estrada": 3317,
      "tiveram": 3318,
      "Sara": 3319,
      "quebrar": 3320,
      "bebi": 3321,
      "Cada": 3322,
      "dela": 3323,
      "negócios": 3324,
      "árvore": 3325,
      "ún": 3326,
      "sado": 3327,
      "necessárias": 3328,
      "realizar": 3329,
      "paco": 3330,
      "Hol": 3331,
      "entais": 3332,
      "bado": 3333,
      "Wal": 3334,
      "casamento": 3335,
      "liderança": 3336,
      "diá": 3337,
      "bel": 3338,
      "velho": 3339,
      "interna": 3340,
      "tarefas": 3341,
      "tom": 3342,
      "traz": 3343,
      "escon": 3344,
      "usou": 3345,
      "Essas": 3346,
      "primeiros": 3347,
      "incr": 3348,
      "adequado": 3349,
      "ward": 3350,
      "sta": 3351,
      "movi": 3352,
      "terceiro": 3353,
      "195": 3354,
      "forças": 3355,
      "xes": 3356,
      "Mun": 3357,
      "chefe": 3358,
      "Dia": 3359,
      "ército": 3360,
      "direito": 3361,
      "ídu": 3362,
      "Dan": 3363,
      "dizendo": 3364,
      "América": 3365,
      "acab": 3366,
      "tradicionais": 3367,
      "prática": 3368,
      "namo": 3369,
      "umentos": 3370,
      "diversidade": 3371,
      "Ty": 3372,
      "estresse": 3373,
      "cozinha": 3374,
      "emer": 3375,
      "Analise": 3376,
      "Hou": 3377,
      "26": 3378,
      "touch": 3379,
      "culturais": 3380,
      "combust": 3381,
      "implem": 3382,
      "jogando": 3383,
      "superior": 3384,
      "ld": 3385,
      "leite": 3386,
      "acontece": 3387,
      "imento": 3388,
      "educa": 3389,
      "âne": 3390,
      "explorar": 3391,
      "professor": 3392,
      "fec": 3393,
      "secre": 3394,
      "baixa": 3395,
      "ecos": 3396,
      "consequências": 3397,
      "investimento": 3398,
      "investigação": 3399,
      "ator": 3400,
      "ataque": 3401,
      "lógica": 3402,
      "equilíbrio": 3403,
      "gio": 3404,
      "imagens": 3405,
      "ya": 3406,
      "ende": 3407,
      "Quanto": 3408,
      "destru": 3409,
      "trabalhando": 3410,
      "face": 3411,
      "xí": 3412,
      "od": 3413,
      "atribu": 3414,
      "bun": 3415,
      "Times": 3416,
      "prisão": 3417,
      "gênero": 3418,
      "pósito": 3419,
      "dam": 3420,
      "emun": 3421,
      "gs": 3422,
      "dadas": 3423,
      "resídu": 3424,
      "cães": 3425,
      "aliment": 3426,
      "açúcar": 3427,
      "Ali": 3428,
      "medo": 3429,
      "hon": 3430,
      "êmi": 3431,
      "ouro": 3432,
      "alterações": 3433,
      "objetos": 3434,
      "econô": 3435,
      "mula": 3436,
      "ere": 3437,
      "saudável": 3438,
      "voz": 3439,
      "forman": 3440,
      "excel": 3441,
      "absor": 3442,
      "acho": 3443,
      "poderos": 3444,
      "altamente": 3445,
      "Frank": 3446,
      "Willia": 3447,
      "azul": 3448,
      "Val": 3449,
      "ans": 3450,
      "produzir": 3451,
      "procurar": 3452,
      "dest": 3453,
      "tela": 3454,
      "acres": 3455,
      "ística": 3456,
      "Esses": 3457,
      "completo": 3458,
      "gin": 3459,
      "esforço": 3460,
      "glaterra": 3461,
      "Inglaterra": 3462,
      "soft": 3463,
      "çado": 3464,
      "função": 3465,
      "comuns": 3466,
      "estratégias": 3467,
      "____": 3468,
      "comprou": 3469,
      "Hu": 3470,
      "menores": 3471,
      "desafia": 3472,
      "vale": 3473,
      "dú": 3474,
      "administra": 3475,
      "gido": 3476,
      "bolo": 3477,
      "métodos": 3478,
      "ovos": 3479,
      "varia": 3480,
      "fria": 3481,
      "doc": 3482,
      "descrição": 3483,
      "usam": 3484,
      "época": 3485,
      "Pen": 3486,
      "serem": 3487,
      "abrang": 3488,
      "direto": 3489,
      "avaliar": 3490,
      "Ori": 3491,
      "reser": 3492,
      "componentes": 3493,
      "dimentos": 3494,
      "branco": 3495,
      "especia": 3496,
      "famílias": 3497,
      "iros": 3498,
      "pagar": 3499,
      "clo": 3500,
      "deixe": 3501,
      "Contexto": 3502,
      "oferecer": 3503,
      "alinha": 3504,
      "roman": 3505,
      "Tex": 3506,
      "ficando": 3507,
      "considerado": 3508,
      "Ant": 3509,
      "líqui": 3510,
      "fogo": 3511,
      "diferenças": 3512,
      "tenham": 3513,
      "queb": 3514,
      "mun": 3515,
      "eld": 3516,
      "uais": 3517,
      "bul": 3518,
      "estran": 3519,
      "Pal": 3520,
      "profissionais": 3521,
      "lugares": 3522,
      "ré": 3523,
      "fornecido": 3524,
      "desfru": 3525,
      "soma": 3526,
      "Sem": 3527,
      "cientí": 3528,
      "teis": 3529,
      "ast": 3530,
      "contí": 3531,
      "emis": 3532,
      "gradu": 3533,
      "significativamente": 3534,
      "cana": 3535,
      "exten": 3536,
      "capital": 3537,
      "hado": 3538,
      "geo": 3539,
      "Sh": 3540,
      "computador": 3541,
      "NA": 3542,
      "voltar": 3543,
      "procura": 3544,
      "perigos": 3545,
      "dação": 3546,
      "eio": 3547,
      "inicialmente": 3548,
      "wa": 3549,
      "clube": 3550,
      "cima": 3551,
      "ouvir": 3552,
      "performan": 3553,
      "meus": 3554,
      "habita": 3555,
      "Joe": 3556,
      "Amer": 3557,
      "exclu": 3558,
      "últimos": 3559,
      "musi": 3560,
      "Pol": 3561,
      "dióxido": 3562,
      "arre": 3563,
      "neu": 3564,
      "bicicleta": 3565,
      "selva": 3566,
      "prejudi": 3567,
      "lago": 3568,
      "Jim": 3569,
      "32": 3570,
      "weet": 3571,
      "aparece": 3572,
      "cuidado": 3573,
      "frequentemente": 3574,
      "admi": 3575,
      "taxas": 3576,
      "resto": 3577,
      "doença": 3578,
      "canção": 3579,
      "impressiona": 3580,
      "George": 3581,
      "Estado": 3582,
      "objetivos": 3583,
      "carne": 3584,
      "Rober": 3585,
      "Pes": 3586,
      "way": 3587,
      "48": 3588,
      "contínu": 3589,
      "pena": 3590,
      "projetos": 3591,
      "dim": 3592,
      "sinto": 3593,
      "Mundial": 3594,
      "óli": 3595,
      "front": 3596,
      "Tal": 3597,
      "jornada": 3598,
      "wi": 3599,
      "Ru": 3600,
      "trem": 3601,
      "resíduos": 3602,
      "mul": 3603,
      "vitória": 3604,
      "ônia": 3605,
      "enfrentar": 3606,
      "igual": 3607,
      "estação": 3608,
      "jul": 3609,
      "custos": 3610,
      "terá": 3611,
      "estruturas": 3612,
      "dica": 3613,
      "jornal": 3614,
      "decisões": 3615,
      "deixou": 3616,
      "esteja": 3617,
      "``": 3618,
      "Sab": 3619,
      "talia": 3620,
      "ntam": 3621,
      "celular": 3622,
      "envolvimento": 3623,
      "anda": 3624,
      "pré": 3625,
      "quete": 3626,
      "exig": 3627,
      "oferecem": 3628,
      "proporção": 3629,
      "Jer": 3630,
      "ford": 3631,
      "olhar": 3632,
      "Dr": 3633,
      "ferência": 3634,
      "pero": 3635,
      "vende": 3636,
      "essenciais": 3637,
      "possui": 3638,
      "verde": 3639,
      "prior": 3640,
      "derro": 3641,
      "quali": 3642,
      "familiar": 3643,
      "encontrou": 3644,
      "expli": 3645,
      "bá": 3646,
      "falando": 3647,
      "volução": 3648,
      "dependendo": 3649,
      "infec": 3650,
      "enfrenta": 3651,
      "preferências": 3652,
      "oficial": 3653,
      "frequência": 3654,
      "logias": 3655,
      "pren": 3656,
      "org": 3657,
      "ingredientes": 3658,
      "bebê": 3659,
      "consciência": 3660,
      "Nós": 3661,
      "peixes": 3662,
      "compartilhar": 3663,
      "espec": 3664,
      "preciso": 3665,
      "subtra": 3666,
      "exam": 3667,
      "trabalhadores": 3668,
      "negócio": 3669,
      "aprendizagem": 3670,
      "adoles": 3671,
      "cante": 3672,
      "Ti": 3673,
      "ameaça": 3674,
      "marido": 3675,
      "Cons": 3676,
      "folhas": 3677,
      "wood": 3678,
      "semelhante": 3679,
      "ON": 3680,
      "impul": 3681,
      "duzir": 3682,
      "Peter": 3683,
      "facil": 3684,
      "facilmente": 3685,
      "tle": 3686,
      "Trump": 3687,
      "inver": 3688,
      "Nacional": 3689,
      "gante": 3690,
      "banco": 3691,
      "ity": 3692,
      "software": 3693,
      "diálogo": 3694,
      "San": 3695,
      "humana": 3696,
      "dge": 3697,
      "rie": 3698,
      "\\).": 3699,
      "morto": 3700,
      "Chris": 3701,
      "apesar": 3702,
      "casas": 3703,
      "cên": 3704,
      "intera": 3705,
      "oeste": 3706,
      "dança": 3707,
      "avent": 3708,
      "meninas": 3709,
      "Dis": 3710,
      "testemun": 3711,
      "preser": 3712,
      "ganha": 3713,
      "Tri": 3714,
      "viz": 3715,
      "cade": 3716,
      "Cli": 3717,
      "razo": 3718,
      "bata": 3719,
      "toria": 3720,
      "digo": 3721,
      "oportunidade": 3722,
      "equipes": 3723,
      "viver": 3724,
      "mostrar": 3725,
      "clí": 3726,
      "Lembre": 3727,
      "altura": 3728,
      "gência": 3729,
      "processos": 3730,
      "cân": 3731,
      "keting": 3732,
      "gama": 3733,
      "americana": 3734,
      "gato": 3735,
      "trimestre": 3736,
      "mani": 3737,
      "aprecia": 3738,
      "%.": 3739,
      "propriet": 3740,
      "musical": 3741,
      "completa": 3742,
      "conceito": 3743,
      "Jen": 3744,
      "suposta": 3745,
      "eventualmente": 3746,
      "verificar": 3747,
      "passou": 3748,
      "ingu": 3749,
      "rochas": 3750,
      "defen": 3751,
      "receita": 3752,
      "experimentar": 3753,
      "rico": 3754,
      "bara": 3755,
      "índia": 3756,
      "vemente": 3757,
      "pio": 3758,
      "destaca": 3759,
      "entu": 3760,
      "tê": 3761,
      "Rich": 3762,
      "iva": 3763,
      "pratos": 3764,
      "Mary": 3765,
      "língua": 3766,
      "totalmente": 3767,
      "manu": 3768,
      "limpe": 3769,
      "tubro": 3770,
      "legal": 3771,
      "tidos": 3772,
      "partí": 3773,
      "pensamentos": 3774,
      "político": 3775,
      "guia": 3776,
      "compromis": 3777,
      "picos": 3778,
      "motiva": 3779,
      "Esco": 3780,
      "Cali": 3781,
      "parede": 3782,
      "individuais": 3783,
      "jogou": 3784,
      "meninos": 3785,
      "Mis": 3786,
      "Hen": 3787,
      "ings": 3788,
      "vados": 3789,
      "escrita": 3790,
      "padrão": 3791,
      "casal": 3792,
      "camisa": 3793,
      "Ran": 3794,
      "Númer": 3795,
      "sustentáveis": 3796,
      "erro": 3797,
      "',": 3798,
      "gados": 3799,
      "ambientais": 3800,
      "gon": 3801,
      "relações": 3802,
      "armazen": 3803,
      "cológi": 3804,
      "transforma": 3805,
      "bunal": 3806,
      "negativos": 3807,
      "físico": 3808,
      "Paul": 3809,
      "gravi": 3810,
      "nego": 3811,
      "instituição": 3812,
      "armas": 3813,
      "soz": 3814,
      "unidade": 3815,
      "cau": 3816,
      "câme": 3817,
      "proposta": 3818,
      "plás": 3819,
      "didas": 3820,
      "corrente": 3821,
      "etapa": 3822,
      "adores": 3823,
      "pensamento": 3824,
      "amento": 3825,
      "exercício": 3826,
      "Ke": 3827,
      "ted": 3828,
      "sustentável": 3829,
      "organismos": 3830,
      "Gol": 3831,
      "tembro": 3832,
      "irá": 3833,
      "explicar": 3834,
      "istentes": 3835,
      "feed": 3836,
      "janeiro": 3837,
      "neve": 3838,
      "ferro": 3839,
      "vermelho": 3840,
      "junho": 3841,
      "jos": 3842,
      "clima": 3843,
      "pede": 3844,
      "váveis": 3845,
      "certos": 3846,
      "verão": 3847,
      "Dois": 3848,
      "Tor": 3849,
      "india": 3850,
      "situações": 3851,
      "imi": 3852,
      "Sele": 3853,
      "abordar": 3854,
      "lançado": 3855,
      "Ve": 3856,
      "ânia": 3857,
      "leve": 3858,
      "Sarah": 3859,
      "Número": 3860,
      "captura": 3861,
      "bido": 3862,
      "arquite": 3863,
      "Tho": 3864,
      "decidir": 3865,
      "Goo": 3866,
      "esquer": 3867,
      "tempos": 3868,
      "ondas": 3869,
      "influência": 3870,
      "assistir": 3871,
      "estabelecer": 3872,
      "familia": 3873,
      "opiniões": 3874,
      "participar": 3875,
      "At": 3876,
      "Sy": 3877,
      "Parti": 3878,
      "carta": 3879,
      "propósito": 3880,
      "eros": 3881,
      "Considere": 3882,
      "militar": 3883,
      "Te": 3884,
      "notícias": 3885,
      "artistas": 3886,
      "ares": 3887,
      "tares": 3888,
      "outubro": 3889,
      "audi": 3890,
      "expressa": 3891,
      "300": 3892,
      "visita": 3893,
      "sias": 3894,
      "visitar": 3895,
      "pros": 3896,
      "trata": 3897,
      "ion": 3898,
      "colabo": 3899,
      "advo": 3900,
      "III": 3901,
      "dível": 3902,
      "zando": 3903,
      "aspecto": 3904,
      "Bla": 3905,
      "declarações": 3906,
      "vente": 3907,
      "ércio": 3908,
      "tornam": 3909,
      "frutas": 3910,
      "nucle": 3911,
      "vento": 3912,
      "ident": 3913,
      "explicação": 3914,
      "ônibus": 3915,
      "rios": 3916,
      "método": 3917,
      "touchdown": 3918,
      "embro": 3919,
      "nasceu": 3920,
      "topo": 3921,
      "Antes": 3922,
      "colate": 3923,
      "narra": 3924,
      "aparência": 3925,
      "Cha": 3926,
      "mentais": 3927,
      "patos": 3928,
      "onar": 3929,
      "escolas": 3930,
      "trália": 3931,
      "nutrientes": 3932,
      "relacionados": 3933,
      "nie": 3934,
      "femin": 3935,
      "Fre": 3936,
      "ciou": 3937,
      "zz": 3938,
      "proteí": 3939,
      "parecer": 3940,
      "percebe": 3941,
      "contras": 3942,
      "Pi": 3943,
      "impossível": 3944,
      "esperar": 3945,
      "hospital": 3946,
      "setembro": 3947,
      "vivo": 3948,
      "posições": 3949,
      "alvo": 3950,
      "guas": 3951,
      "Movie": 3952,
      "400": 3953,
      "Desde": 3954,
      "repe": 3955,
      "planos": 3956,
      "Ob": 3957,
      "reunião": 3958,
      "elim": 3959,
      "escolh": 3960,
      "terror": 3961,
      "igre": 3962,
      "delicios": 3963,
      "facili": 3964,
      "presentes": 3965,
      "Ci": 3966,
      "diga": 3967,
      "campanha": 3968,
      "antiga": 3969,
      "contr": 3970,
      "tus": 3971,
      "plataformas": 3972,
      "Bob": 3973,
      "preso": 3974,
      "fant": 3975,
      "aula": 3976,
      "quebra": 3977,
      "ceis": 3978,
      "quê": 3979,
      "riscos": 3980,
      "fase": 3981,
      ".,": 3982,
      "internacional": 3983,
      "aproximadamente": 3984,
      "descrever": 3985,
      "queima": 3986,
      "dental": 3987,
      "eficiente": 3988,
      "Come": 3989,
      "sá": 3990,
      "toque": 3991,
      "fosse": 3992,
      "contrário": 3993,
      "obras": 3994,
      "relevante": 3995,
      "cher": 3996,
      "Grande": 3997,
      "armazena": 3998,
      "vembro": 3999,
      "incrível": 4000,
      "paisa": 4001,
      "íne": 4002,
      "parecia": 4003,
      "fins": 4004,
      "ficos": 4005,
      "adicional": 4006,
      "identidade": 4007,
      "nomes": 4008,
      "conseguiu": 4009,
      "economi": 4010,
      "éticas": 4011,
      "Certifique": 4012,
      "fecha": 4013,
      "partículas": 4014,
      "faixa": 4015,
      "limpeza": 4016,
      "ceiros": 4017,
      "Bill": 4018,
      "rito": 4019,
      "cost": 4020,
      "gráfica": 4021,
      "sai": 4022,
      "29": 4023,
      "moe": 4024,
      "dólares": 4025,
      "bomb": 4026,
      "Austrália": 4027,
      "opinião": 4028,
      "alem": 4029,
      "disponível": 4030,
      "tiver": 4031,
      "dito": 4032,
      "personaliza": 4033,
      "vín": 4034,
      "imediatamente": 4035,
      "vindo": 4036,
      "marketing": 4037,
      "emociona": 4038,
      "tweet": 4039,
      "ético": 4040,
      "obri": 4041,
      "laran": 4042,
      "elos": 4043,
      "feedback": 4044,
      "capita": 4045,
      "cm": 4046,
      "interesses": 4047,
      "relacionada": 4048,
      "engen": 4049,
      "infra": 4050,
      "detalhada": 4051,
      "curto": 4052,
      "metro": 4053,
      "euro": 4054,
      "antigo": 4055,
      "fede": 4056,
      "suspei": 4057,
      "encontram": 4058,
      "deixando": 4059,
      "disti": 4060,
      "japon": 4061,
      "crenças": 4062,
      "fatos": 4063,
      "tecnologias": 4064,
      "anun": 4065,
      "tron": 4066,
      "remover": 4067,
      "2000": 4068,
      "chá": 4069,
      "cadeia": 4070,
      "exercícios": 4071,
      "Mil": 4072,
      "mando": 4073,
      "combinação": 4074,
      "drogas": 4075,
      "nossas": 4076,
      "facul": 4077,
      "juntamente": 4078,
      "abrangente": 4079,
      "ating": 4080,
      "agradável": 4081,
      "Robert": 4082,
      "nes": 4083,
      "top": 4084,
      "irri": 4085,
      "Wash": 4086,
      "sivos": 4087,
      "bs": 4088,
      "necessária": 4089,
      "perder": 4090,
      "confortável": 4091,
      "dispositivo": 4092,
      "aconteceu": 4093,
      "Fal": 4094,
      "estamos": 4095,
      "ônica": 4096,
      "proteção": 4097,
      "Gar": 4098,
      "ciclo": 4099,
      "serão": 4100,
      "rock": 4101,
      "naque": 4102,
      "categorias": 4103,
      "soluções": 4104,
      "tâncias": 4105,
      "praia": 4106,
      "elen": 4107,
      "jardim": 4108,
      "comentários": 4109,
      "ajudou": 4110,
      "gases": 4111,
      "ígen": 4112,
      "field": 4113,
      "italia": 4114,
      "fãs": 4115,
      "bastante": 4116,
      "sofre": 4117,
      "sabia": 4118,
      "assumir": 4119,
      "maio": 4120,
      "dispositivos": 4121,
      "costa": 4122,
      "consumo": 4123,
      "novembro": 4124,
      "clás": 4125,
      "Google": 4126,
      "fornecem": 4127,
      "duras": 4128,
      "regras": 4129,
      "Core": 4130,
      "significativas": 4131,
      "militares": 4132,
      "eletr": 4133,
      "Mon": 4134,
      "partamento": 4135,
      "decidiu": 4136,
      "Sou": 4137,
      "dimos": 4138,
      "escreveu": 4139,
      "Fe": 4140,
      "mora": 4141,
      "plataforma": 4142,
      "desi": 4143,
      "operação": 4144,
      "povo": 4145,
      "desper": 4146,
      "central": 4147,
      "pilo": 4148,
      "riam": 4149,
      "julho": 4150,
      "rosto": 4151,
      "ato": 4152,
      "sangu": 4153,
      "resistência": 4154,
      "defesa": 4155,
      "assassinato": 4156,
      "culpa": 4157,
      "interessante": 4158,
      "fórnia": 4159,
      "úr": 4160,
      "gli": 4161,
      "Bur": 4162,
      "americanos": 4163,
      "mergu": 4164,
      "rápida": 4165,
      "fundamental": 4166,
      "turis": 4167,
      "tópico": 4168,
      "Onde": 4169,
      "Lee": 4170,
      "ficá": 4171,
      "Th": 4172,
      "pintu": 4173,
      "Mal": 4174,
      "confro": 4175,
      "África": 4176,
      "plicação": 4177,
      "Justificação": 4178,
      "sentenças": 4179,
      "Faça": 4180,
      "limpa": 4181,
      "apresentar": 4182,
      "encontrado": 4183,
      "inado": 4184,
      "exposição": 4185,
      "evidências": 4186,
      "ater": 4187,
      "caça": 4188,
      "empur": 4189,
      "conce": 4190,
      "tidas": 4191,
      "\")": 4192,
      "Gal": 4193,
      "populares": 4194,
      "Washington": 4195,
      "capazes": 4196,
      "sanguíne": 4197,
      "Jan": 4198,
      "anteriormente": 4199,
      "espi": 4200,
      "baseado": 4201,
      "diversas": 4202,
      "end": 4203,
      "ferramenta": 4204,
      "vendas": 4205,
      "(\"": 4206,
      "claramente": 4207,
      "usadas": 4208,
      "plot": 4209,
      "guitar": 4210,
      "talvez": 4211,
      "emoção": 4212,
      "ciente": 4213,
      "rustra": 4214,
      "curta": 4215,
      "tões": 4216,
      "Mor": 4217,
      "guarda": 4218,
      "maçãs": 4219,
      "Han": 4220,
      "histórico": 4221,
      "trazer": 4222,
      "rr": 4223,
      "crescer": 4224,
      "quantas": 4225,
      "desse": 4226,
      "Pu": 4227,
      "blio": 4228,
      "City": 4229,
      "nd": 4230,
      "ceram": 4231,
      "eroporto": 4232,
      "pecta": 4233,
      "dom": 4234,
      "cris": 4235,
      "justiça": 4236,
      "ustria": 4237,
      "eno": 4238,
      "estados": 4239,
      "We": 4240,
      "acidente": 4241,
      "dezembro": 4242,
      "ói": 4243,
      "abril": 4244,
      "recor": 4245,
      "estudos": 4246,
      "garantindo": 4247,
      "Ban": 4248,
      "amiza": 4249,
      "lenta": 4250,
      "caras": 4251,
      "Cal": 4252,
      "Ang": 4253,
      "adultos": 4254,
      "pegar": 4255,
      "Califórnia": 4256,
      "definitivamente": 4257,
      "char": 4258,
      "implement": 4259,
      "renováveis": 4260,
      "navio": 4261,
      "ambiental": 4262,
      "demia": 4263,
      "certi": 4264,
      "mus": 4265,
      "moda": 4266,
      "play": 4267,
      "restante": 4268,
      "significativos": 4269,
      "venção": 4270,
      "baseada": 4271,
      "oti": 4272,
      "dieta": 4273,
      "vírus": 4274,
      "edades": 4275,
      "caixas": 4276,
      "rão": 4277,
      "aprovei": 4278,
      "km": 4279,
      "segura": 4280,
      "orça": 4281,
      "tentativa": 4282,
      "químicos": 4283,
      "instr": 4284,
      "ótimo": 4285,
      "Maria": 4286,
      "oceano": 4287,
      "prêmi": 4288,
      "rote": 4289,
      "zon": 4290,
      "respondível": 4291,
      "xos": 4292,
      "rastre": 4293,
      "correndo": 4294,
      "presa": 4295,
      "pacientes": 4296,
      "Obri": 4297,
      "und": 4298,
      "lum": 4299,
      "subst": 4300,
      "atualmente": 4301,
      "crítico": 4302,
      "muni": 4303,
      "etapas": 4304,
      "comércio": 4305,
      "março": 4306,
      "respeito": 4307,
      "vegetais": 4308,
      "atleta": 4309,
      "Lou": 4310,
      "políticos": 4311,
      "ordena": 4312,
      "hotel": 4313,
      "vistas": 4314,
      "compromisso": 4315,
      "eli": 4316,
      "fizeram": 4317,
      "vivem": 4318,
      "Finalmente": 4319,
      "observa": 4320,
      "prato": 4321,
      "destino": 4322,
      "Escolhas": 4323,
      "manha": 4324,
      "Sabemos": 4325,
      "euros": 4326,
      "manutenção": 4327,
      "pério": 4328,
      "custa": 4329,
      "responsabilidade": 4330,
      "crescente": 4331,
      "sustenta": 4332,
      "sente": 4333,
      "ofer": 4334,
      "inguém": 4335,
      "corte": 4336,
      "Che": 4337,
      "Todos": 4338,
      "ciamento": 4339,
      "centemente": 4340,
      "fazê": 4341,
      "umir": 4342,
      "don": 4343,
      "quinta": 4344,
      "ajudam": 4345,
      "turar": 4346,
      "Mike": 4347,
      "hu": 4348,
      "bia": 4349,
      "pesquisas": 4350,
      "introduz": 4351,
      "preto": 4352,
      "rique": 4353,
      "passag": 4354,
      "colas": 4355,
      "procurando": 4356,
      "frustra": 4357,
      "agosto": 4358,
      "definição": 4359,
      "direta": 4360,
      "conselho": 4361,
      "regiões": 4362,
      "avaliação": 4363,
      "pot": 4364,
      "contar": 4365,
      "Obrigado": 4366,
      "apropriada": 4367,
      "sobreviv": 4368,
      "expecta": 4369,
      "olhando": 4370,
      "decide": 4371,
      "exces": 4372,
      "código": 4373,
      "Cla": 4374,
      "Ga": 4375,
      "ath": 4376,
      "Ab": 4377,
      "Comb": 4378,
      "versário": 4379,
      "linhas": 4380,
      "rist": 4381,
      "Certamente": 4382,
      "Colo": 4383,
      "progresso": 4384,
      "Quantas": 4385,
      "querer": 4386,
      "cessa": 4387,
      "plas": 4388,
      "Veri": 4389,
      "talent": 4390,
      "almo": 4391,
      "lamento": 4392,
      "194": 4393,
      "aé": 4394,
      "propriedades": 4395,
      "pol": 4396,
      "beleza": 4397,
      "tomada": 4398,
      "umas": 4399,
      "deres": 4400,
      "câmera": 4401,
      "conhecidos": 4402,
      "terri": 4403,
      "Wor": 4404,
      "esperança": 4405,
      "120": 4406,
      "sivamente": 4407,
      "ilum": 4408,
      "relacionamentos": 4409,
      "brinquedo": 4410,
      "relacionado": 4411,
      "cá": 4412,
      "avião": 4413,
      "veja": 4414,
      "jando": 4415,
      "romance": 4416,
      "enor": 4417,
      "cionalmente": 4418,
      "envolvidos": 4419,
      "metal": 4420,
      "legadas": 4421,
      "somb": 4422,
      "Den": 4423,
      "contribuir": 4424,
      "tional": 4425,
      "ges": 4426,
      "istão": 4427,
      "sementes": 4428,
      "autoridades": 4429,
      "bes": 4430,
      "próximos": 4431,
      "Mark": 4432,
      "doces": 4433,
      "Ambas": 4434,
      "carga": 4435,
      "cidental": 4436,
      "França": 4437,
      "Defin": 4438,
      "múlti": 4439,
      "brinquedos": 4440,
      "mús": 4441,
      "ami": 4442,
      "péis": 4443,
      "agrí": 4444,
      "br": 4445,
      "artes": 4446,
      "rep": 4447,
      "músicas": 4448,
      "preten": 4449,
      "'.": 4450,
      "mina": 4451,
      "Alemanha": 4452,
      "espécie": 4453,
      "papéis": 4454,
      "partido": 4455,
      "páginas": 4456,
      "Forne": 4457,
      "mudou": 4458,
      "Encont": 4459,
      "conflito": 4460,
      "questi": 4461,
      "excelente": 4462,
      "ati": 4463,
      "Super": 4464,
      "temp": 4465,
      "ficações": 4466,
      "entidade": 4467,
      "canta": 4468,
      "Dei": 4469,
      "câncer": 4470,
      "polegadas": 4471,
      "pertence": 4472,
      "chance": 4473,
      "nota": 4474,
      "pedir": 4475,
      "pin": 4476,
      "del": 4477,
      "agem": 4478,
      "ferti": 4479,
      "instruções": 4480,
      "móveis": 4481,
      "sujei": 4482,
      "estimação": 4483,
      "apaix": 4484,
      "morreu": 4485,
      "enas": 4486,
      "You": 4487,
      "líderes": 4488,
      "litros": 4489,
      "cais": 4490,
      "armazenamento": 4491,
      "víti": 4492,
      "impactos": 4493,
      "gent": 4494,
      "IS": 4495,
      "orgâ": 4496,
      "fós": 4497,
      "150": 4498,
      "bloque": 4499,
      "Mer": 4500,
      "termina": 4501,
      "ocorreu": 4502,
      "negocia": 4503,
      "considerada": 4504,
      "Min": 4505,
      "humor": 4506,
      "dizem": 4507,
      "icamente": 4508,
      "ony": 4509,
      "Lei": 4510,
      "rocha": 4511,
      "bei": 4512,
      "leste": 4513,
      "vapor": 4514,
      "firmar": 4515,
      "desenvolve": 4516,
      "condição": 4517,
      "bliote": 4518,
      "competição": 4519,
      "Lea": 4520,
      "determinado": 4521,
      "inando": 4522,
      "transporta": 4523,
      "criando": 4524,
      "acaba": 4525,
      "boca": 4526,
      "imag": 4527,
      "diversi": 4528,
      "ático": 4529,
      "paga": 4530,
      "vereiro": 4531,
      "frio": 4532,
      "médicos": 4533,
      "conforto": 4534,
      "alizar": 4535,
      "ling": 4536,
      "priva": 4537,
      "discus": 4538,
      "colegas": 4539,
      "lógico": 4540,
      "West": 4541,
      "Mes": 4542,
      "deram": 4543,
      "vera": 4544,
      "legais": 4545,
      "Smi": 4546,
      "quil": 4547,
      "xico": 4548,
      "planeta": 4549,
      "abre": 4550,
      "lançamento": 4551,
      "suave": 4552,
      "assent": 4553,
      "requis": 4554,
      "perspectiva": 4555,
      "ben": 4556,
      "abra": 4557,
      "pisó": 4558,
      "reside": 4559,
      "utilização": 4560,
      "timo": 4561,
      "reação": 4562,
      "Essa": 4563,
      "Ham": 4564,
      "arran": 4565,
      "eficiência": 4566,
      "especiais": 4567,
      "caminh": 4568,
      "Jes": 4569,
      "permanecer": 4570,
      "quero": 4571,
      "Ph": 4572,
      "durado": 4573,
      "matar": 4574,
      "cionou": 4575,
      "saudáveis": 4576,
      "bela": 4577,
      "Pra": 4578,
      "estú": 4579,
      "trabalham": 4580,
      "supor": 4581,
      "tradicional": 4582,
      "perfei": 4583,
      "BC": 4584,
      "erros": 4585,
      "depende": 4586,
      "desafio": 4587,
      "fuma": 4588,
      "movimentos": 4589,
      "relatório": 4590,
      "chegou": 4591,
      "reti": 4592,
      "olha": 4593,
      "deri": 4594,
      "aler": 4595,
      "Lau": 4596,
      "Segunda": 4597,
      "ideal": 4598,
      "plement": 4599,
      "emissões": 4600,
      "amig": 4601,
      "inse": 4602,
      "investir": 4603,
      "vence": 4604,
      "rit": 4605,
      "terapia": 4606,
      "CO": 4607,
      "ariamente": 4608,
      "ght": 4609,
      "volume": 4610,
      "mascul": 4611,
      "ansiedade": 4612,
      "entusias": 4613,
      "querem": 4614,
      "batalha": 4615,
      "mover": 4616,
      "ússia": 4617,
      "chances": 4618,
      "Pat": 4619,
      "ministro": 4620,
      "Ten": 4621,
      "limpar": 4622,
      "entado": 4623,
      "São": 4624,
      "momentos": 4625,
      "cesa": 4626,
      "usas": 4627,
      "tale": 4628,
      "paz": 4629,
      "pista": 4630,
      "gene": 4631,
      "lido": 4632,
      "Selecione": 4633,
      "empa": 4634,
      "ponta": 4635,
      ");": 4636,
      "exibi": 4637,
      "paciente": 4638,
      "houver": 4639,
      "William": 4640,
      "satisfeito": 4641,
      "aves": 4642,
      "Richard": 4643,
      "sexo": 4644,
      "solici": 4645,
      "psi": 4646,
      "céu": 4647,
      "veio": 4648,
      "igreja": 4649,
      "gl": 4650,
      "paixão": 4651,
      "Aval": 4652,
      "zona": 4653,
      "vive": 4654,
      "triste": 4655,
      "próprios": 4656,
      "Park": 4657,
      "fevereiro": 4658,
      "expressar": 4659,
      "medica": 4660,
      "nação": 4661,
      "equili": 4662,
      "Los": 4663,
      "çada": 4664,
      "dividimos": 4665,
      "desfrutar": 4666,
      "recente": 4667,
      "Tur": 4668,
      "onda": 4669,
      "Adicione": 4670,
      "houve": 4671,
      "doce": 4672,
      "marcas": 4673,
      "chel": 4674,
      "nter": 4675,
      "cobertura": 4676,
      "evolu": 4677,
      "trizes": 4678,
      "altas": 4679,
      "lip": 4680,
      "Sen": 4681,
      "War": 4682,
      "necessariamente": 4683,
      "suporte": 4684,
      "lig": 4685,
      "reso": 4686,
      "bru": 4687,
      "aniversário": 4688,
      "próprias": 4689,
      "veículos": 4690,
      "gé": 4691,
      "ches": 4692,
      "permitir": 4693,
      "ficácia": 4694,
      "cep": 4695,
      "dormir": 4696,
      "Fu": 4697,
      "fes": 4698,
      "cuidadosamente": 4699,
      "divertido": 4700,
      "utiliz": 4701,
      "sete": 4702,
      "resultando": 4703,
      "apartamento": 4704,
      "campe": 4705,
      "estufa": 4706,
      "líquido": 4707,
      "cicl": 4708,
      "orientação": 4709,
      "gão": 4710,
      "barco": 4711,
      "Ambos": 4712,
      "espan": 4713,
      "gram": 4714,
      "monta": 4715,
      "errado": 4716,
      "desempenha": 4717,
      "especializa": 4718,
      "escrevendo": 4719,
      "minhas": 4720,
      "Ken": 4721,
      "600": 4722,
      "mões": 4723,
      "visitantes": 4724,
      "Nas": 4725,
      "aplicativos": 4726,
      "hip": 4727,
      "perdeu": 4728,
      "Muitas": 4729,
      "tempesta": 4730,
      "operações": 4731,
      "começaram": 4732,
      "Coreia": 4733,
      "localizada": 4734,
      "pensando": 4735,
      "canto": 4736,
      "tente": 4737,
      "detec": 4738,
      "Pr": 4739,
      "geração": 4740,
      "unifor": 4741,
      "taria": 4742,
      "tuais": 4743,
      "segurando": 4744,
      "férias": 4745,
      "figura": 4746,
      "explici": 4747,
      "gira": 4748,
      "acontecer": 4749,
      "sexta": 4750,
      "seleção": 4751,
      "anal": 4752,
      "Canad": 4753,
      "Analisar": 4754,
      "eletri": 4755,
      "modo": 4756,
      "Canadá": 4757,
      "troca": 4758,
      "quarta": 4759,
      "lio": 4760,
      "iniciativas": 4761,
      "ressos": 4762,
      "Deus": 4763,
      "faculdade": 4764,
      "Ash": 4765,
      "cumpri": 4766,
      "desejo": 4767,
      "narrativa": 4768,
      "acadê": 4769,
      "Carol": 4770,
      "mensagens": 4771,
      "TI": 4772,
      "andar": 4773,
      "mesmas": 4774,
      "parecem": 4775,
      "escreva": 4776,
      "processa": 4777,
      "34": 4778,
      "eficácia": 4779,
      "edifícios": 4780,
      "gênio": 4781,
      "pares": 4782,
      "consumi": 4783,
      "refeição": 4784,
      "efe": 4785,
      "consi": 4786,
      "companh": 4787,
      "amizade": 4788,
      "pulmões": 4789,
      "micro": 4790,
      "Ok": 4791,
      "sintomas": 4792,
      "União": 4793,
      "aplicação": 4794,
      "janela": 4795,
      "guer": 4796,
      "cinemato": 4797,
      "resultar": 4798,
      "wns": 4799,
      "felizmente": 4800,
      "fen": 4801,
      "síveis": 4802,
      "ficados": 4803,
      "resi": 4804,
      "Pesso": 4805,
      "deveria": 4806,
      "anún": 4807,
      "log": 4808,
      "pássaros": 4809,
      "leis": 4810,
      "ouvi": 4811,
      "ândia": 4812,
      "testes": 4813,
      "selvagem": 4814,
      "ason": 4815,
      "wer": 4816,
      "lojas": 4817,
      "cker": 4818,
      "Revisão": 4819,
      "carvão": 4820,
      "2010": 4821,
      "levanta": 4822,
      "episó": 4823,
      "roupa": 4824,
      "promoção": 4825,
      "Determine": 4826,
      "princí": 4827,
      "colaboração": 4828,
      "text": 4829,
      "contin": 4830,
      "Sol": 4831,
      "chocolate": 4832,
      "cionado": 4833,
      "viaja": 4834,
      "renda": 4835,
      "cere": 4836,
      "letas": 4837,
      "ficas": 4838,
      "ic": 4839,
      "Tre": 4840,
      "amplamente": 4841,
      "Procu": 4842,
      "viagens": 4843,
      "recentemente": 4844,
      "2012": 4845,
      "iso": 4846,
      "ndos": 4847,
      "altos": 4848,
      "setor": 4849,
      "Stre": 4850,
      "comumente": 4851,
      "partida": 4852,
      "esperando": 4853,
      "monito": 4854,
      "cool": 4855,
      "bair": 4856,
      "Star": 4857,
      "fornecendo": 4858,
      "superar": 4859,
      "lembrar": 4860,
      "razoável": 4861,
      "tornaram": 4862,
      "interior": 4863,
      "Processo": 4864,
      "consegue": 4865,
      "permanece": 4866,
      "peixe": 4867,
      "composto": 4868,
      "nascido": 4869,
      "britânico": 4870,
      "apos": 4871,
      "AR": 4872,
      "incidente": 4873,
      "arro": 4874,
      "yan": 4875,
      "sinais": 4876,
      "limites": 4877,
      "ídas": 4878,
      "Explicação": 4879,
      "OP": 4880,
      "sexual": 4881,
      "quilô": 4882,
      "contas": 4883,
      "avis": 4884,
      "ocas": 4885,
      "continuou": 4886,
      "cant": 4887,
      "38": 4888,
      "vermelha": 4889,
      "molé": 4890,
      "marcou": 4891,
      "mamente": 4892,
      "seca": 4893,
      "Mont": 4894,
      "alização": 4895,
      "inou": 4896,
      "reiv": 4897,
      "pto": 4898,
      "sinal": 4899,
      "Thomas": 4900,
      "acabou": 4901,
      "onald": 4902,
      "Entenda": 4903,
      "inhar": 4904,
      "!!": 4905,
      "out": 4906,
      "culares": 4907,
      "amar": 4908,
      "essores": 4909,
      "titular": 4910,
      "bolas": 4911,
      "conhecer": 4912,
      "times": 4913,
      "expectativas": 4914,
      "tribu": 4915,
      "testa": 4916,
      "explicitamente": 4917,
      "socia": 4918,
      "Prof": 4919,
      "boas": 4920,
      "estival": 4921,
      "tórias": 4922,
      "contribuem": 4923,
      "recipi": 4924,
      "memória": 4925,
      "bura": 4926,
      "acusa": 4927,
      "pacote": 4928,
      "vaz": 4929,
      "votos": 4930,
      "realidade": 4931,
      "core": 4932,
      "compras": 4933,
      "vestido": 4934,
      "2011": 4935,
      "lada": 4936,
      "fórmula": 4937,
      "arquivo": 4938,
      "descrito": 4939,
      "culin": 4940,
      "rádio": 4941,
      "composi": 4942,
      "mesmos": 4943,
      "incl": 4944,
      "dri": 4945,
      "molho": 4946,
      "vender": 4947,
      "duro": 4948,
      "participantes": 4949,
      "domés": 4950,
      "55": 4951,
      "espí": 4952,
      "lhou": 4953,
      "funções": 4954,
      "gica": 4955,
      "exatamente": 4956,
      "inferior": 4957,
      "esporte": 4958,
      "parcer": 4959,
      "icidade": 4960,
      "rec": 4961,
      "Talvez": 4962,
      "Type": 4963,
      "visual": 4964,
      "vemos": 4965,
      "Tw": 4966,
      "Emi": 4967,
      "Texas": 4968,
      "brilhante": 4969,
      "embal": 4970,
      "sing": 4971,
      "tecido": 4972,
      "zado": 4973,
      "recuperar": 4974,
      "menta": 4975,
      "seriam": 4976,
      "lembre": 4977,
      "preocupação": 4978,
      "míni": 4979,
      "pesca": 4980,
      "Smith": 4981,
      "muita": 4982,
      "ganho": 4983,
      "pediu": 4984,
      "chor": 4985,
      "bact": 4986,
      "bactérias": 4987,
      "eses": 4988,
      "resga": 4989,
      "ruim": 4990,
      "prima": 4991,
      "resolução": 4992,
      "vantagem": 4993,
      "Muitos": 4994,
      "concentrar": 4995,
      "cardí": 4996,
      "Jos": 4997,
      "anteriores": 4998,
      "embar": 4999,
      "inverno": 5000,
      "configurar": 5001,
      "Pesqu": 5002,
      "começam": 5003,
      "incên": 5004,
      "respec": 5005,
      "transmite": 5006,
      "tring": 5007,
      "possamos": 5008,
      "pobre": 5009,
      "indicação": 5010,
      "nais": 5011,
      "consistente": 5012,
      "2014": 5013,
      "soldados": 5014,
      "conveni": 5015,
      "gicamente": 5016,
      "internacionais": 5017,
      "Gr": 5018,
      "notas": 5019,
      "0000": 5020,
      "gios": 5021,
      "compara": 5022,
      "correspon": 5023,
      "discutir": 5024,
      "bisco": 5025,
      "conqu": 5026,
      "2013": 5027,
      "agricultura": 5028,
      "regularmente": 5029,
      "mecan": 5030,
      "constante": 5031,
      "julgamento": 5032,
      "prati": 5033,
      "book": 5034,
      "sentiu": 5035,
      "seres": 5036,
      "andando": 5037,
      "familiares": 5038,
      "descobriu": 5039,
      "ies": 5040,
      "dição": 5041,
      "31": 5042,
      "crime": 5043,
      "Japão": 5044,
      "sey": 5045,
      "adqui": 5046,
      "cré": 5047,
      "impulsi": 5048,
      "xícara": 5049,
      "status": 5050,
      "descoberta": 5051,
      "montanha": 5052,
      "coleção": 5053,
      "bolsa": 5054,
      "gest": 5055,
      "ninguém": 5056,
      "aberto": 5057,
      "ight": 5058,
      "didade": 5059,
      "Lin": 5060,
      "ângu": 5061,
      "eficazes": 5062,
      "bendo": 5063,
      "servir": 5064,
      "atingir": 5065,
      "retorna": 5066,
      "Cria": 5067,
      "envolvido": 5068,
      "espectadores": 5069,
      "estratégia": 5070,
      "cursos": 5071,
      "requisitos": 5072,
      "executar": 5073,
      "areia": 5074,
      "2015": 5075,
      "ple": 5076,
      "Seus": 5077,
      "camada": 5078,
      "bibliote": 5079,
      "éticos": 5080,
      "agricul": 5081,
      "México": 5082,
      "!\"": 5083,
      "bat": 5084,
      "Sus": 5085,
      "defici": 5086,
      "bir": 5087,
      "gro": 5088,
      "pano": 5089,
      "certas": 5090,
      "esquerda": 5091,
      "cai": 5092,
      "temperaturas": 5093,
      "publica": 5094,
      "food": 5095,
      "deus": 5096,
      "Sto": 5097,
      "pios": 5098,
      "comprome": 5099,
      "financeira": 5100,
      "conflitos": 5101,
      "radia": 5102,
      "reconhecer": 5103,
      "quint": 5104,
      "gerente": 5105,
      "Opção": 5106,
      "governos": 5107,
      "implementação": 5108,
      "sapatos": 5109,
      "Cou": 5110,
      "nessa": 5111,
      "orçamento": 5112,
      "stri": 5113,
      "parceiro": 5114,
      "sopa": 5115,
      "Jane": 5116,
      "tribunal": 5117,
      "cionamento": 5118,
      "vantagens": 5119,
      "onças": 5120,
      "ntico": 5121,
      "verdadeiro": 5122,
      "equipamentos": 5123,
      "raram": 5124,
      "abertura": 5125,
      "melhoria": 5126,
      "??": 5127,
      "rian": 5128,
      "quilômetros": 5129,
      "voo": 5130,
      "Harry": 5131,
      "repu": 5132,
      "Francis": 5133,
      "set": 5134,
      "apaixona": 5135,
      "rejei": 5136,
      "recurso": 5137,
      "tróleo": 5138,
      "die": 5139,
      "ung": 5140,
      "poni": 5141,
      "AC": 5142,
      "Minha": 5143,
      "perguntando": 5144,
      "hire": 5145,
      "tralia": 5146,
      "meia": 5147,
      "ônico": 5148,
      "Gere": 5149,
      "rotina": 5150,
      "gico": 5151,
      "cére": 5152,
      "restri": 5153,
      "elemento": 5154,
      "faça": 5155,
      "Comparar": 5156,
      "palco": 5157,
      "Her": 5158,
      "professores": 5159,
      "Instruções": 5160,
      "Sco": 5161,
      "item": 5162,
      "controlar": 5163,
      "eiramente": 5164,
      "restau": 5165,
      "modi": 5166,
      "cavalo": 5167,
      "gê": 5168,
      "aqu": 5169,
      "refeições": 5170,
      "feitas": 5171,
      "ville": 5172,
      "Whi": 5173,
      "garante": 5174,
      "barra": 5175,
      "India": 5176,
      "Men": 5177,
      "lápis": 5178,
      "proprietário": 5179,
      "emocionante": 5180,
      "xar": 5181,
      "envolvendo": 5182,
      "Deixe": 5183,
      "oito": 5184,
      "associado": 5185,
      "cura": 5186,
      "ía": 5187,
      "cipe": 5188,
      "obra": 5189,
      "ters": 5190,
      "hidro": 5191,
      "eva": 5192,
      "assus": 5193,
      "up": 5194,
      "nele": 5195,
      "Cus": 5196,
      "recomen": 5197,
      "colh": 5198,
      "ízes": 5199,
      "reunir": 5200,
      "vador": 5201,
      "off": 5202,
      "aconse": 5203,
      "mante": 5204,
      "petróleo": 5205,
      "segundos": 5206,
      "respiração": 5207,
      "aquecimento": 5208,
      "candidato": 5209,
      "profunda": 5210,
      "origem": 5211,
      "ng": 5212,
      "conservação": 5213,
      "cky": 5214,
      "estudante": 5215,
      "lama": 5216,
      "comentário": 5217,
      "compreender": 5218,
      "costas": 5219,
      "temente": 5220,
      "deser": 5221,
      "supri": 5222,
      "preparar": 5223,
      "associados": 5224,
      "tulos": 5225,
      "simpli": 5226,
      "ácido": 5227,
      "gindo": 5228,
      "ore": 5229,
      "danifica": 5230,
      "téria": 5231,
      "álcool": 5232,
      "eletricidade": 5233,
      "comerciais": 5234,
      "ES": 5235,
      "detalhadas": 5236,
      "ramos": 5237,
      "ambientes": 5238,
      "profundidade": 5239,
      "recicla": 5240,
      "37": 5241,
      "únicas": 5242,
      "minim": 5243,
      "Professor": 5244,
      "dentemente": 5245,
      "favorável": 5246,
      "diram": 5247,
      "queijo": 5248,
      "tenimento": 5249,
      "bebidas": 5250,
      "democra": 5251,
      "Blu": 5252,
      "web": 5253,
      "alia": 5254,
      "tanha": 5255,
      "fortemente": 5256,
      "aluno": 5257,
      "combustível": 5258,
      "Robin": 5259,
      "aer": 5260,
      "bert": 5261,
      "retorno": 5262,
      "entrega": 5263,
      "passageiros": 5264,
      "cadeira": 5265,
      "gostam": 5266,
      "isebol": 5267,
      "órias": 5268,
      "segre": 5269,
      "Max": 5270,
      "tinta": 5271,
      "gni": 5272,
      "ID": 5273,
      "inn": 5274,
      "concorda": 5275,
      "Dar": 5276,
      "esp": 5277,
      "exter": 5278,
      "ecológi": 5279,
      "notável": 5280,
      "dinâ": 5281,
      "úteis": 5282,
      "Jor": 5283,
      "cimentos": 5284,
      "conectar": 5285,
      "úme": 5286,
      "prome": 5287,
      "abando": 5288,
      "empregos": 5289,
      "oficiais": 5290,
      "assistência": 5291,
      "Rússia": 5292,
      "fortale": 5293,
      "hábi": 5294,
      "chamar": 5295,
      "arm": 5296,
      "pita": 5297,
      "sozinho": 5298,
      "chamadas": 5299,
      "his": 5300,
      "sugerir": 5301,
      "financiamento": 5302,
      "cientistas": 5303,
      "amare": 5304,
      "yn": 5305,
      "banho": 5306,
      "irmãos": 5307,
      "izado": 5308,
      "Tudo": 5309,
      "tária": 5310,
      "ron": 5311,
      "cobre": 5312,
      "ders": 5313,
      "gostaria": 5314,
      "terminar": 5315,
      "sustentabilidade": 5316,
      "divisão": 5317,
      "estilos": 5318,
      "Bem": 5319,
      "work": 5320,
      "treinador": 5321,
      "anual": 5322,
      "dúvida": 5323,
      "úcle": 5324,
      "revela": 5325,
      "diminuição": 5326,
      "inteligência": 5327,
      "mpa": 5328,
      "cane": 5329,
      "afeta": 5330,
      "piscina": 5331,
      "disponi": 5332,
      "excep": 5333,
      "ye": 5334,
      "costuma": 5335,
      "Don": 5336,
      "pat": 5337,
      "verdes": 5338,
      "TD": 5339,
      "hat": 5340,
      "esportes": 5341,
      "Donald": 5342,
      "continuam": 5343,
      "recusa": 5344,
      "ls": 5345,
      "ridade": 5346,
      "recém": 5347,
      "atType": 5348,
      "diria": 5349,
      "Lan": 5350,
      "gí": 5351,
      "completar": 5352,
      "gr": 5353,
      "visível": 5354,
      "maravi": 5355,
      "39": 5356,
      "picamente": 5357,
      "envolvente": 5358,
      "campos": 5359,
      "sede": 5360,
      "cks": 5361,
      "illy": 5362,
      "Scho": 5363,
      "vidro": 5364,
      "Verifique": 5365,
      "atraente": 5366,
      "bama": 5367,
      "fio": 5368,
      "2009": 5369,
      "impactando": 5370,
      "entretenimento": 5371,
      "policial": 5372,
      "adquiri": 5373,
      "2008": 5374,
      "deos": 5375,
      "puder": 5376,
      "fronteira": 5377,
      "well": 5378,
      "mular": 5379,
      "cheio": 5380,
      "encontrados": 5381,
      "assa": 5382,
      "America": 5383,
      "bios": 5384,
      "Servi": 5385,
      "reconhecimento": 5386,
      "beisebol": 5387,
      "regulares": 5388,
      "Entre": 5389,
      "Nen": 5390,
      "navegar": 5391,
      "proba": 5392,
      "tensão": 5393,
      "corpos": 5394,
      "página": 5395,
      "éis": 5396,
      "65": 5397,
      "sacos": 5398,
      "congela": 5399,
      "correto": 5400,
      "ajudará": 5401,
      "pedido": 5402,
      "Bal": 5403,
      "ther": 5404,
      "sites": 5405,
      "ataques": 5406,
      "duração": 5407,
      "CD": 5408,
      "transi": 5409,
      "clare": 5410,
      "confirma": 5411,
      "assuntos": 5412,
      "turn": 5413,
      "pô": 5414,
      "Angeles": 5415,
      "violência": 5416,
      "europe": 5417,
      "Paris": 5418,
      "avanços": 5419,
      "acrescent": 5420,
      "Casa": 5421,
      "medicamentos": 5422,
      "unidades": 5423,
      "composição": 5424,
      "circuns": 5425,
      "tomou": 5426,
      "núcle": 5427,
      "considerando": 5428,
      "ônio": 5429,
      "2016": 5430,
      "vendeu": 5431,
      "tte": 5432,
      "Dani": 5433,
      "fazenda": 5434,
      "mantendo": 5435,
      "escolhe": 5436,
      "receitas": 5437,
      "química": 5438,
      "conduz": 5439,
      "vita": 5440,
      "Red": 5441,
      "Bretanha": 5442,
      "aberta": 5443,
      "miti": 5444,
      "determinação": 5445,
      "1000": 5446,
      "inferir": 5447,
      "Bel": 5448,
      "Dou": 5449,
      "músculos": 5450,
      "encora": 5451,
      "Condado": 5452,
      "perfeito": 5453,
      "felizes": 5454,
      "terceira": 5455,
      "filtra": 5456,
      "performances": 5457,
      "plástico": 5458,
      "tocar": 5459,
      "lavar": 5460,
      "perguntar": 5461,
      "nesse": 5462,
      "Itá": 5463,
      "vete": 5464,
      "Itália": 5465,
      "intenção": 5466,
      "mostrando": 5467,
      "ak": 5468,
      "exército": 5469,
      "tentou": 5470,
      "Era": 5471,
      "aul": 5472,
      "pagamento": 5473,
      "Espe": 5474,
      "estabelecimento": 5475,
      "nuclear": 5476,
      "totais": 5477,
      "cedo": 5478,
      "comercial": 5479,
      "AP": 5480,
      "instalações": 5481,
      "daque": 5482,
      "Charles": 5483,
      "Van": 5484,
      "eatType": 5485,
      "panela": 5486,
      "mantém": 5487,
      "trabalhou": 5488,
      "garrafa": 5489,
      "tranqui": 5490,
      "podia": 5491,
      "fósseis": 5492,
      "instituições": 5493,
      "Chica": 5494,
      "jeira": 5495,
      "Partido": 5496,
      "examinar": 5497,
      "gações": 5498,
      "Duas": 5499,
      "gração": 5500,
      "orgu": 5501,
      "indicando": 5502,
      "dney": 5503,
      "multidão": 5504,
      "interrom": 5505,
      "Sra": 5506,
      "190": 5507,
      "diplo": 5508,
      "tape": 5509,
      "Conclu": 5510,
      "relógi": 5511,
      "Grã": 5512,
      "ER": 5513,
      "Brown": 5514,
      "instalação": 5515,
      "--": 5516,
      "estejam": 5517,
      "precisos": 5518,
      "surpreen": 5519,
      "oferecendo": 5520,
      "terça": 5521,
      "determinada": 5522,
      "League": 5523,
      "entrou": 5524,
      "ning": 5525,
      "envolvem": 5526,
      "salvar": 5527,
      "agi": 5528,
      "técnica": 5529,
      "abel": 5530,
      "Presidente": 5531,
      "educacional": 5532,
      "proemin": 5533,
      "corridas": 5534,
      "caminhão": 5535,
      "tipicamente": 5536,
      "instru": 5537,
      "gratu": 5538,
      "colocou": 5539,
      "Chicago": 5540,
      "viajar": 5541,
      "digital": 5542,
      "juntar": 5543,
      "variar": 5544,
      "magn": 5545,
      "quão": 5546,
      "gel": 5547,
      "Vic": 5548,
      "escritor": 5549,
      "azu": 5550,
      "Dra": 5551,
      "Roy": 5552,
      "moderna": 5553,
      "lize": 5554,
      "formou": 5555,
      "ponha": 5556,
      "enga": 5557,
      "liberdade": 5558,
      "\":": 5559,
      "Fil": 5560,
      "pula": 5561,
      "gura": 5562,
      "telo": 5563,
      "Fun": 5564,
      "enviar": 5565,
      "ramento": 5566,
      "pernas": 5567,
      "cérebro": 5568,
      "tigela": 5569,
      "õe": 5570,
      "habilidade": 5571,
      "ciado": 5572,
      "enorme": 5573,
      "perguntou": 5574,
      "Tran": 5575,
      "Intro": 5576,
      "800": 5577,
      "44": 5578,
      "adver": 5579,
      "Conse": 5580,
      "Imag": 5581,
      "Martin": 5582,
      "ecossistemas": 5583,
      "pesquisar": 5584,
      "primo": 5585,
      "ingressos": 5586,
      "afetará": 5587,
      "expressão": 5588,
      "pedaços": 5589,
      "eiga": 5590,
      "Império": 5591,
      "positivas": 5592,
      "distribuição": 5593,
      "Black": 5594,
      "apropriado": 5595,
      "contraste": 5596,
      "dessa": 5597,
      "memor": 5598,
      "Exército": 5599,
      "cartão": 5600,
      "pain": 5601,
      "queda": 5602,
      "pintura": 5603,
      "Natal": 5604,
      "Total": 5605,
      "populações": 5606,
      "exigem": 5607,
      "lentamente": 5608,
      "mata": 5609,
      "biscoitos": 5610,
      "Bus": 5611,
      "recentes": 5612,
      "chapé": 5613,
      "nervos": 5614,
      "reduzindo": 5615,
      "conhece": 5616,
      "participação": 5617,
      "titude": 5618,
      "amplo": 5619,
      "quentes": 5620,
      "cartas": 5621,
      "permitiu": 5622,
      "Igre": 5623,
      "bateria": 5624,
      "profundamente": 5625,
      "impressão": 5626,
      "fator": 5627,
      "nado": 5628,
      "seguros": 5629,
      "matem": 5630,
      "prés": 5631,
      "contem": 5632,
      "Extra": 5633,
      "pega": 5634,
      "cachor": 5635,
      "atender": 5636,
      "substituir": 5637,
      "tua": 5638,
      "Vir": 5639,
      "balan": 5640,
      "automa": 5641,
      "mortos": 5642,
      "kes": 5643,
      "jamento": 5644,
      "testar": 5645,
      "agente": 5646,
      "modelos": 5647,
      "reprodução": 5648,
      "ball": 5649,
      "....": 5650,
      "entar": 5651,
      "zza": 5652,
      "primeiras": 5653,
      "transmitem": 5654,
      "IV": 5655,
      "ativa": 5656,
      "sentado": 5657,
      "cke": 5658,
      "Jason": 5659,
      "disseram": 5660,
      "mister": 5661,
      "passeio": 5662,
      "esten": 5663,
      "forneceu": 5664,
      "mundial": 5665,
      "limpo": 5666,
      "verbo": 5667,
      "seção": 5668,
      "narrador": 5669,
      "pássaro": 5670,
      "correntes": 5671,
      "válida": 5672,
      "óculos": 5673,
      "agres": 5674,
      "afas": 5675,
      "rias": 5676,
      "colon": 5677,
      "Bran": 5678,
      "Fer": 5679,
      "universidade": 5680,
      "Procure": 5681,
      "moléculas": 5682,
      "low": 5683,
      "cobri": 5684,
      "escapar": 5685,
      "correu": 5686,
      "caminhada": 5687,
      "íamos": 5688,
      "Nick": 5689,
      "veículo": 5690,
      "conexões": 5691,
      "remoto": 5692,
      "acessível": 5693,
      "olho": 5694,
      "circunstâncias": 5695,
      "mecâ": 5696,
      "fantas": 5697,
      "frango": 5698,
      "letras": 5699,
      "profundo": 5700,
      "Daniel": 5701,
      "drama": 5702,
      "demais": 5703,
      "legis": 5704,
      "famoso": 5705,
      "nton": 5706,
      "reputação": 5707,
      "industria": 5708,
      "infant": 5709,
      "gual": 5710,
      "istros": 5711,
      "minuto": 5712,
      "concentra": 5713,
      "reações": 5714,
      "St": 5715,
      "sím": 5716,
      "posterior": 5717,
      "condena": 5718,
      "Mant": 5719,
      "torná": 5720,
      "idar": 5721,
      "Sant": 5722,
      "Sch": 5723,
      "explos": 5724,
      "advogado": 5725,
      "máquinas": 5726,
      "persegui": 5727,
      "Mos": 5728,
      "cidad": 5729,
      "amigável": 5730,
      "incorporar": 5731,
      "acompanha": 5732,
      "Person": 5733,
      "críticas": 5734,
      "insetos": 5735,
      "destina": 5736,
      "zi": 5737,
      "negativas": 5738,
      "World": 5739,
      "dras": 5740,
      "evolução": 5741,
      "indústri": 5742,
      "indústrias": 5743,
      "tários": 5744,
      "aventura": 5745,
      "ímos": 5746,
      "fábri": 5747,
      "recomendações": 5748,
      "certifique": 5749,
      "Igreja": 5750,
      "lava": 5751,
      "gadores": 5752,
      "mado": 5753,
      "efetivamente": 5754,
      "42": 5755,
      "gie": 5756,
      "gramas": 5757,
      "Bet": 5758,
      "Rus": 5759,
      "eri": 5760,
      "mencionados": 5761,
      "alo": 5762,
      "científica": 5763,
      "agrícolas": 5764,
      "manteiga": 5765,
      "Constru": 5766,
      "branca": 5767,
      "ue": 5768,
      "referência": 5769,
      "estabilidade": 5770,
      "meios": 5771,
      "Green": 5772,
      "refor": 5773,
      "umidade": 5774,
      "clar": 5775,
      "pulação": 5776,
      "direita": 5777,
      "gravidade": 5778,
      "lixo": 5779,
      "port": 5780,
      "bande": 5781,
      "namorada": 5782,
      "cento": 5783,
      "basquete": 5784,
      "aumentando": 5785,
      "Bow": 5786,
      "distrito": 5787,
      "Ásia": 5788,
      "atuais": 5789,
      "arquivos": 5790,
      ":\"": 5791,
      "Imagine": 5792,
      "artigos": 5793,
      "fusão": 5794,
      "racha": 5795,
      "ótima": 5796,
      "Compare": 5797,
      "passada": 5798,
      "tio": 5799,
      "zou": 5800,
      "cortar": 5801,
      "gers": 5802,
      "noi": 5803,
      "reiras": 5804,
      "elabo": 5805,
      "recomendação": 5806,
      "registra": 5807,
      "recorde": 5808,
      "tic": 5809,
      "\".,": 5810,
      "banheiro": 5811,
      "Fl": 5812,
      "Trabal": 5813,
      "resili": 5814,
      "concis": 5815,
      "metas": 5816,
      "2007": 5817,
      "Dist": 5818,
      "lição": 5819,
      "imu": 5820,
      "landa": 5821,
      "declí": 5822,
      "vite": 5823,
      "impressionante": 5824,
      "mano": 5825,
      "urban": 5826,
      "benefi": 5827,
      "ígenas": 5828,
      "iner": 5829,
      "Ros": 5830,
      "motorista": 5831,
      "paisagem": 5832,
      "guitarra": 5833,
      "Mesmo": 5834,
      "universi": 5835,
      "úmeras": 5836,
      "públicos": 5837,
      "AM": 5838,
      "Considerando": 5839,
      "Continu": 5840,
      "unda": 5841,
      "projetado": 5842,
      "amiga": 5843,
      "caro": 5844,
      "provo": 5845,
      "School": 5846,
      "estúdio": 5847,
      "Parece": 5848,
      "rosa": 5849,
      "espírito": 5850,
      "acessíveis": 5851,
      "leitores": 5852,
      "implementar": 5853,
      "áticos": 5854,
      "crítica": 5855,
      "inúmeras": 5856,
      "ret": 5857,
      "quartos": 5858,
      "núcleo": 5859,
      "Esse": 5860,
      "ponte": 5861,
      "proxim": 5862,
      "animado": 5863,
      "Matt": 5864,
      "Vou": 5865,
      "sibilidade": 5866,
      "preven": 5867,
      "érios": 5868,
      "enfatiza": 5869,
      "implicações": 5870,
      "sequência": 5871,
      "iado": 5872,
      "Christ": 5873,
      "Ryan": 5874,
      "Fri": 5875,
      "criado": 5876,
      "derru": 5877,
      "causando": 5878,
      "atriz": 5879,
      "Ama": 5880,
      "esperado": 5881,
      "piloto": 5882,
      "isto": 5883,
      "lemb": 5884,
      "________": 5885,
      "máximo": 5886,
      "combustíveis": 5887,
      "abrir": 5888,
      "perspectivas": 5889,
      "originalmente": 5890,
      "Tay": 5891,
      "Cur": 5892,
      "engan": 5893,
      "cidadãos": 5894,
      "acam": 5895,
      "interval": 5896,
      "felicidade": 5897,
      "King": 5898,
      "insatisfação": 5899,
      "camadas": 5900,
      "almoço": 5901,
      "assistente": 5902,
      "probabilidade": 5903,
      "nomeado": 5904,
      "sobrevivência": 5905,
      "paredes": 5906,
      "Range": 5907,
      "ascen": 5908,
      "retornar": 5909,
      "aulas": 5910,
      "Edu": 5911,
      "fundos": 5912,
      "gito": 5913,
      "consumidores": 5914,
      "Street": 5915,
      "cuidar": 5916,
      "beber": 5917,
      "FL": 5918,
      "permitem": 5919,
      "remos": 5920,
      "64": 5921,
      "relativamente": 5922,
      "exige": 5923,
      "orit": 5924,
      "2006": 5925,
      "flo": 5926,
      "72": 5927,
      "quiser": 5928,
      "acum": 5929,
      "complexa": 5930,
      "Lar": 5931,
      "ness": 5932,
      "AT": 5933,
      "precisava": 5934,
      "proteínas": 5935,
      "gador": 5936,
      "matéria": 5937,
      "confirmar": 5938,
      "Avaliar": 5939,
      "disponibilidade": 5940,
      "sh": 5941,
      "bons": 5942,
      "Stan": 5943,
      "encontro": 5944,
      "trilha": 5945,
      "```": 5946,
      "realizado": 5947,
      "ficaram": 5948,
      "domingo": 5949,
      "Rei": 5950,
      "onato": 5951,
      "aparentemente": 5952,
      "ônicos": 5953,
      "esma": 5954,
      "sons": 5955,
      "antigos": 5956,
      "constitu": 5957,
      "recuperação": 5958,
      "div": 5959,
      "comparar": 5960,
      "Usando": 5961,
      "negativamente": 5962,
      "lite": 5963,
      "desapare": 5964,
      "relaxa": 5965,
      "dei": 5966,
      "gresso": 5967,
      "mentação": 5968,
      "criou": 5969,
      "gasto": 5970,
      "Mag": 5971,
      "Sir": 5972,
      "mil": 5973,
      "acabar": 5974,
      "gros": 5975,
      "extremamente": 5976,
      "vêm": 5977,
      "afirmação": 5978,
      "Sydney": 5979,
      "levaram": 5980,
      "abran": 5981,
      "king": 5982,
      "tivesse": 5983,
      "fale": 5984,
      "funcionário": 5985,
      "otimi": 5986,
      "gerenciar": 5987,
      "chamados": 5988,
      "Colle": 5989,
      "complexo": 5990,
      "alternativas": 5991,
      "declínio": 5992,
      "proi": 5993,
      "sábado": 5994,
      "respira": 5995,
      "ênis": 5996,
      "grati": 5997,
      "bebida": 5998,
      "bairro": 5999,
      "pizza": 6000,
      "velha": 6001,
      "cera": 6002,
      "stá": 6003,
      "fego": 6004,
      "emy": 6005,
      "latas": 6006,
      "conso": 6007,
      "íncipe": 6008,
      "midade": 6009,
      "raiva": 6010,
      "crist": 6011,
      "genera": 6012,
      "baixos": 6013,
      "tter": 6014,
      "quantidades": 6015,
      "caiu": 6016,
      "vital": 6017,
      "desempenhou": 6018,
      "invas": 6019,
      "FC": 6020,
      "terminou": 6021,
      "eleito": 6022,
      "terras": 6023,
      "estrang": 6024,
      "turismo": 6025,
      "85": 6026,
      "prazer": 6027,
      "difíceis": 6028,
      "Steve": 6029,
      "largura": 6030,
      "Internacional": 6031,
      "Estu": 6032,
      "convidados": 6033,
      "gradualmente": 6034,
      "Emily": 6035,
      "cativa": 6036,
      "sujeito": 6037,
      "assina": 6038,
      "bais": 6039,
      "Jul": 6040,
      "exploração": 6041,
      "elétrica": 6042,
      "Internet": 6043,
      "vonta": 6044,
      "iniciar": 6045,
      "sobe": 6046,
      "App": 6047,
      "haria": 6048,
      "Irlanda": 6049,
      "\"?": 6050,
      "cipl": 6051,
      "gráfico": 6052,
      "teatro": 6053,
      "misteri": 6054,
      "restaura": 6055,
      "vios": 6056,
      "revista": 6057,
      "Prin": 6058,
      "incorreta": 6059,
      "ilus": 6060,
      "trama": 6061,
      "proce": 6062,
      "asi": 6063,
      "musica": 6064,
      "culinária": 6065,
      "Jose": 6066,
      "compostos": 6067,
      "sui": 6068,
      "lutar": 6069,
      "devo": 6070,
      "definir": 6071,
      "críticos": 6072,
      "ref": 6073,
      "cose": 6074,
      "Sho": 6075,
      "Coloque": 6076,
      "transfer": 6077,
      "lizado": 6078,
      "sorte": 6079,
      "argument": 6080,
      "Identi": 6081,
      "moto": 6082,
      "Ko": 6083,
      "Outro": 6084,
      "graus": 6085,
      "corporal": 6086,
      "lâmpa": 6087,
      "Encontre": 6088,
      "Henry": 6089,
      "transmitir": 6090,
      "adolescentes": 6091,
      "sivas": 6092,
      "berg": 6093,
      "regulamentos": 6094,
      "corda": 6095,
      "caracteres": 6096,
      "sentindo": 6097,
      "acontecendo": 6098,
      "estudar": 6099,
      "Conselho": 6100,
      "menção": 6101,
      "Taylor": 6102,
      "dependência": 6103,
      "confiável": 6104,
      "Crie": 6105,
      "ína": 6106,
      "visuais": 6107,
      "labora": 6108,
      "Kim": 6109,
      "perfeita": 6110,
      "Andre": 6111,
      "view": 6112,
      "BA": 6113,
      "personalidade": 6114,
      "celeb": 6115,
      "serviu": 6116,
      "cozinhar": 6117,
      "Bru": 6118,
      "prevenir": 6119,
      "espacial": 6120,
      "composta": 6121,
      "consiste": 6122,
      "citação": 6123,
      "ecossistema": 6124,
      "édia": 6125,
      "placas": 6126,
      "corru": 6127,
      "letra": 6128,
      "alimentares": 6129,
      "refri": 6130,
      "parada": 6131,
      "biblioteca": 6132,
      "mobili": 6133,
      "ntica": 6134,
      "discipl": 6135,
      "ficam": 6136,
      "estudou": 6137,
      "Oce": 6138,
      "pari": 6139,
      "SP": 6140,
      "vontade": 6141,
      "Oli": 6142,
      "180": 6143,
      "montanhas": 6144,
      "exterior": 6145,
      "ativo": 6146,
      "únicos": 6147,
      "voltou": 6148,
      "realização": 6149,
      "Jackson": 6150,
      "Suas": 6151,
      "transpor": 6152,
      "raria": 6153,
      "execução": 6154,
      "quadrados": 6155,
      "XV": 6156,
      "Wi": 6157,
      "sível": 6158,
      "cartões": 6159,
      "plique": 6160,
      "49": 6161,
      "aeroporto": 6162,
      "obstá": 6163,
      "aste": 6164,
      "apresentação": 6165,
      "My": 6166,
      "Associa": 6167,
      "responsáveis": 6168,
      "notáveis": 6169,
      "musicais": 6170,
      "çados": 6171,
      "glicose": 6172,
      "Meu": 6173,
      "Nome": 6174,
      "IN": 6175,
      "possibilidade": 6176,
      "tráfego": 6177,
      "dificuldade": 6178,
      "Está": 6179,
      "//": 6180,
      "alivia": 6181,
      "non": 6182,
      "acele": 6183,
      "expansão": 6184,
      "pedra": 6185,
      "rest": 6186,
      "Cra": 6187,
      "gatos": 6188,
      "encontrada": 6189,
      "lmente": 6190,
      "ganhos": 6191,
      "giram": 6192,
      "placa": 6193,
      "águas": 6194,
      "price": 6195,
      "Jones": 6196,
      "cheia": 6197,
      "bilhe": 6198,
      "habitats": 6199,
      "recipiente": 6200,
      "teira": 6201,
      "aleg": 6202,
      "tendências": 6203,
      "Custo": 6204,
      "dd": 6205,
      "gráficos": 6206,
      "dirigir": 6207,
      "formato": 6208,
      "leitura": 6209,
      "diária": 6210,
      "parou": 6211,
      "religião": 6212,
      "prêmio": 6213,
      "coer": 6214,
      "enfer": 6215,
      "ence": 6216,
      "agricultores": 6217,
      "minera": 6218,
      "ângulo": 6219,
      "ajudando": 6220,
      "aram": 6221,
      "Departamento": 6222,
      "suspen": 6223,
      "Mac": 6224,
      "despes": 6225,
      "luxo": 6226,
      "Resumir": 6227,
      "forno": 6228,
      "discurso": 6229,
      "ji": 6230,
      "2005": 6231,
      "Tony": 6232,
      "conversas": 6233,
      "hol": 6234,
      "independente": 6235,
      "Bi": 6236,
      "rael": 6237,
      "beth": 6238,
      "Primeira": 6239,
      "Face": 6240,
      "gerenciamento": 6241,
      "vítimas": 6242,
      "Sub": 6243,
      "andy": 6244,
      "româ": 6245,
      "célula": 6246,
      "Cos": 6247,
      "firmou": 6248,
      "contribuições": 6249,
      "sugestão": 6250,
      "lançou": 6251,
      "ritmo": 6252,
      "Big": 6253,
      "dens": 6254,
      "consegu": 6255,
      "diante": 6256,
      "dificuldades": 6257,
      "ap": 6258,
      "istindo": 6259,
      "juntas": 6260,
      "recebendo": 6261,
      "australia": 6262,
      "Fin": 6263,
      "estrei": 6264,
      "fraque": 6265,
      "sorvete": 6266,
      "representação": 6267,
      "88": 6268,
      "OS": 6269,
      "enso": 6270,
      "performance": 6271,
      "Sky": 6272,
      "borda": 6273,
      "Francisco": 6274,
      "destes": 6275,
      "tempestade": 6276,
      "aerona": 6277,
      "depressão": 6278,
      "Air": 6279,
      "usos": 6280,
      "multiplica": 6281,
      "lutando": 6282,
      "\\):": 6283,
      "morta": 6284,
      "cogni": 6285,
      "energias": 6286,
      "CP": 6287,
      "Eri": 6288,
      "mine": 6289,
      "atores": 6290,
      "ocorrer": 6291,
      "oferta": 6292,
      "aper": 6293,
      "edição": 6294,
      "favorito": 6295,
      "estranho": 6296,
      "colabora": 6297,
      "futuras": 6298,
      "duí": 6299,
      "privacidade": 6300,
      "devemos": 6301,
      "perigo": 6302,
      "wor": 6303,
      "\"\"": 6304,
      ".;": 6305,
      "istério": 6306,
      "pole": 6307,
      "flex": 6308,
      "Gru": 6309,
      "visu": 6310,
      "dison": 6311,
      "vare": 6312,
      "lhares": 6313,
      "praticar": 6314,
      "gerais": 6315,
      "asse": 6316,
      "pegou": 6317,
      "elho": 6318,
      "transição": 6319,
      "radiação": 6320,
      "Dor": 6321,
      "suponha": 6322,
      "períodos": 6323,
      "mencionada": 6324,
      "saco": 6325,
      "terrâne": 6326,
      "%,": 6327,
      "possivelmente": 6328,
      "numa": 6329,
      "(\\": 6330,
      "civil": 6331,
      "Windo": 6332,
      "garrafas": 6333,
      "espiri": 6334,
      "semelhan": 6335,
      "princípios": 6336,
      "pun": 6337,
      "Hill": 6338,
      "interação": 6339,
      "indicar": 6340,
      "obs": 6341,
      "salário": 6342,
      "mercados": 6343,
      "lam": 6344,
      "perde": 6345,
      "Três": 6346,
      "emergência": 6347,
      "conhecidas": 6348,
      "Comece": 6349,
      "lizada": 6350,
      "cinematográfica": 6351,
      ".)": 6352,
      "lingu": 6353,
      "Espanha": 6354,
      "derra": 6355,
      "juda": 6356,
      "Bay": 6357,
      "óis": 6358,
      "poderá": 6359,
      "Ray": 6360,
      "cela": 6361,
      "color": 6362,
      "turnê": 6363,
      "descar": 6364,
      "assis": 6365,
      "Melhor": 6366,
      "permiti": 6367,
      "2017": 6368,
      "saiu": 6369,
      "financeiro": 6370,
      "áto": 6371,
      "priceRange": 6372,
      "Stu": 6373,
      "visões": 6374,
      "emprés": 6375,
      "rigor": 6376,
      "fita": 6377,
      "ily": 6378,
      "Bos": 6379,
      "pop": 6380,
      "wan": 6381,
      "sonhos": 6382,
      "rur": 6383,
      "gastou": 6384,
      "House": 6385,
      "gestões": 6386,
      "Patri": 6387,
      "inim": 6388,
      "arroz": 6389,
      "percent": 6390,
      "1980": 6391,
      "vídeos": 6392,
      "Preço": 6393,
      "relógio": 6394,
      "diretrizes": 6395,
      "ouvido": 6396,
      "rinho": 6397,
      "rob": 6398,
      "let": 6399,
      "May": 6400,
      "emi": 6401,
      "utilizar": 6402,
      "engra": 6403,
      "provín": 6404,
      "atrair": 6405,
      "yle": 6406,
      "Resumo": 6407,
      "dispu": 6408,
      "Congresso": 6409,
      "colocado": 6410,
      "inúmer": 6411,
      "genética": 6412,
      "inúmeros": 6413,
      "leitor": 6414,
      "Liga": 6415,
      "Pesquisa": 6416,
      "Atra": 6417,
      "elenco": 6418,
      "laranja": 6419,
      "teu": 6420,
      "iram": 6421,
      "encanta": 6422,
      "úmi": 6423,
      "Copa": 6424,
      "memórias": 6425,
      "56": 6426,
      "quantia": 6427,
      "africa": 6428,
      "tomando": 6429,
      "pus": 6430,
      "guel": 6431,
      "Jesse": 6432,
      "tualmente": 6433,
      "clama": 6434,
      "itch": 6435,
      "vencedor": 6436,
      "Espero": 6437,
      "erosão": 6438,
      "venceu": 6439,
      "restaurantes": 6440,
      "pronto": 6441,
      "República": 6442,
      "cachorro": 6443,
      "acomo": 6444,
      "usá": 6445,
      "galões": 6446,
      "especialistas": 6447,
      "dedicação": 6448,
      "gente": 6449,
      "dividir": 6450,
      "Mundo": 6451,
      "funcionar": 6452,
      "habitat": 6453,
      "históricos": 6454,
      "senhora": 6455,
      "borbo": 6456,
      "proporcionar": 6457,
      "meditação": 6458,
      "teoria": 6459,
      "rindo": 6460,
      "naquela": 6461,
      "Windows": 6462,
      "Billy": 6463,
      "nidade": 6464,
      "9999": 6465,
      "interações": 6466,
      "estat": 6467,
      "mencionam": 6468,
      "comando": 6469,
      "vira": 6470,
      "cú": 6471,
      "Trans": 6472,
      "interessado": 6473,
      "oft": 6474,
      "oz": 6475,
      "vice": 6476,
      "avaliações": 6477,
      "esperada": 6478,
      "vermelhos": 6479,
      "realizada": 6480,
      "Cre": 6481,
      "sugestões": 6482,
      "habitantes": 6483,
      "UE": 6484,
      "jou": 6485,
      "ather": 6486,
      "substâncias": 6487,
      "conselhos": 6488,
      "azuis": 6489,
      "cob": 6490,
      "diminuir": 6491,
      "Combine": 6492,
      "Clu": 6493,
      "reú": 6494,
      "pura": 6495,
      "Louis": 6496,
      "Brian": 6497,
      "ala": 6498,
      "ntese": 6499,
      "más": 6500,
      "assassino": 6501,
      "ôn": 6502,
      "pacotes": 6503,
      "apresentado": 6504,
      "respondida": 6505,
      "pt": 6506,
      "Possíveis": 6507,
      "CA": 6508,
      "dirigido": 6509,
      "Central": 6510,
      "comédia": 6511,
      "Pau": 6512,
      "Vin": 6513,
      "levantar": 6514,
      "preda": 6515,
      "acreditam": 6516,
      "izada": 6517,
      "Dire": 6518,
      "discussão": 6519,
      "adequados": 6520,
      "trouxe": 6521,
      "gentes": 6522,
      "cantes": 6523,
      "adolescente": 6524,
      "suco": 6525,
      "minerais": 6526,
      "mart": 6527,
      "gostos": 6528,
      "Mad": 6529,
      "impostos": 6530,
      "Ameri": 6531,
      "Johnny": 6532,
      "zados": 6533,
      "Porcentagem": 6534,
      "Camer": 6535,
      "hes": 6536,
      "tical": 6537,
      "colega": 6538,
      "cirur": 6539,
      "arquitetura": 6540,
      "refu": 6541,
      "panhas": 6542,
      "Outros": 6543,
      "horr": 6544,
      "sanduí": 6545,
      "Tempo": 6546,
      "consta": 6547,
      "mostrou": 6548,
      "She": 6549,
      "consciente": 6550,
      "tênis": 6551,
      "Blue": 6552,
      "reserva": 6553,
      "cerim": 6554,
      "3333": 6555,
      "memente": 6556,
      "ensina": 6557,
      "tradições": 6558,
      "ólica": 6559,
      "receberá": 6560,
      "acampa": 6561,
      "popularidade": 6562,
      "fabricação": 6563,
      "monte": 6564,
      "1990": 6565,
      "físicas": 6566,
      "Austin": 6567,
      "elec": 6568,
      "batatas": 6569,
      "graves": 6570,
      "discrimin": 6571,
      "Johnson": 6572,
      "décadas": 6573,
      "seg": 6574,
      "fila": 6575,
      "armazenar": 6576,
      "250": 6577,
      "Gi": 6578,
      "capitão": 6579,
      "Charlie": 6580,
      "considerados": 6581,
      "mm": 6582,
      "pudesse": 6583,
      "produzido": 6584,
      "volunt": 6585,
      "sabores": 6586,
      "despesas": 6587,
      "rota": 6588,
      "tei": 6589,
      "cção": 6590,
      "tocando": 6591,
      "contribui": 6592,
      "sucedido": 6593,
      "ceiras": 6594,
      "XX": 6595,
      "tons": 6596,
      "mídias": 6597,
      "raízes": 6598,
      "perfeitamente": 6599,
      "indiretamente": 6600,
      "High": 6601,
      "cardía": 6602,
      "cans": 6603,
      "Eliza": 6604,
      "preparação": 6605,
      "autoridade": 6606,
      "Cameron": 6607,
      "FA": 6608,
      "ek": 6609,
      "síntese": 6610,
      "físicos": 6611,
      "órida": 6612,
      "Flórida": 6613,
      "interpretado": 6614,
      "cócia": 6615,
      "vendido": 6616,
      "Mantenha": 6617,
      "federal": 6618,
      "chester": 6619,
      "aconselha": 6620,
      "sessão": 6621,
      "milhares": 6622,
      "95": 6623,
      "Bas": 6624,
      "comercia": 6625,
      "excesso": 6626,
      "Am": 6627,
      "nessas": 6628,
      "pâ": 6629,
      "salva": 6630,
      "solutamente": 6631,
      "Escócia": 6632,
      "Universi": 6633,
      "percentual": 6634,
      "pensou": 6635,
      "moni": 6636,
      "Cro": 6637,
      "crise": 6638,
      "ilhas": 6639,
      "conforme": 6640,
      "1970": 6641,
      "Hall": 6642,
      "pimenta": 6643,
      "alho": 6644,
      "cargo": 6645,
      "incentivar": 6646,
      "move": 6647,
      "lesões": 6648,
      "humanas": 6649,
      "eleições": 6650,
      "origens": 6651,
      "proporciona": 6652,
      "pedaço": 6653,
      "ding": 6654,
      "than": 6655,
      "moedas": 6656,
      "proporcionando": 6657,
      "implementa": 6658,
      "litera": 6659,
      "económico": 6660,
      "cair": 6661,
      "envi": 6662,
      "sigh": 6663,
      "afirmando": 6664,
      "iana": 6665,
      "igas": 6666,
      "repeti": 6667,
      "desempenham": 6668,
      "aplicar": 6669,
      "rever": 6670,
      "National": 6671,
      "rência": 6672,
      "adicione": 6673,
      "Geral": 6674,
      "apel": 6675,
      "bené": 6676,
      "Hoje": 6677,
      "perdido": 6678,
      "agu": 6679,
      "nan": 6680,
      "crédito": 6681,
      "florestas": 6682,
      "46": 6683,
      "moradores": 6684,
      "buraco": 6685,
      "aprende": 6686,
      "títulos": 6687,
      "mago": 6688,
      "Dre": 6689,
      "vendidos": 6690,
      "Holly": 6691,
      "lhão": 6692,
      "cinação": 6693,
      "ístico": 6694,
      "Kel": 6695,
      "ot": 6696,
      "White": 6697,
      "sequest": 6698,
      "enfrentam": 6699,
      "Water": 6700,
      "financeiros": 6701,
      "tópicos": 6702,
      "condado": 6703,
      "conter": 6704,
      "fresco": 6705,
      "subtraímos": 6706,
      "faria": 6707,
      "hei": 6708,
      "ônios": 6709,
      "dimen": 6710,
      "sobreviver": 6711,
      "American": 6712,
      "compositor": 6713,
      "adaptar": 6714,
      "apareceu": 6715,
      "existentes": 6716,
      "Prob": 6717,
      "57": 6718,
      "esqui": 6719,
      "namorado": 6720,
      "zas": 6721,
      "rb": 6722,
      "deixado": 6723,
      "Polí": 6724,
      "pistas": 6725,
      "gara": 6726,
      "organizar": 6727,
      "refrige": 6728,
      "colhe": 6729,
      "bió": 6730,
      "Extraia": 6731,
      "rgu": 6732,
      "pausa": 6733,
      "prim": 6734,
      "alegação": 6735,
      "peu": 6736,
      "Facebook": 6737,
      "patro": 6738,
      "chamou": 6739,
      "kins": 6740,
      "Novo": 6741,
      "om": 6742,
      "Vis": 6743,
      "seguido": 6744,
      "Mur": 6745,
      "levado": 6746,
      "Blo": 6747,
      "italiano": 6748,
      "ude": 6749,
      "descul": 6750,
      "cioso": 6751,
      "queta": 6752,
      "Infelizmente": 6753,
      "late": 6754,
      "tér": 6755,
      "ray": 6756,
      "ving": 6757,
      "cenários": 6758,
      "atualizações": 6759,
      "certamente": 6760,
      "gangue": 6761,
      "candidatos": 6762,
      "pedindo": 6763,
      "mex": 6764,
      "fatias": 6765,
      "policiais": 6766,
      "museu": 6767,
      "equipamento": 6768,
      "centavos": 6769,
      "cavalos": 6770,
      "poucos": 6771,
      "tropas": 6772,
      "mínio": 6773,
      "pratica": 6774,
      "baixas": 6775,
      "vírgu": 6776,
      "brante": 6777,
      "gãos": 6778,
      "ativos": 6779,
      "demi": 6780,
      "trons": 6781,
      "chos": 6782,
      "Jake": 6783,
      "2004": 6784,
      "xícaras": 6785,
      "reino": 6786,
      "compartilham": 6787,
      "ônicas": 6788,
      "estável": 6789,
      "fração": 6790,
      "porâne": 6791,
      "?\",": 6792,
      "sugerindo": 6793,
      "College": 6794,
      "omb": 6795,
      "inteligente": 6796,
      "iano": 6797,
      "complica": 6798,
      "incêndio": 6799,
      "Institu": 6800,
      "sion": 6801,
      "logicamente": 6802,
      "folha": 6803,
      "melhorias": 6804,
      "propen": 6805,
      "constantemente": 6806,
      "Mia": 6807,
      "time": 6808,
      "disco": 6809,
      "alcance": 6810,
      "etc": 6811,
      "campanhas": 6812,
      "elogia": 6813,
      "resiliência": 6814,
      "deiro": 6815,
      "Organ": 6816,
      "AN": 6817,
      "Adicionar": 6818,
      "pesquisadores": 6819,
      "duradou": 6820,
      "considere": 6821,
      "cídio": 6822,
      "machu": 6823,
      "levam": 6824,
      "médica": 6825,
      "inclusão": 6826,
      "ema": 6827,
      "empreen": 6828,
      "toca": 6829,
      "navios": 6830,
      "textura": 6831,
      "gular": 6832,
      "Count": 6833,
      "limitado": 6834,
      "zão": 6835,
      "contêm": 6836,
      "fol": 6837,
      "elevados": 6838,
      "comunicar": 6839,
      "sucedida": 6840,
      "Cho": 6841,
      "amo": 6842,
      "pub": 6843,
      "lento": 6844,
      "igno": 6845,
      "brincando": 6846,
      "põe": 6847,
      "Rela": 6848,
      "ocorrem": 6849,
      "administração": 6850,
      "Alice": 6851,
      "çul": 6852,
      "financeiras": 6853,
      "nomin": 6854,
      "talento": 6855,
      "contam": 6856,
      "gerações": 6857,
      "ruas": 6858,
      "envolvidas": 6859,
      "tanti": 6860,
      "genu": 6861,
      "aventu": 6862,
      "54": 6863,
      "tch": 6864,
      "escra": 6865,
      "substanti": 6866,
      "assentos": 6867,
      "ratos": 6868,
      "iluminação": 6869,
      "algorit": 6870,
      "Pessoa": 6871,
      "minimizar": 6872,
      "tanque": 6873,
      "abelhas": 6874,
      "lutas": 6875,
      "Anna": 6876,
      "reflete": 6877,
      "OK": 6878,
      "positivamente": 6879,
      "existe": 6880,
      "escal": 6881,
      "matemática": 6882,
      "Case": 6883,
      "sess": 6884,
      "ming": 6885,
      "ativamente": 6886,
      "ril": 6887,
      "aceita": 6888,
      "entos": 6889,
      "rotu": 6890,
      "adulto": 6891,
      "Adam": 6892,
      "ligação": 6893,
      "dece": 6894,
      "Reg": 6895,
      "Leo": 6896,
      "apresentou": 6897,
      "vinho": 6898,
      "presas": 6899,
      "iden": 6900,
      "gumes": 6901,
      "sau": 6902,
      "ensaio": 6903,
      "Outra": 6904,
      "ficção": 6905,
      "construído": 6906,
      "representar": 6907,
      "introdução": 6908,
      "ervas": 6909,
      "fundada": 6910,
      "falha": 6911,
      "Andy": 6912,
      "estações": 6913,
      "Porque": 6914,
      "noti": 6915,
      "SE": 6916,
      "estere": 6917,
      "religiosas": 6918,
      "combater": 6919,
      "significados": 6920,
      "cífico": 6921,
      "próximas": 6922,
      "zonas": 6923,
      "dinâmica": 6924,
      "existência": 6925,
      "ficadas": 6926,
      "Un": 6927,
      "Continue": 6928,
      "University": 6929,
      "96": 6930,
      "resulta": 6931,
      "desigual": 6932,
      "Introdução": 6933,
      "imuno": 6934,
      "ficaria": 6935,
      "mitigar": 6936,
      "76": 6937,
      "Bon": 6938,
      "computadores": 6939,
      "ricos": 6940,
      "contemporâne": 6941,
      "fracas": 6942,
      "longas": 6943,
      "demanda": 6944,
      "seguindo": 6945,
      "exigir": 6946,
      "evidente": 6947,
      "alegria": 6948,
      "derrota": 6949,
      "clubes": 6950,
      "surpresa": 6951,
      "ácida": 6952,
      "tropi": 6953,
      "ológico": 6954,
      "somos": 6955,
      "britânica": 6956,
      "atletas": 6957,
      "sights": 6958,
      "obtemos": 6959,
      "restrições": 6960,
      "imos": 6961,
      "cír": 6962,
      "fina": 6963,
      "rs": 6964,
      "morrer": 6965,
      "Del": 6966,
      "North": 6967,
      "bordo": 6968,
      "discute": 6969,
      "bone": 6970,
      "intest": 6971,
      "forneça": 6972,
      "parceria": 6973,
      "TE": 6974,
      "exame": 6975,
      "idio": 6976,
      "bridge": 6977,
      "calorias": 6978,
      "vermelhas": 6979,
      "garo": 6980,
      "compet": 6981,
      "engenharia": 6982,
      "ingles": 6983,
      "criatividade": 6984,
      "agência": 6985,
      "zada": 6986,
      "Lor": 6987,
      "individual": 6988,
      "impres": 6989,
      "lua": 6990,
      "denta": 6991,
      "bolos": 6992,
      "inteiro": 6993,
      "longos": 6994,
      "Obama": 6995,
      "laranjas": 6996,
      "dissol": 6997,
      "False": 6998,
      "wbo": 6999,
      "Ocidental": 7000,
      "áu": 7001,
      "ofen": 7002,
      "infância": 7003,
      "suavemente": 7004,
      "gastar": 7005,
      "recomendar": 7006,
      "chapéu": 7007,
      "literatura": 7008,
      "[\\": 7009,
      "subi": 7010,
      "neamente": 7011,
      "comportamentos": 7012,
      "ficial": 7013,
      "160": 7014,
      "Scott": 7015,
      "Cin": 7016,
      "Kar": 7017,
      "ize": 7018,
      "consist": 7019,
      "Elizabeth": 7020,
      "Através": 7021,
      "Rachel": 7022,
      "Ilha": 7023,
      "defender": 7024,
      "terreno": 7025,
      "gantes": 7026,
      "calças": 7027,
      "Real": 7028,
      "mostram": 7029,
      "produtividade": 7030,
      "itz": 7031,
      "formada": 7032,
      "sonho": 7033,
      "Ger": 7034,
      "domínio": 7035,
      "video": 7036,
      "tero": 7037,
      "corretas": 7038,
      "Steph": 7039,
      "farinha": 7040,
      "concentração": 7041,
      "vadora": 7042,
      "extensão": 7043,
      "kin": 7044,
      "gordura": 7045,
      "derre": 7046,
      "ful": 7047,
      "intensidade": 7048,
      "cantor": 7049,
      "músicos": 7050,
      "divul": 7051,
      "Hor": 7052,
      "distra": 7053,
      "aumentou": 7054,
      "Susan": 7055,
      "formações": 7056,
      "lesão": 7057,
      "observar": 7058,
      "configuração": 7059,
      "Teste": 7060,
      "visa": 7061,
      "tró": 7062,
      "Jogos": 7063,
      "Sun": 7064,
      "repente": 7065,
      "reciclagem": 7066,
      "adequadamente": 7067,
      "tivar": 7068,
      "ars": 7069,
      "hábitos": 7070,
      "internet": 7071,
      "braço": 7072,
      "encontradas": 7073,
      "estará": 7074,
      "entrevista": 7075,
      "cerveja": 7076,
      "poderes": 7077,
      "lê": 7078,
      "entenda": 7079,
      "suporta": 7080,
      "hie": 7081,
      "recebi": 7082,
      "estabeleceu": 7083,
      "chinês": 7084,
      "condu": 7085,
      "moderno": 7086,
      "ajustar": 7087,
      "prestes": 7088,
      "essem": 7089,
      "registro": 7090,
      "tarem": 7091,
      "confiáveis": 7092,
      "mantê": 7093,
      "agentes": 7094,
      "Valor": 7095,
      "aspi": 7096,
      "United": 7097,
      "criada": 7098,
      "circunda": 7099,
      "deco": 7100,
      "veram": 7101,
      "facilitar": 7102,
      "Evite": 7103,
      "fascina": 7104,
      "contínuo": 7105,
      "dançar": 7106,
      "insights": 7107,
      "pasta": 7108,
      "tamentos": 7109,
      "bron": 7110,
      "escapa": 7111,
      "horário": 7112,
      "inovação": 7113,
      "minas": 7114,
      "Nan": 7115,
      "logos": 7116,
      "formi": 7117,
      "públicas": 7118,
      "métri": 7119,
      "cenas": 7120,
      "Jerry": 7121,
      "Bir": 7122,
      "Alan": 7123,
      "param": 7124,
      "alternativa": 7125,
      "proteína": 7126,
      "infantil": 7127,
      "eleição": 7128,
      "SA": 7129,
      "reais": 7130,
      "produzem": 7131,
      "jurí": 7132,
      "riqueza": 7133,
      "finais": 7134,
      "seco": 7135,
      "diário": 7136,
      "alidades": 7137,
      "1960": 7138,
      "registros": 7139,
      "Boo": 7140,
      "prever": 7141,
      "arco": 7142,
      "gil": 7143,
      "últimas": 7144,
      "Play": 7145,
      "presos": 7146,
      "ocor": 7147,
      "alimento": 7148,
      "deserto": 7149,
      "Wat": 7150,
      "dedos": 7151,
      "juiz": 7152,
      "Edward": 7153,
      "forme": 7154,
      "ilustra": 7155,
      "reira": 7156,
      "pior": 7157,
      "tentam": 7158,
      "deficiência": 7159,
      "78": 7160,
      "Campe": 7161,
      "alemão": 7162,
      "notícia": 7163,
      "indiano": 7164,
      "vs": 7165,
      "aproveitar": 7166,
      "meda": 7167,
      "messa": 7168,
      "capturar": 7169,
      "yo": 7170,
      "dina": 7171,
      "enz": 7172,
      "considera": 7173,
      "Kevin": 7174,
      "braços": 7175,
      "imentos": 7176,
      "tiro": 7177,
      "companheiro": 7178,
      "caminhar": 7179,
      "abaste": 7180,
      "mático": 7181,
      "quintal": 7182,
      "eco": 7183,
      "vidade": 7184,
      "menu": 7185,
      "Bai": 7186,
      "grãos": 7187,
      "rinha": 7188,
      "cobrir": 7189,
      "poderosa": 7190,
      "recebem": 7191,
      "gadas": 7192,
      "tém": 7193,
      "win": 7194,
      "diag": 7195,
      "Plan": 7196,
      "tecidos": 7197,
      "bilização": 7198,
      "pux": 7199,
      "cund": 7200,
      "Rock": 7201,
      "nis": 7202,
      "féri": 7203,
      "procuram": 7204,
      "acreditar": 7205,
      "grave": 7206,
      "significam": 7207,
      "PS": 7208,
      "analis": 7209,
      "interessadas": 7210,
      "descrevem": 7211,
      "fornecidos": 7212,
      "muçul": 7213,
      "blocos": 7214,
      "Ei": 7215,
      "pica": 7216,
      "amostra": 7217,
      "aposentado": 7218,
      "contendo": 7219,
      "selecionar": 7220,
      "instrumentos": 7221,
      "nacionais": 7222,
      "toal": 7223,
      "grantes": 7224,
      "Sil": 7225,
      "aplicações": 7226,
      "tz": 7227,
      "capacidades": 7228,
      "tradição": 7229,
      "antigas": 7230,
      "passam": 7231,
      "Mou": 7232,
      "proibi": 7233,
      "cabelos": 7234,
      "separar": 7235,
      "bres": 7236,
      "interface": 7237,
      "contrato": 7238,
      "independência": 7239,
      "levá": 7240,
      "Ira": 7241,
      "onia": 7242,
      "ont": 7243,
      "cto": 7244,
      "Apple": 7245,
      "vações": 7246,
      "plena": 7247,
      "Kate": 7248,
      "ocasi": 7249,
      "pper": 7250,
      "nove": 7251,
      "andro": 7252,
      "conquista": 7253,
      "imposto": 7254,
      "Seja": 7255,
      "episódio": 7256,
      "BI": 7257,
      "beira": 7258,
      "orador": 7259,
      "extras": 7260,
      "bil": 7261,
      "componente": 7262,
      "rir": 7263,
      "fáceis": 7264,
      "acampamento": 7265,
      "2018": 7266,
      "quistão": 7267,
      "2001": 7268,
      "característica": 7269,
      "cujo": 7270,
      "recru": 7271,
      "biodiversidade": 7272,
      "encaixa": 7273,
      "debate": 7274,
      "ameaças": 7275,
      "causas": 7276,
      "consideração": 7277,
      "Loca": 7278,
      "inser": 7279,
      "nau": 7280,
      "destaque": 7281,
      "mond": 7282,
      "nariz": 7283,
      "contínua": 7284,
      "fábrica": 7285,
      "pagou": 7286,
      "obstáculos": 7287,
      "festival": 7288,
      "diversificada": 7289,
      "dirige": 7290,
      "acusações": 7291,
      "milho": 7292,
      "tha": 7293,
      "segurar": 7294,
      "descont": 7295,
      "cionalidade": 7296,
      "anel": 7297,
      "complexos": 7298,
      "quim": 7299,
      "maravilhos": 7300,
      "cál": 7301,
      "republica": 7302,
      "lhado": 7303,
      "atinge": 7304,
      "poderoso": 7305,
      "preferência": 7306,
      "lrb": 7307,
      "Williams": 7308,
      "movendo": 7309,
      "produtor": 7310,
      "despe": 7311,
      "independentemente": 7312,
      "vais": 7313,
      "aprendeu": 7314,
      "gentil": 7315,
      "perman": 7316,
      "mática": 7317,
      "Glo": 7318,
      "plaus": 7319,
      "Solução": 7320,
      "globais": 7321,
      "TION": 7322,
      "permaneceu": 7323,
      "pir": 7324,
      "símbolo": 7325,
      "Rio": 7326,
      "Experi": 7327,
      "utilizados": 7328,
      "vér": 7329,
      "gravação": 7330,
      "Oriente": 7331,
      "2003": 7332,
      "exibição": 7333,
      "marcar": 7334,
      "retrato": 7335,
      "Mem": 7336,
      "Tan": 7337,
      "Vol": 7338,
      "bam": 7339,
      "assistindo": 7340,
      "canais": 7341,
      "aba": 7342,
      "manos": 7343,
      "falsa": 7344,
      "riso": 7345,
      "envel": 7346,
      "Spi": 7347,
      "Medi": 7348,
      "Cru": 7349,
      "centra": 7350,
      "esgo": 7351,
      "elétricos": 7352,
      "ró": 7353,
      "doente": 7354,
      "eletro": 7355,
      "Casey": 7356,
      "Oceano": 7357,
      "civis": 7358,
      "primavera": 7359,
      "descrita": 7360,
      "encontraram": 7361,
      "Ah": 7362,
      "curi": 7363,
      "luzes": 7364,
      "clá": 7365,
      "vínculo": 7366,
      "suprimentos": 7367,
      "ffe": 7368,
      "abrigo": 7369,
      "coro": 7370,
      "peito": 7371,
      "órgãos": 7372,
      "Er": 7373,
      "fast": 7374,
      "dense": 7375,
      "relatórios": 7376,
      "lucra": 7377,
      "mulo": 7378,
      "alimentação": 7379,
      "comis": 7380,
      "evidência": 7381,
      "referindo": 7382,
      "hia": 7383,
      "Phil": 7384,
      "naquele": 7385,
      "CE": 7386,
      "Gri": 7387,
      "ovo": 7388,
      "haviam": 7389,
      "anas": 7390,
      "destas": 7391,
      "criaturas": 7392,
      "esas": 7393,
      "idência": 7394,
      "descan": 7395,
      "abriu": 7396,
      "oposição": 7397,
      "estô": 7398,
      "investimentos": 7399,
      "rence": 7400,
      "Brad": 7401,
      "indígenas": 7402,
      "nou": 7403,
      "servem": 7404,
      "documentos": 7405,
      "equilib": 7406,
      "rainha": 7407,
      "vocal": 7408,
      "Batalha": 7409,
      "mecanismos": 7410,
      "dupla": 7411,
      "Precis": 7412,
      "publicado": 7413,
      "País": 7414,
      "ego": 7415,
      "quadro": 7416,
      "East": 7417,
      "Compreen": 7418,
      "NFL": 7419,
      "into": 7420,
      "medicina": 7421,
      "Cy": 7422,
      "ese": 7423,
      "Força": 7424,
      "incapaz": 7425,
      "6666": 7426,
      "Law": 7427,
      "impactar": 7428,
      "insul": 7429,
      "diminui": 7430,
      "influenciar": 7431,
      "diversos": 7432,
      "question": 7433,
      "flutu": 7434,
      "sessões": 7435,
      "sio": 7436,
      "consigo": 7437,
      "cláusu": 7438,
      "ribei": 7439,
      "responsabilidades": 7440,
      "zam": 7441,
      "contex": 7442,
      "Racio": 7443,
      "comendo": 7444,
      "tora": 7445,
      "colocando": 7446,
      "Recor": 7447,
      "exceto": 7448,
      "masculino": 7449,
      "integração": 7450,
      "dequ": 7451,
      "combate": 7452,
      "Será": 7453,
      "ep": 7454,
      "Fred": 7455,
      "Joseph": 7456,
      "gida": 7457,
      "orden": 7458,
      "província": 7459,
      "Compan": 7460,
      "chei": 7461,
      "Apenas": 7462,
      "Câ": 7463,
      "alum": 7464,
      "economizar": 7465,
      "príncipe": 7466,
      "nações": 7467,
      "venti": 7468,
      "excepcional": 7469,
      "class": 7470,
      "possuem": 7471,
      "raça": 7472,
      "Bio": 7473,
      "Ener": 7474,
      "limitada": 7475,
      "Far": 7476,
      "asha": 7477,
      "cresceu": 7478,
      "bonito": 7479,
      "hipo": 7480,
      "argumento": 7481,
      "preservar": 7482,
      "XI": 7483,
      "nó": 7484,
      "crença": 7485,
      "legumes": 7486,
      "Bol": 7487,
      "programação": 7488,
      "figuras": 7489,
      "Uau": 7490,
      "vina": 7491,
      "conferência": 7492,
      "voar": 7493,
      "dentalmente": 7494,
      "Nei": 7495,
      "dício": 7496,
      "observando": 7497,
      "ire": 7498,
      "línguas": 7499,
      "inflama": 7500,
      "ocidental": 7501,
      "empatia": 7502,
      "dete": 7503,
      "fui": 7504,
      "preparando": 7505,
      "vivos": 7506,
      "fígado": 7507,
      "Dê": 7508,
      "ets": 7509,
      "lembra": 7510,
      "agências": 7511,
      "futuros": 7512,
      "anúncios": 7513,
      "navegação": 7514,
      "MP": 7515,
      "rebel": 7516,
      "brancos": 7517,
      "sula": 7518,
      "organismo": 7519,
      "nior": 7520,
      "departamento": 7521,
      "chegada": 7522,
      "desaponta": 7523,
      "LE": 7524,
      "agen": 7525,
      "endere": 7526,
      "vizinhos": 7527,
      "parafrase": 7528,
      "escuro": 7529,
      "Raciocinação": 7530,
      "ológicos": 7531,
      "ínio": 7532,
      "Hal": 7533,
      "estômago": 7534,
      "território": 7535,
      "ástica": 7536,
      "már": 7537,
      "Britâ": 7538,
      "coletar": 7539,
      "tein": 7540,
      "rodas": 7541,
      "governador": 7542,
      "iniciais": 7543,
      "casar": 7544,
      "brilho": 7545,
      "Stra": 7546,
      "mínimo": 7547,
      "Definitivamente": 7548,
      "histórica": 7549,
      "Bailey": 7550,
      "secund": 7551,
      "pias": 7552,
      "escolar": 7553,
      "descobertas": 7554,
      "buscar": 7555,
      "moeda": 7556,
      "comunica": 7557,
      "pere": 7558,
      "feros": 7559,
      "Brasil": 7560,
      "divertida": 7561,
      "funcionamento": 7562,
      "Harris": 7563,
      "centí": 7564,
      "gols": 7565,
      "prensa": 7566,
      "deliciosa": 7567,
      "passando": 7568,
      "continente": 7569,
      "crista": 7570,
      "aluguel": 7571,
      "residentes": 7572,
      "orienta": 7573,
      "arde": 7574,
      "concerto": 7575,
      "parando": 7576,
      "ísticos": 7577,
      "Quinn": 7578,
      "sinta": 7579,
      "bai": 7580,
      "infecção": 7581,
      "tripulação": 7582,
      "associada": 7583,
      "formam": 7584,
      "olina": 7585,
      "Kan": 7586,
      "desperdício": 7587,
      "recebido": 7588,
      "evapo": 7589,
      "elândia": 7590,
      "Homem": 7591,
      "rinhos": 7592,
      "colori": 7593,
      "Clas": 7594,
      "improvável": 7595,
      "Ass": 7596,
      "interru": 7597,
      "substância": 7598,
      "começando": 7599,
      "Rose": 7600,
      "degra": 7601,
      "itter": 7602,
      "cook": 7603,
      "inadequ": 7604,
      "obteve": 7605,
      "interno": 7606,
      "confronta": 7607,
      "ope": 7608,
      "limão": 7609,
      "string": 7610,
      "marrom": 7611,
      "sentar": 7612,
      "afec": 7613,
      "Identifique": 7614,
      "Fede": 7615,
      "faixas": 7616,
      "Len": 7617,
      "intervalo": 7618,
      "companheiros": 7619,
      "Gene": 7620,
      "Manchester": 7621,
      "copo": 7622,
      "acidentalmente": 7623,
      "expandir": 7624,
      "multa": 7625,
      "dáveis": 7626,
      "visualmente": 7627,
      "destacar": 7628,
      "alumínio": 7629,
      "caridade": 7630,
      "reconhece": 7631,
      "Roma": 7632,
      "dobro": 7633,
      "mencionou": 7634,
      "promovendo": 7635,
      "illa": 7636,
      "Carson": 7637,
      "Cat": 7638,
      "izados": 7639,
      "ausência": 7640,
      "reivindicação": 7641,
      "52": 7642,
      "encaix": 7643,
      "ênfase": 7644,
      "coerente": 7645,
      "Jessica": 7646,
      "Dal": 7647,
      "camisas": 7648,
      "vasos": 7649,
      "distin": 7650,
      "Review": 7651,
      "devas": 7652,
      ".\"": 7653,
      "subja": 7654,
      "álbuns": 7655,
      "antece": 7656,
      "tie": 7657,
      "caver": 7658,
      "contribuiu": 7659,
      "Jeff": 7660,
      "Center": 7661,
      "gy": 7662,
      "Gil": 7663,
      "prision": 7664,
      "contradiz": 7665,
      "mere": 7666,
      "''": 7667,
      "sanguínea": 7668,
      "interpretação": 7669,
      "explora": 7670,
      "fuso": 7671,
      "entregar": 7672,
      "processamento": 7673,
      "factual": 7674,
      "colu": 7675,
      "Ini": 7676,
      "lador": 7677,
      "investigar": 7678,
      "japonês": 7679,
      "manteve": 7680,
      "adequadas": 7681,
      "universo": 7682,
      "Micros": 7683,
      "detri": 7684,
      "cresce": 7685,
      "carregado": 7686,
      "discriminação": 7687,
      "Nenhuma": 7688,
      "Gor": 7689,
      "estivesse": 7690,
      "Cidade": 7691,
      "FI": 7692,
      "precisará": 7693,
      "Remy": 7694,
      "delas": 7695,
      "conseguir": 7696,
      "Fato": 7697,
      "carregar": 7698,
      "dico": 7699,
      "sugerem": 7700,
      "talentos": 7701,
      "tomadas": 7702,
      "deslum": 7703,
      "resultou": 7704,
      "factores": 7705,
      "OR": 7706,
      "coordena": 7707,
      "thur": 7708,
      "herói": 7709,
      "pilha": 7710,
      "1999": 7711,
      "decepção": 7712,
      "calcula": 7713,
      "sedimentos": 7714,
      "perfil": 7715,
      "timos": 7716,
      "pool": 7717,
      "tensões": 7718,
      "noci": 7719,
      "pping": 7720,
      "hidra": 7721,
      "gasta": 7722,
      "preocupado": 7723,
      "Equi": 7724,
      "Comi": 7725,
      "ligeiramente": 7726,
      "predadores": 7727,
      "preocu": 7728,
      "predomin": 7729,
      "acessar": 7730,
      "barras": 7731,
      "moviment": 7732,
      "more": 7733,
      "Estabele": 7734,
      "desaparece": 7735,
      "monar": 7736,
      "manifesta": 7737,
      ":-": 7738,
      "representam": 7739,
      "77": 7740,
      "séculos": 7741,
      "Formular": 7742,
      "doras": 7743,
      "patri": 7744,
      "digitais": 7745,
      "traços": 7746,
      "planejamento": 7747,
      "estadu": 7748,
      "naturalmente": 7749,
      "Sin": 7750,
      "ting": 7751,
      "trô": 7752,
      "depu": 7753,
      "né": 7754,
      "econômico": 7755,
      "Fornecer": 7756,
      "enfrentou": 7757,
      "Jenni": 7758,
      "bancos": 7759,
      "centros": 7760,
      "motivação": 7761,
      "single": 7762,
      "sujeira": 7763,
      "tendência": 7764,
      "elétrons": 7765,
      "complement": 7766,
      "ady": 7767,
      "desempenhar": 7768,
      "aliviar": 7769,
      "aço": 7770,
      "limitações": 7771,
      "sucess": 7772,
      "indiana": 7773,
      "traje": 7774,
      "infraestrutura": 7775,
      "Ram": 7776,
      "perador": 7777,
      "mencionadas": 7778,
      "cita": 7779,
      "alien": 7780,
      "dirigindo": 7781,
      "lison": 7782,
      "ferido": 7783,
      "Day": 7784,
      "enviado": 7785,
      "conhecimentos": 7786,
      "All": 7787,
      "crit": 7788,
      "2002": 7789,
      "respondeu": 7790,
      "67": 7791,
      "Tru": 7792,
      "Problema": 7793,
      "Monte": 7794,
      "cs": 7795,
      "nozes": 7796,
      "configurações": 7797,
      "Cambridge": 7798,
      "Acho": 7799,
      "Consequ": 7800,
      "hard": 7801,
      "ground": 7802,
      "BBC": 7803,
      "projetados": 7804,
      "tentativas": 7805,
      "ston": 7806,
      "Ly": 7807,
      "teto": 7808,
      "britânicos": 7809,
      "document": 7810,
      "gigante": 7811,
      "contribuindo": 7812,
      "pensam": 7813,
      "mandante": 7814,
      "turistas": 7815,
      "Fel": 7816,
      "Iraque": 7817,
      "Pacífico": 7818,
      "laboratório": 7819,
      "cuja": 7820,
      "transformar": 7821,
      "publicidade": 7822,
      "prioridade": 7823,
      "240": 7824,
      "lica": 7825,
      "consulta": 7826,
      "Gan": 7827,
      "perna": 7828,
      "çadas": 7829,
      "atrav": 7830,
      "revolu": 7831,
      "Chan": 7832,
      "afirmou": 7833,
      "Aeroporto": 7834,
      "transmissão": 7835,
      "cientes": 7836,
      "senhor": 7837,
      "Will": 7838,
      "fla": 7839,
      "tempor": 7840,
      "hy": 7841,
      "comeu": 7842,
      "ômica": 7843,
      "grau": 7844,
      "rouba": 7845,
      "reduzido": 7846,
      "raciocin": 7847,
      "Bor": 7848,
      "MA": 7849,
      "pati": 7850,
      "viética": 7851,
      "inspe": 7852,
      "reo": 7853,
      "centímetros": 7854,
      "Jennifer": 7855,
      "encontrei": 7856,
      "apreciar": 7857,
      "ous": 7858,
      "iguais": 7859,
      "clássico": 7860,
      "landês": 7861,
      "fício": 7862,
      "separadas": 7863,
      "Assu": 7864,
      "ish": 7865,
      "sudeste": 7866,
      "fotossíntese": 7867,
      "õem": 7868,
      "rodada": 7869,
      "mau": 7870,
      "Cle": 7871,
      "chate": 7872,
      "colis": 7873,
      "baseadas": 7874,
      "atendimento": 7875,
      "roteiro": 7876,
      "nuvem": 7877,
      "Aé": 7878,
      "condução": 7879,
      "acompanhar": 7880,
      "Oriental": 7881,
      "apari": 7882,
      "aquele": 7883,
      "tira": 7884,
      "Boston": 7885,
      "()": 7886,
      "aceitar": 7887,
      "escolheu": 7888,
      "Entrada": 7889,
      "tendem": 7890,
      "assumiu": 7891,
      "energ": 7892,
      "barato": 7893,
      "relaxamento": 7894,
      "360": 7895,
      "externa": 7896,
      "47": 7897,
      "centenas": 7898,
      "perceber": 7899,
      "pesco": 7900,
      "tagon": 7901,
      "Flo": 7902,
      "récia": 7903,
      "DNA": 7904,
      "vigor": 7905,
      "trabalhos": 7906,
      "bale": 7907,
      "corrupção": 7908,
      "uel": 7909,
      "lidos": 7910,
      "culado": 7911,
      "bilhões": 7912,
      "ím": 7913,
      "resfria": 7914,
      "jetivo": 7915,
      "renovável": 7916,
      "Ala": 7917,
      "transferência": 7918,
      "notur": 7919,
      "mapa": 7920,
      "Ada": 7921,
      "Dave": 7922,
      "leal": 7923,
      "ouviu": 7924,
      "torre": 7925,
      "sonora": 7926,
      "conjuntos": 7927,
      "PC": 7928,
      "cór": 7929,
      "espel": 7930,
      "SI": 7931,
      "prêmios": 7932,
      "discutindo": 7933,
      "encer": 7934,
      "Ann": 7935,
      "voluntar": 7936,
      "Grécia": 7937,
      "Arthur": 7938,
      "queriam": 7939,
      "anúncio": 7940,
      "proeminente": 7941,
      "bina": 7942,
      "nuvens": 7943,
      "Forneça": 7944,
      "continuamente": 7945,
      "descobrem": 7946,
      "ológicas": 7947,
      "ívio": 7948,
      "Grupo": 7949,
      "Oscar": 7950,
      "Cole": 7951,
      "pso": 7952,
      "quadrado": 7953,
      "prata": 7954,
      "Israel": 7955,
      "tag": 7956,
      "percepção": 7957,
      "Lisa": 7958,
      "sacri": 7959,
      "astro": 7960,
      "Câmara": 7961,
      "fuga": 7962,
      "Laura": 7963,
      "Microsoft": 7964,
      "encontrá": 7965,
      "cipi": 7966,
      "moral": 7967,
      "day": 7968,
      "corresponde": 7969,
      "cumprir": 7970,
      "desas": 7971,
      "abuso": 7972,
      "Tro": 7973,
      "impulsiona": 7974,
      "deter": 7975,
      "estacionamento": 7976,
      "Corpo": 7977,
      "Ku": 7978,
      "ouve": 7979,
      "feminino": 7980,
      "reuniões": 7981,
      "Hel": 7982,
      "lendo": 7983,
      "ku": 7984,
      "mindo": 7985,
      "agir": 7986,
      "tratamentos": 7987,
      "gasolina": 7988,
      "torneio": 7989,
      "oficialmente": 7990,
      "torne": 7991,
      "descrevendo": 7992,
      "assento": 7993,
      "Eric": 7994,
      "1998": 7995,
      "rendimentos": 7996,
      "piano": 7997,
      "precisas": 7998,
      "desencade": 7999,
      "mamí": 8000,
      "progres": 8001,
      "adoção": 8002,
      "Nações": 8003,
      "ander": 8004,
      "box": 8005,
      "pratel": 8006,
      "deixá": 8007,
      "vias": 8008,
      "tismo": 8009,
      "chinesa": 8010,
      "proprietários": 8011,
      "ntamente": 8012,
      "terrível": 8013,
      "Lucro": 8014,
      "missões": 8015,
      "liberação": 8016,
      "Corte": 8017,
      "meteor": 8018,
      "Decla": 8019,
      "saté": 8020,
      "inada": 8021,
      "corrigir": 8022,
      "horm": 8023,
      "legado": 8024,
      "Europe": 8025,
      "óquei": 8026,
      "definido": 8027,
      "gitos": 8028,
      "filma": 8029,
      "vadoras": 8030,
      "leu": 8031,
      "aviões": 8032,
      "universidades": 8033,
      "anuncia": 8034,
      "fome": 8035,
      "seguiu": 8036,
      "Data": 8037,
      "tima": 8038,
      "Pan": 8039,
      "Santa": 8040,
      "avó": 8041,
      "modernos": 8042,
      "anunciou": 8043,
      "crição": 8044,
      "econômica": 8045,
      "Compreender": 8046,
      "protagon": 8047,
      "órios": 8048,
      "Jordan": 8049,
      "experimentou": 8050,
      "filia": 8051,
      "lash": 8052,
      "inger": 8053,
      "ascensão": 8054,
      "xt": 8055,
      "cadeiras": 8056,
      "bandeja": 8057,
      "dígitos": 8058,
      "Tanto": 8059,
      "terremoto": 8060,
      "Houve": 8061,
      "Andrew": 8062,
      "TIONS": 8063,
      "realizando": 8064,
      "envelhe": 8065,
      "enfermei": 8066,
      "inva": 8067,
      "Oh": 8068,
      "Tendo": 8069,
      "nts": 8070,
      "pato": 8071,
      "ultra": 8072,
      "plausível": 8073,
      "mesas": 8074,
      "castelo": 8075,
      "tabela": 8076,
      "entram": 8077,
      "meados": 8078,
      "gêneros": 8079,
      "afia": 8080,
      "acumu": 8081,
      "crá": 8082,
      "Gales": 8083,
      "consideradas": 8084,
      "amarelo": 8085,
      "acrescenta": 8086,
      "pór": 8087,
      "complexas": 8088,
      "portas": 8089,
      "falam": 8090,
      "descans": 8091,
      "ace": 8092,
      "adaptação": 8093,
      "Bat": 8094,
      "Of": 8095,
      "construída": 8096,
      "antecipa": 8097,
      "versa": 8098,
      "igan": 8099,
      "graduação": 8100,
      "Yu": 8101,
      "atuação": 8102,
      "botão": 8103,
      "muscular": 8104,
      "remoção": 8105,
      "Desta": 8106,
      "Hos": 8107,
      "bin": 8108,
      "concre": 8109,
      "Award": 8110,
      "dependem": 8111,
      "governamentais": 8112,
      "favoritos": 8113,
      "Gro": 8114,
      "OPTIONS": 8115,
      "vadores": 8116,
      "Carolina": 8117,
      "usaram": 8118,
      "apresentam": 8119,
      "pobreza": 8120,
      "bou": 8121,
      "tude": 8122,
      "vendedor": 8123,
      "sores": 8124,
      "seguidores": 8125,
      "adivin": 8126,
      "63": 8127,
      "igualmente": 8128,
      "brantes": 8129,
      "expul": 8130,
      "átomos": 8131,
      "budis": 8132,
      "One": 8133,
      "tú": 8134,
      "frag": 8135,
      "Difer": 8136,
      "ésia": 8137,
      "causou": 8138,
      "Sis": 8139,
      "bano": 8140,
      "Event": 8141,
      "fenô": 8142,
      "viveu": 8143,
      "alívio": 8144,
      "treino": 8145,
      "thy": 8146,
      "Subs": 8147,
      "destruição": 8148,
      "ganharam": 8149,
      "Nu": 8150,
      "Inclu": 8151,
      "medir": 8152,
      "coloque": 8153,
      "ét": 8154,
      "mista": 8155,
      "confusão": 8156,
      "Rou": 8157,
      "desejado": 8158,
      "Indiana": 8159,
      "apresentando": 8160,
      "pórter": 8161,
      "frustração": 8162,
      "pandemia": 8163,
      "inferência": 8164,
      "Marinha": 8165,
      "vizinho": 8166,
      "RE": 8167,
      "vesse": 8168,
      "cafe": 8169,
      "41": 8170,
      "ai": 8171,
      "carregando": 8172,
      "Egito": 8173,
      "Produ": 8174,
      "ave": 8175,
      "ricas": 8176,
      "aces": 8177,
      "recep": 8178,
      "Greg": 8179,
      "cooperação": 8180,
      "mandato": 8181,
      "bral": 8182,
      "virtual": 8183,
      "Tribunal": 8184,
      "hen": 8185,
      "celulares": 8186,
      "áticas": 8187,
      "ligado": 8188,
      "intri": 8189,
      "Amy": 8190,
      "substan": 8191,
      "ckey": 8192,
      "Larry": 8193,
      "head": 8194,
      "combinar": 8195,
      "emocionais": 8196,
      "justo": 8197,
      "pesado": 8198,
      "limite": 8199,
      "funcionalidade": 8200,
      "jogado": 8201,
      "regra": 8202,
      "Consequentemente": 8203,
      "Café": 8204,
      "Tente": 8205,
      "Proje": 8206,
      "cruciais": 8207,
      "Senado": 8208,
      "desculpas": 8209,
      "Dy": 8210,
      "tecnológi": 8211,
      "cp": 8212,
      "vencer": 8213,
      "ajudaram": 8214,
      "Hollywood": 8215,
      "parceiros": 8216,
      "semi": 8217,
      "Investi": 8218,
      "designer": 8219,
      "enviou": 8220,
      "psicológi": 8221,
      "Cri": 8222,
      "sério": 8223,
      "Tracy": 8224,
      "enfrentando": 8225,
      "Jean": 8226,
      "brilhantes": 8227,
      "normas": 8228,
      "vistos": 8229,
      "tomate": 8230,
      "vadas": 8231,
      "ficante": 8232,
      "gostou": 8233,
      "pensei": 8234,
      "geladeira": 8235,
      "Acredi": 8236,
      "tum": 8237,
      "adição": 8238,
      "intelec": 8239,
      "reforma": 8240,
      "parência": 8241,
      "Seguindo": 8242,
      "esfria": 8243,
      "lay": 8244,
      "vivendo": 8245,
      "Tam": 8246,
      "Bul": 8247,
      "situado": 8248,
      "juntou": 8249,
      "Jimmy": 8250,
      "preservação": 8251,
      "cará": 8252,
      "proximidades": 8253,
      "terno": 8254,
      "plan": 8255,
      "kh": 8256,
      "cansa": 8257,
      "esperava": 8258,
      "desenvolveu": 8259,
      "eliminar": 8260,
      "preta": 8261,
      "Aar": 8262,
      "Secre": 8263,
      "pago": 8264,
      "bolso": 8265,
      "South": 8266,
      "Cul": 8267,
      "gres": 8268,
      "Eag": 8269,
      "contribuíram": 8270,
      "Carl": 8271,
      "receberam": 8272,
      "parques": 8273,
      "consider": 8274,
      "Ano": 8275,
      "fascinante": 8276,
      "vulner": 8277,
      "jaqueta": 8278,
      "Steven": 8279,
      "sic": 8280,
      "imprensa": 8281,
      "Mul": 8282,
      "espero": 8283,
      "Razão": 8284,
      "associação": 8285,
      "Fam": 8286,
      "Art": 8287,
      "dormindo": 8288,
      "igualdade": 8289,
      "Remo": 8290,
      "couro": 8291,
      "devol": 8292,
      "osamente": 8293,
      "converter": 8294,
      "inspiração": 8295,
      "Declaração": 8296,
      "estradas": 8297,
      "Tommy": 8298,
      "Kenda": 8299,
      "dividindo": 8300,
      "adicionando": 8301,
      "Phi": 8302,
      "Sasha": 8303,
      "velhos": 8304,
      "proto": 8305,
      "associadas": 8306,
      "fê": 8307,
      "mexica": 8308,
      "68": 8309,
      "valiosas": 8310,
      "Paquistão": 8311,
      "aponta": 8312,
      "Gover": 8313,
      "estatísticas": 8314,
      "05": 8315,
      "ajuste": 8316,
      "priorizar": 8317,
      "Paulo": 8318,
      "bita": 8319,
      "maçã": 8320,
      "Der": 8321,
      "italiana": 8322,
      "hamb": 8323,
      "Guar": 8324,
      "centre": 8325,
      "horiz": 8326,
      "confortáveis": 8327,
      "Danny": 8328,
      "prefeito": 8329,
      "biografia": 8330,
      "apelo": 8331,
      "estoque": 8332,
      "gá": 8333,
      "americanas": 8334,
      "ribeirinha": 8335,
      "trabalhador": 8336,
      "multaneamente": 8337,
      "carrega": 8338,
      "Americana": 8339,
      "rez": 8340,
      "invent": 8341,
      "rista": 8342,
      "destacando": 8343,
      "acrescentou": 8344,
      "bens": 8345,
      "nero": 8346,
      "instal": 8347,
      "sabão": 8348,
      "defens": 8349,
      "repórter": 8350,
      "anex": 8351,
      "crimes": 8352,
      "dividido": 8353,
      "Jay": 8354,
      "MI": 8355,
      "izando": 8356,
      "ança": 8357,
      "tapete": 8358,
      "Simon": 8359,
      "ôs": 8360,
      "XIX": 8361,
      "inam": 8362,
      "gues": 8363,
      "cilia": 8364,
      "licen": 8365,
      "Jesus": 8366,
      "bomba": 8367,
      "judeus": 8368,
      "pedras": 8369,
      "Context": 8370,
      "Outras": 8371,
      "intrin": 8372,
      "Mich": 8373,
      "Kenne": 8374,
      "ofertas": 8375,
      "ácidos": 8376,
      "poeira": 8377,
      "assalto": 8378,
      "atmosféri": 8379,
      "Shar": 8380,
      "aprimo": 8381,
      "Hy": 8382,
      "Informações": 8383,
      "redação": 8384,
      "fogue": 8385,
      "clareza": 8386,
      "monitorar": 8387,
      "precipi": 8388,
      "falhas": 8389,
      "armário": 8390,
      "125": 8391,
      "habitação": 8392,
      "lembrete": 8393,
      "mai": 8394,
      "rele": 8395,
      "observação": 8396,
      "confiante": 8397,
      "famosa": 8398,
      "\\%": 8399,
      "critérios": 8400,
      "desvantagens": 8401,
      "Bron": 8402,
      "conseguiram": 8403,
      "faca": 8404,
      "xidade": 8405,
      "adivinhar": 8406,
      "suicídio": 8407,
      "Pou": 8408,
      "cogum": 8409,
      "forçado": 8410,
      "privado": 8411,
      "espalha": 8412,
      "Jef": 8413,
      "sombra": 8414,
      "\").": 8415,
      "bico": 8416,
      "acreditava": 8417,
      "naval": 8418,
      "umes": 8419,
      "segredo": 8420,
      "creme": 8421,
      "Kendall": 8422,
      "aden": 8423,
      "cozimento": 8424,
      "tratar": 8425,
      "fotografia": 8426,
      "pescoço": 8427,
      "roubar": 8428,
      "triz": 8429,
      "claras": 8430,
      "canal": 8431,
      "Twitter": 8432,
      "obrigado": 8433,
      "remotos": 8434,
      "sofri": 8435,
      "Sel": 8436,
      "Kai": 8437,
      "macia": 8438,
      "recomendaria": 8439,
      "episódios": 8440,
      "visíveis": 8441,
      "distante": 8442,
      "melo": 8443,
      "Ado": 8444,
      "entusiasmo": 8445,
      "realizações": 8446,
      "Amazon": 8447,
      "Mei": 8448,
      "sólido": 8449,
      "Hist": 8450,
      "MS": 8451,
      "ganhando": 8452,
      "formal": 8453,
      "VD": 8454,
      "cões": 8455,
      "ossos": 8456,
      "competências": 8457,
      "conhecem": 8458,
      "Golden": 8459,
      "Precisamos": 8460,
      "identificação": 8461,
      "Lit": 8462,
      "BS": 8463,
      "extrair": 8464,
      "Substitu": 8465,
      "sobrenome": 8466,
      "originais": 8467,
      "hóquei": 8468,
      "flexi": 8469,
      "cun": 8470,
      "apropriados": 8471,
      "sexuais": 8472,
      "balões": 8473,
      "partilha": 8474,
      "gamos": 8475,
      "sea": 8476,
      "lançar": 8477,
      "capitalização": 8478,
      "autent": 8479,
      "cirurgia": 8480,
      "escas": 8481,
      "velhas": 8482,
      "Aca": 8483,
      "acolhe": 8484,
      "género": 8485,
      ")^": 8486,
      "solares": 8487,
      "Segurança": 8488,
      "Envol": 8489,
      "Aérea": 8490,
      "Kay": 8491,
      "marinha": 8492,
      "Ainda": 8493,
      "terão": 8494,
      "músico": 8495,
      "ní": 8496,
      "Brook": 8497,
      "ligar": 8498,
      "Way": 8499,
      "chegam": 8500,
      "painéis": 8501,
      "aux": 8502,
      "ânsito": 8503,
      "quadrinhos": 8504,
      "abrevia": 8505,
      "Las": 8506,
      "venções": 8507,
      "sy": 8508,
      "goo": 8509,
      "atualização": 8510,
      "Liv": 8511,
      "ônimo": 8512,
      "interessantes": 8513,
      "participando": 8514,
      "discussões": 8515,
      "relaxar": 8516,
      "jão": 8517,
      "tone": 8518,
      "provar": 8519,
      "hós": 8520,
      "vírgula": 8521,
      "durar": 8522,
      "jeans": 8523,
      "lizantes": 8524,
      "oceanos": 8525,
      "Ell": 8526,
      "itu": 8527,
      "enfraque": 8528,
      "Time": 8529,
      "alterar": 8530,
      "desenvolvedores": 8531,
      "general": 8532,
      "opon": 8533,
      "explosão": 8534,
      "tory": 8535,
      "algas": 8536,
      "pulando": 8537,
      "Net": 8538,
      "AI": 8539,
      "jó": 8540,
      "noites": 8541,
      "Wol": 8542,
      "independentes": 8543,
      "98": 8544,
      "Veja": 8545,
      "SS": 8546,
      "Clinton": 8547,
      "queix": 8548,
      "polar": 8549,
      "alma": 8550,
      "herança": 8551,
      "Nel": 8552,
      "pedes": 8553,
      "executivo": 8554,
      "eru": 8555,
      "Note": 8556,
      "eficientes": 8557,
      "entidades": 8558,
      "alegações": 8559,
      "telhado": 8560,
      "iais": 8561,
      "43": 8562,
      "nitro": 8563,
      "County": 8564,
      "imunológico": 8565,
      "gidos": 8566,
      "querida": 8567,
      "passeios": 8568,
      "Club": 8569,
      "legisla": 8570,
      "android": 8571,
      "1950": 8572,
      "Médio": 8573,
      "ramente": 8574,
      "presiden": 8575,
      "tiram": 8576,
      "laços": 8577,
      "lím": 8578,
      "organizado": 8579,
      "pego": 8580,
      "Base": 8581,
      "Lí": 8582,
      "Sí": 8583,
      "piração": 8584,
      "clor": 8585,
      "eletrônicos": 8586,
      "oper": 8587,
      "higi": 8588,
      "superfícies": 8589,
      "propa": 8590,
      "derson": 8591,
      "químicas": 8592,
      "lante": 8593,
      "procedimentos": 8594,
      "coleta": 8595,
      "confiar": 8596,
      "mamíferos": 8597,
      "rurais": 8598,
      "lers": 8599,
      "brancas": 8600,
      "dentais": 8601,
      "queremos": 8602,
      "relata": 8603,
      "espanhol": 8604,
      "shows": 8605,
      "tono": 8606,
      "suspeita": 8607,
      "bando": 8608,
      "lyn": 8609,
      "Escrever": 8610,
      "gratidão": 8611,
      "bac": 8612,
      "complexidade": 8613,
      "cortes": 8614,
      "Addison": 8615,
      "canadense": 8616,
      "Dun": 8617,
      "instrumento": 8618,
      "Foo": 8619,
      "téis": 8620,
      "japonesa": 8621,
      "afirmações": 8622,
      "cruz": 8623,
      "ensinar": 8624,
      "fême": 8625,
      "puni": 8626,
      "ster": 8627,
      "Comuni": 8628,
      "pira": 8629,
      "Ron": 8630,
      "ampli": 8631,
      "indicam": 8632,
      "lucros": 8633,
      "supostamente": 8634,
      "acen": 8635,
      "acabei": 8636,
      "Ato": 8637,
      "úrguer": 8638,
      "quin": 8639,
      "respectivamente": 8640,
      "refugia": 8641,
      "codi": 8642,
      "acusado": 8643,
      "cionados": 8644,
      "áudio": 8645,
      "Demo": 8646,
      "vitórias": 8647,
      "interagir": 8648,
      "mons": 8649,
      "consistência": 8650,
      "frescos": 8651,
      "editor": 8652,
      "estaria": 8653,
      "uniforme": 8654,
      "Festival": 8655,
      "Dados": 8656,
      "ara": 8657,
      "lando": 8658,
      "alfa": 8659,
      "tratado": 8660,
      "tamanhos": 8661,
      "1994": 8662,
      "mito": 8663,
      "libra": 8664,
      "Pho": 8665,
      "desloca": 8666,
      "louça": 8667,
      "indireto": 8668,
      "orgulhos": 8669,
      "Grand": 8670,
      "Tenho": 8671,
      "móvel": 8672,
      "guei": 8673,
      "Ari": 8674,
      "Devido": 8675,
      "escolhido": 8676,
      "TO": 8677,
      "sali": 8678,
      "vítima": 8679,
      "bicicletas": 8680,
      "aviso": 8681,
      "Woo": 8682,
      "janelas": 8683,
      "Ami": 8684,
      "uvas": 8685,
      "clássica": 8686,
      "Ki": 8687,
      "gimento": 8688,
      "cordas": 8689,
      "lata": 8690,
      "trânsito": 8691,
      "mencionar": 8692,
      "descanso": 8693,
      "Zelândia": 8694,
      "siga": 8695,
      "religiosa": 8696,
      "Incenti": 8697,
      "fossem": 8698,
      "mobiliário": 8699,
      "Todas": 8700,
      "restos": 8701,
      "usões": 8702,
      "State": 8703,
      "Doug": 8704,
      "posse": 8705,
      "essência": 8706,
      "diretos": 8707,
      "rum": 8708,
      "Branca": 8709,
      "questra": 8710,
      "chegaram": 8711,
      "nucleares": 8712,
      "motivo": 8713,
      "Victoria": 8714,
      "expressando": 8715,
      "ctor": 8716,
      "ladr": 8717,
      "mária": 8718,
      "ae": 8719,
      "mantido": 8720,
      "consultar": 8721,
      "paro": 8722,
      "DE": 8723,
      "subterrâne": 8724,
      "mecânica": 8725,
      "=\"": 8726,
      "smart": 8727,
      "Ofere": 8728,
      "Vários": 8729,
      "desconforto": 8730,
      "elegante": 8731,
      "vela": 8732,
      "umi": 8733,
      "vância": 8734,
      "dobra": 8735,
      "maca": 8736,
      "News": 8737,
      "resgate": 8738,
      "bie": 8739,
      "determine": 8740,
      "RA": 8741,
      "ure": 8742,
      "Fox": 8743,
      "Museu": 8744,
      "Taxa": 8745,
      "topher": 8746,
      "ciosa": 8747,
      "evo": 8748,
      "transparência": 8749,
      "acidentes": 8750,
      "facilidade": 8751,
      "permanecem": 8752,
      "afro": 8753,
      "laho": 8754,
      "Stephen": 8755,
      "Royal": 8756,
      "promove": 8757,
      "forem": 8758,
      "Disney": 8759,
      "Riley": 8760,
      "mecanismo": 8761,
      "negro": 8762,
      "Centro": 8763,
      "esconder": 8764,
      "hambúrguer": 8765,
      "validade": 8766,
      "lies": 8767,
      "divertir": 8768,
      "consumir": 8769,
      "Road": 8770,
      "fundamentais": 8771,
      "pinturas": 8772,
      "acessibilidade": 8773,
      "cubos": 8774,
      "motores": 8775,
      "terback": 8776,
      "Lucy": 8777,
      "golfe": 8778,
      "lic": 8779,
      "subtrair": 8780,
      "imas": 8781,
      "cerimônia": 8782,
      "alon": 8783,
      "Pergu": 8784,
      "med": 8785,
      "qualidades": 8786,
      "baseados": 8787,
      "ken": 8788,
      "idosos": 8789,
      "convence": 8790,
      "saindo": 8791,
      "destaques": 8792,
      "bombarde": 8793,
      "mp": 8794,
      "colheres": 8795,
      "intitu": 8796,
      "sugerida": 8797,
      "Muito": 8798,
      "1996": 8799,
      "falante": 8800,
      "faltando": 8801,
      "brincar": 8802,
      "criam": 8803,
      "Pete": 8804,
      "absorção": 8805,
      "Hotel": 8806,
      "dano": 8807,
      "jogam": 8808,
      "92": 8809,
      "cável": 8810,
      "Prêmi": 8811,
      "engajamento": 8812,
      "ppi": 8813,
      "descobriram": 8814,
      "anato": 8815,
      "tona": 8816,
      "heiros": 8817,
      "postura": 8818,
      "Sand": 8819,
      "fictí": 8820,
      "conveniente": 8821,
      "Shi": 8822,
      "testos": 8823,
      "fabricante": 8824,
      "Anne": 8825,
      "depender": 8826,
      "Apo": 8827,
      "tana": 8828,
      "batendo": 8829,
      "Sher": 8830,
      "diárias": 8831,
      "grafi": 8832,
      "francesa": 8833,
      "rantes": 8834,
      "sentada": 8835,
      "academia": 8836,
      "belo": 8837,
      "cheiro": 8838,
      "profissão": 8839,
      "itiva": 8840,
      "inglesa": 8841,
      "endereço": 8842,
      "grego": 8843,
      "cookies": 8844,
      "tta": 8845,
      "mores": 8846,
      "imper": 8847,
      "consecu": 8848,
      "Jon": 8849,
      "justa": 8850,
      "aprendizado": 8851,
      "bloco": 8852,
      "abrange": 8853,
      "Ani": 8854,
      "rel": 8855,
      "colar": 8856,
      "João": 8857,
      "calma": 8858,
      "140": 8859,
      "matou": 8860,
      "comemo": 8861,
      "contagem": 8862,
      "Hil": 8863,
      "bronze": 8864,
      "diferencia": 8865,
      "atingiu": 8866,
      "lahoma": 8867,
      "Christopher": 8868,
      "vergon": 8869,
      "recomendo": 8870,
      "multiplicamos": 8871,
      "jú": 8872,
      "sofreu": 8873,
      "monitor": 8874,
      "dice": 8875,
      "profundas": 8876,
      "estereó": 8877,
      "vé": 8878,
      "Port": 8879,
      "sentem": 8880,
      "curtas": 8881,
      "wal": 8882,
      "marinhos": 8883,
      "crescem": 8884,
      "tárias": 8885,
      "planejar": 8886,
      "caminhadas": 8887,
      "board": 8888,
      "Little": 8889,
      "conselh": 8890,
      "Atla": 8891,
      "suportar": 8892,
      "belas": 8893,
      "Love": 8894,
      "separados": 8895,
      "Jenny": 8896,
      "Records": 8897,
      "wis": 8898,
      "bandas": 8899,
      "manchas": 8900,
      "quarterback": 8901,
      "esfre": 8902,
      "viva": 8903,
      "rosas": 8904,
      "Massa": 8905,
      "erva": 8906,
      "conheceu": 8907,
      "respeitos": 8908,
      "preparado": 8909,
      "protagonista": 8910,
      "ansioso": 8911,
      "CC": 8912,
      "hí": 8913,
      "ruído": 8914,
      "prolon": 8915,
      "ônias": 8916,
      "olhou": 8917,
      "plu": 8918,
      "cruza": 8919,
      "Soviética": 8920,
      "aérea": 8921,
      "Exem": 8922,
      "referir": 8923,
      "inteligentes": 8924,
      "fios": 8925,
      "Wilson": 8926,
      "círculo": 8927,
      "casaco": 8928,
      "Rol": 8929,
      "detalhado": 8930,
      "porção": 8931,
      "detectar": 8932,
      "renova": 8933,
      "silen": 8934,
      "afetam": 8935,
      "desenhos": 8936,
      "cô": 8937,
      "atitude": 8938,
      "ferrovi": 8939,
      "condenado": 8940,
      "DVD": 8941,
      "Insta": 8942,
      "desenvolvido": 8943,
      "Sur": 8944,
      "levará": 8945,
      "referido": 8946,
      "1991": 8947,
      "poema": 8948,
      "vibrante": 8949,
      "abastecimento": 8950,
      "flexibilidade": 8951,
      "frutos": 8952,
      "concisa": 8953,
      "nesses": 8954,
      "impulso": 8955,
      "Long": 8956,
      "caráter": 8957,
      "fugir": 8958,
      "cência": 8959,
      "intervenção": 8960,
      "publicação": 8961,
      "Civil": 8962,
      "fs": 8963,
      "iriam": 8964,
      "bby": 8965,
      "gostava": 8966,
      "1200": 8967,
      "Mill": 8968,
      "Oklahoma": 8969,
      "doeste": 8970,
      "companhia": 8971,
      "ópera": 8972,
      "homenagem": 8973,
      "Sally": 8974,
      "orgânicos": 8975,
      "salto": 8976,
      "excessivamente": 8977,
      "Ted": 8978,
      "vieram": 8979,
      "atributos": 8980,
      "incomum": 8981,
      "precipitação": 8982,
      "58": 8983,
      "escada": 8984,
      "concorrentes": 8985,
      "barreiras": 8986,
      "pinta": 8987,
      "infecções": 8988,
      "garagem": 8989,
      "filoso": 8990,
      "lântico": 8991,
      "necessi": 8992,
      "sof": 8993,
      "inhe": 8994,
      "inete": 8995,
      "olos": 8996,
      "ataca": 8997,
      "coru": 8998,
      "haverá": 8999,
      "negociações": 9000,
      "brey": 9001,
      "cardio": 9002,
      "atração": 9003,
      "vegan": 9004,
      "Bush": 9005,
      "Idade": 9006,
      "entro": 9007,
      "jado": 9008,
      "bebe": 9009,
      "FBI": 9010,
      "especialista": 9011,
      "incentiva": 9012,
      "now": 9013,
      "provei": 9014,
      "Island": 9015,
      "celebra": 9016,
      "posteriormente": 9017,
      "Fitz": 9018,
      "gerir": 9019,
      "funcionam": 9020,
      "gastos": 9021,
      "esquerdo": 9022,
      "Ox": 9023,
      "inspirado": 9024,
      "ckers": 9025,
      "ctos": 9026,
      "oney": 9027,
      "pessoalmente": 9028,
      "salão": 9029,
      "1995": 9030,
      "salas": 9031,
      "simultaneamente": 9032,
      "empréstimo": 9033,
      "Energia": 9034,
      "úsculas": 9035,
      "sanduíche": 9036,
      "Gos": 9037,
      "bolinhas": 9038,
      "teriam": 9039,
      "fisicamente": 9040,
      "nisso": 9041,
      "canções": 9042,
      "frey": 9043,
      "GB": 9044,
      "Sp": 9045,
      "comandante": 9046,
      "bour": 9047,
      "privada": 9048,
      "esticidas": 9049,
      "Anton": 9050,
      "risto": 9051,
      "sobreviventes": 9052,
      "cativante": 9053,
      "transportar": 9054,
      "cone": 9055,
      "aconselhamento": 9056,
      "denomin": 9057,
      "mancha": 9058,
      "subir": 9059,
      "cível": 9060,
      "Jr": 9061,
      "Vegas": 9062,
      "nestes": 9063,
      "Ever": 9064,
      "buscando": 9065,
      "conquistas": 9066,
      "grega": 9067,
      "paisagens": 9068,
      "fertilizantes": 9069,
      "ajude": 9070,
      "Patrio": 9071,
      "talhe": 9072,
      "1992": 9073,
      "cientista": 9074,
      "Les": 9075,
      "Havia": 9076,
      "transformação": 9077,
      "mat": 9078,
      "religiosos": 9079,
      "salada": 9080,
      "Indo": 9081,
      "tubo": 9082,
      "ioga": 9083,
      "Matthe": 9084,
      "estrelado": 9085,
      "Conclua": 9086,
      "ear": 9087,
      "campus": 9088,
      "térmica": 9089,
      "bebês": 9090,
      "incentivos": 9091,
      "Só": 9092,
      "lagos": 9093,
      "aprovação": 9094,
      "formado": 9095,
      "acredito": 9096,
      "star": 9097,
      "azei": 9098,
      "iii": 9099,
      "Company": 9100,
      "otimizar": 9101,
      "Revolução": 9102,
      "cking": 9103,
      "mulação": 9104,
      "Emma": 9105,
      "desenho": 9106,
      "argumentos": 9107,
      "Wo": 9108,
      "Browns": 9109,
      "Morgan": 9110,
      "Parque": 9111,
      "Howard": 9112,
      "sabendo": 9113,
      "Construa": 9114,
      "terial": 9115,
      "colapso": 9116,
      "Olím": 9117,
      "leto": 9118,
      "Dadas": 9119,
      "neutra": 9120,
      "casca": 9121,
      "conversão": 9122,
      "corredor": 9123,
      "700": 9124,
      "resumir": 9125,
      "tream": 9126,
      "ório": 9127,
      "Josh": 9128,
      "sólida": 9129,
      "pesa": 9130,
      "projetada": 9131,
      "84": 9132,
      "Mol": 9133,
      "Camp": 9134,
      "NBA": 9135,
      "izam": 9136,
      "ingestão": 9137,
      "elefa": 9138,
      "AL": 9139,
      "ww": 9140,
      "percebi": 9141,
      "game": 9142,
      "sensi": 9143,
      "decidem": 9144,
      "inv": 9145,
      "Michigan": 9146,
      "lagar": 9147,
      "ontem": 9148,
      "lã": 9149,
      "tari": 9150,
      "cópias": 9151,
      "cidentais": 9152,
      "crono": 9153,
      "sorri": 9154,
      "contribuição": 9155,
      "Assunto": 9156,
      "senha": 9157,
      "celebrar": 9158,
      "Posso": 9159,
      "Virgí": 9160,
      "partidas": 9161,
      "delicioso": 9162,
      "quare": 9163,
      "pido": 9164,
      "51": 9165,
      "russa": 9166,
      "nitrogênio": 9167,
      "digestão": 9168,
      "cup": 9169,
      "prevenção": 9170,
      "1997": 9171,
      "rastrear": 9172,
      "Europeia": 9173,
      "brindo": 9174,
      "Neil": 9175,
      "produtores": 9176,
      "2020": 9177,
      "rins": 9178,
      "prema": 9179,
      "intenções": 9180,
      "cipal": 9181,
      "Ár": 9182,
      "count": 9183,
      "estreia": 9184,
      "desigualdade": 9185,
      "Área": 9186,
      "morce": 9187,
      "mortes": 9188,
      "Síria": 9189,
      "expressões": 9190,
      "pton": 9191,
      "diversão": 9192,
      "nadar": 9193,
      "completou": 9194,
      "media": 9195,
      "piso": 9196,
      "aumentaria": 9197,
      "comigo": 9198,
      "misturar": 9199,
      "suplement": 9200,
      "Figu": 9201,
      "visibilidade": 9202,
      "nios": 9203,
      "imigrantes": 9204,
      "Kelly": 9205,
      "classes": 9206,
      "gueira": 9207,
      "Walter": 9208,
      "cerebral": 9209,
      "max": 9210,
      "Colum": 9211,
      "neutro": 9212,
      "apli": 9213,
      "pint": 9214,
      "conecta": 9215,
      "900": 9216,
      "correm": 9217,
      "OT": 9218,
      "arque": 9219,
      "Saúde": 9220,
      "admiração": 9221,
      "Sop": 9222,
      "vegetação": 9223,
      "classificar": 9224,
      "aren": 9225,
      "primária": 9226,
      "put": 9227,
      "painel": 9228,
      "jes": 9229,
      "dicos": 9230,
      "palest": 9231,
      "fumaça": 9232,
      "bê": 9233,
      "tions": 9234,
      "tubos": 9235,
      "prós": 9236,
      "golpe": 9237,
      "sanguíneos": 9238,
      "psico": 9239,
      "Unidas": 9240,
      "2019": 9241,
      "firme": 9242,
      "kicker": 9243,
      "utilizado": 9244,
      "daqueles": 9245,
      "esterol": 9246,
      "deveriam": 9247,
      "negociação": 9248,
      "parcerias": 9249,
      "Py": 9250,
      "ordin": 9251,
      "frá": 9252,
      "errada": 9253,
      "Quero": 9254,
      "Premi": 9255,
      "Jam": 9256,
      "caminhando": 9257,
      "amante": 9258,
      "Cel": 9259,
      "vazio": 9260,
      "brevemente": 9261,
      "mantha": 9262,
      "Vale": 9263,
      "movem": 9264,
      "deixaram": 9265,
      "inclua": 9266,
      "ologia": 9267,
      "inunda": 9268,
      "sofis": 9269,
      "utilizada": 9270,
      "estreita": 9271,
      "nervoso": 9272,
      "assinatura": 9273,
      "jazz": 9274,
      "gráficas": 9275,
      "nutrição": 9276,
      "elétrico": 9277,
      "perseguição": 9278,
      "lições": 9279,
      "Tenha": 9280,
      "apoi": 9281,
      "universitário": 9282,
      "fornecimento": 9283,
      "Ill": 9284,
      "lucrativos": 9285,
      "ocupação": 9286,
[...]
